{
  "version": "1.0",
  "truncation": null,
  "padding": null,
  "added_tokens": [
    {
      "id": 0,
      "content": "[PAD]",
      "single_word": false,
      "lstrip": false,
      "rstrip": false,
      "normalized": false,
      "special": true
    },
    {
      "id": 1,
      "content": "[UNK]",
      "single_word": false,
      "lstrip": false,
      "rstrip": false,
      "normalized": false,
      "special": true
    },
    {
      "id": 2,
      "content": "[CLS]",
      "single_word": false,
      "lstrip": false,
      "rstrip": false,
      "normalized": false,
      "special": true
    },
    {
      "id": 3,
      "content": "[SEP]",
      "single_word": false,
      "lstrip": false,
      "rstrip": false,
      "normalized": false,
      "special": true
    },
    {
      "id": 4,
      "content": "[MASK]",
      "single_word": false,
      "lstrip": false,
      "rstrip": false,
      "normalized": false,
      "special": true
    }
  ],
  "normalizer": {
    "type": "BertNormalizer",
    "clean_text": true,
    "handle_chinese_chars": true,
    "strip_accents": null,
    "lowercase": true
  },
  "pre_tokenizer": {
    "type": "BertPreTokenizer"
  },
  "post_processor": {
    "type": "TemplateProcessing",
    "single": [
      {
        "SpecialToken": {
          "id": "[CLS]",
          "type_id": 0
        }
      },
      {
        "Sequence": {
          "id": "A",
          "type_id": 0
        }
      },
      {
        "SpecialToken": {
          "id": "[SEP]",
          "type_id": 0
        }
      }
    ],
    "pair": [
      {
        "SpecialToken": {
          "id": "[CLS]",
          "type_id": 0
        }
      },
      {
        "Sequence": {
          "id": "A",
          "type_id": 0
        }
      },
      {
        "SpecialToken": {
          "id": "[SEP]",
          "type_id": 0
        }
      },
      {
        "Sequence": {
          "id": "B",
          "type_id": 1
        }
      },
      {
        "SpecialToken": {
          "id": "[SEP]",
          "type_id": 1
        }
      }
    ],
    "special_tokens": {
      "[CLS]": {
        "id": "[CLS]",
        "ids": [
          2
        ],
        "tokens": [
          "[CLS]"
        ]
      },
      "[SEP]": {
        "id": "[SEP]",
        "ids": [
          3
        ],
        "tokens": [
          "[SEP]"
        ]
      }
    }
  },
  "decoder": {
    "type": "WordPiece",
    "prefix": "##",
    "cleanup": true
  },
  "model": {
    "type": "WordPiece",
    "unk_token": "[UNK]",
    "continuing_subword_prefix": "##",
    "max_input_chars_per_word": 100,
    "vocab": {
      "[PAD]": 0,
      "[UNK]": 1,
      "[CLS]": 2,
      "[SEP]": 3,
      "[MASK]": 4,
      "!": 5,
      "\"": 6,
      "#": 7,
      "$": 8,
      "%": 9,
      "&": 10,
      "'": 11,
      "(": 12,
      ")": 13,
      "*": 14,
      "+": 15,
      ",": 16,
      "-": 17,
      ".": 18,
      "/": 19,
      "0": 20,
      "1": 21,
      "2": 22,
      "3": 23,
      "4": 24,
      "5": 25,
      "6": 26,
      "7": 27,
      "8": 28,
      "9": 29,
      ":": 30,
      ";": 31,
      "<": 32,
      "=": 33,
      ">": 34,
      "?": 35,
      "@": 36,
      "[": 37,
      "\\": 38,
      "]": 39,
      "^": 40,
      "_": 41,
      "`": 42,
      "a": 43,
      "b": 44,
      "c": 45,
      "d": 46,
      "e": 47,
      "f": 48,
      "g": 49,
      "h": 50,
      "i": 51,
      "j": 52,
      "k": 53,
      "l": 54,
      "m": 55,
      "n": 56,
      "o": 57,
      "p": 58,
      "q": 59,
      "r": 60,
      "s": 61,
      "t": 62,
      "u": 63,
      "v": 64,
      "w": 65,
      "x": 66,
      "y": 67,
      "z": 68,
      "{": 69,
      "|": 70,
      "}": 71,
      "~": 72,
      "¡": 73,
      "¢": 74,
      "£": 75,
      "¥": 76,
      "§": 77,
      "«": 78,
      "¬": 79,
      "®": 80,
      "°": 81,
      "±": 82,
      "²": 83,
      "³": 84,
      "´": 85,
      "µ": 86,
      "·": 87,
      "¹": 88,
      "º": 89,
      "»": 90,
      "½": 91,
      "¾": 92,
      "¿": 93,
      "×": 94,
      "ß": 95,
      "æ": 96,
      "ð": 97,
      "ø": 98,
      "þ": 99,
      "đ": 100,
      "ħ": 101,
      "ı": 102,
      "ł": 103,
      "ŋ": 104,
      "œ": 105,
      "ƒ": 106,
      "ƣ": 107,
      "ɐ": 108,
      "ɑ": 109,
      "ɒ": 110,
      "ɔ": 111,
      "ɕ": 112,
      "ə": 113,
      "ɛ": 114,
      "ɝ": 115,
      "ɡ": 116,
      "ɣ": 117,
      "ɤ": 118,
      "ɨ": 119,
      "ɪ": 120,
      "ɬ": 121,
      "ɯ": 122,
      "ɲ": 123,
      "ɵ": 124,
      "ɹ": 125,
      "ɾ": 126,
      "ʁ": 127,
      "ʂ": 128,
      "ʃ": 129,
      "ʊ": 130,
      "ʋ": 131,
      "ʌ": 132,
      "ʒ": 133,
      "ʔ": 134,
      "ʨ": 135,
      "ʰ": 136,
      "ʲ": 137,
      "ʷ": 138,
      "ʹ": 139,
      "ʻ": 140,
      "ʼ": 141,
      "ʾ": 142,
      "ʿ": 143,
      "ˁ": 144,
      "ˈ": 145,
      "ˌ": 146,
      "ː": 147,
      "˨": 148,
      "˩": 149,
      "΄": 150,
      "α": 151,
      "β": 152,
      "γ": 153,
      "δ": 154,
      "ε": 155,
      "ζ": 156,
      "η": 157,
      "θ": 158,
      "ι": 159,
      "κ": 160,
      "λ": 161,
      "μ": 162,
      "ν": 163,
      "ξ": 164,
      "ο": 165,
      "π": 166,
      "ρ": 167,
      "ς": 168,
      "σ": 169,
      "τ": 170,
      "υ": 171,
      "φ": 172,
      "χ": 173,
      "ψ": 174,
      "ω": 175,
      "а": 176,
      "б": 177,
      "в": 178,
      "г": 179,
      "д": 180,
      "е": 181,
      "ж": 182,
      "з": 183,
      "и": 184,
      "к": 185,
      "л": 186,
      "м": 187,
      "н": 188,
      "о": 189,
      "п": 190,
      "р": 191,
      "с": 192,
      "т": 193,
      "у": 194,
      "ф": 195,
      "х": 196,
      "ц": 197,
      "ч": 198,
      "ш": 199,
      "щ": 200,
      "ъ": 201,
      "ы": 202,
      "ь": 203,
      "э": 204,
      "ю": 205,
      "я": 206,
      "і": 207,
      "ј": 208,
      "љ": 209,
      "ћ": 210,
      "џ": 211,
      "ѡ": 212,
      "ғ": 213,
      "ҙ": 214,
      "қ": 215,
      "ҡ": 216,
      "ҫ": 217,
      "ү": 218,
      "һ": 219,
      "ӕ": 220,
      "ә": 221,
      "ө": 222,
      "ԁ": 223,
      "ԃ": 224,
      "ԅ": 225,
      "ԇ": 226,
      "ԉ": 227,
      "ԙ": 228,
      "ԛ": 229,
      "ԝ": 230,
      "ԟ": 231,
      "ա": 232,
      "ե": 233,
      "զ": 234,
      "ի": 235,
      "լ": 236,
      "կ": 237,
      "հ": 238,
      "մ": 239,
      "յ": 240,
      "ն": 241,
      "ո": 242,
      "ս": 243,
      "վ": 244,
      "տ": 245,
      "ր": 246,
      "ւ": 247,
      "־": 248,
      "א": 249,
      "ב": 250,
      "ג": 251,
      "ד": 252,
      "ה": 253,
      "ו": 254,
      "ז": 255,
      "ח": 256,
      "ט": 257,
      "י": 258,
      "ך": 259,
      "כ": 260,
      "ל": 261,
      "ם": 262,
      "מ": 263,
      "ן": 264,
      "נ": 265,
      "ס": 266,
      "ע": 267,
      "ף": 268,
      "פ": 269,
      "ץ": 270,
      "צ": 271,
      "ק": 272,
      "ר": 273,
      "ש": 274,
      "ת": 275,
      "ײ": 276,
      "״": 277,
      "ء": 278,
      "ا": 279,
      "ب": 280,
      "ة": 281,
      "ت": 282,
      "ث": 283,
      "ج": 284,
      "ح": 285,
      "خ": 286,
      "د": 287,
      "ذ": 288,
      "ر": 289,
      "ز": 290,
      "س": 291,
      "ش": 292,
      "ص": 293,
      "ض": 294,
      "ط": 295,
      "ظ": 296,
      "ع": 297,
      "غ": 298,
      "ـ": 299,
      "ف": 300,
      "ق": 301,
      "ك": 302,
      "ل": 303,
      "م": 304,
      "ن": 305,
      "ه": 306,
      "و": 307,
      "ى": 308,
      "ي": 309,
      "پ": 310,
      "چ": 311,
      "ڠ": 312,
      "ک": 313,
      "گ": 314,
      "ہ": 315,
      "ۇ": 316,
      "ی": 317,
      "ە": 318,
      "ܐ": 319,
      "ܓ": 320,
      "ܘ": 321,
      "ܡ": 322,
      "ܢ": 323,
      "क": 324,
      "ख": 325,
      "ग": 326,
      "ज": 327,
      "ट": 328,
      "ठ": 329,
      "ड": 330,
      "त": 331,
      "द": 332,
      "ध": 333,
      "न": 334,
      "प": 335,
      "ब": 336,
      "भ": 337,
      "म": 338,
      "य": 339,
      "र": 340,
      "ल": 341,
      "व": 342,
      "श": 343,
      "ष": 344,
      "स": 345,
      "ह": 346,
      "ा": 347,
      "ि": 348,
      "ी": 349,
      "ो": 350,
      "ং": 351,
      "ক": 352,
      "গ": 353,
      "দ": 354,
      "ন": 355,
      "ব": 356,
      "ম": 357,
      "র": 358,
      "ল": 359,
      "া": 360,
      "ে": 361,
      "ર": 362,
      "ા": 363,
      "ப": 364,
      "ು": 365,
      "ത": 366,
      "ാ": 367,
      "ය": 368,
      "ල": 369,
      "ව": 370,
      "ා": 371,
      "ෙ": 372,
      "ก": 373,
      "ข": 374,
      "ค": 375,
      "ง": 376,
      "จ": 377,
      "ช": 378,
      "ณ": 379,
      "ด": 380,
      "ต": 381,
      "ถ": 382,
      "ท": 383,
      "ธ": 384,
      "น": 385,
      "บ": 386,
      "ป": 387,
      "ผ": 388,
      "พ": 389,
      "ภ": 390,
      "ม": 391,
      "ย": 392,
      "ร": 393,
      "ล": 394,
      "ว": 395,
      "ศ": 396,
      "ษ": 397,
      "ส": 398,
      "ห": 399,
      "อ": 400,
      "ะ": 401,
      "า": 402,
      "ำ": 403,
      "เ": 404,
      "แ": 405,
      "โ": 406,
      "ใ": 407,
      "ไ": 408,
      "າ": 409,
      "་": 410,
      "ག": 411,
      "ད": 412,
      "ན": 413,
      "པ": 414,
      "བ": 415,
      "མ": 416,
      "འ": 417,
      "ར": 418,
      "ལ": 419,
      "ས": 420,
      "မ": 421,
      "သ": 422,
      "ာ": 423,
      "ა": 424,
      "ბ": 425,
      "დ": 426,
      "ე": 427,
      "ვ": 428,
      "ი": 429,
      "ნ": 430,
      "ო": 431,
      "რ": 432,
      "ს": 433,
      "ქ": 434,
      "ᄀ": 435,
      "ᄂ": 436,
      "ᄃ": 437,
      "ᄄ": 438,
      "ᄅ": 439,
      "ᄆ": 440,
      "ᄇ": 441,
      "ᄉ": 442,
      "ᄊ": 443,
      "ᄋ": 444,
      "ᄌ": 445,
      "ᄎ": 446,
      "ᄏ": 447,
      "ᄐ": 448,
      "ᄑ": 449,
      "ᄒ": 450,
      "ᅡ": 451,
      "ᅢ": 452,
      "ᅣ": 453,
      "ᅥ": 454,
      "ᅦ": 455,
      "ᅧ": 456,
      "ᅨ": 457,
      "ᅩ": 458,
      "ᅪ": 459,
      "ᅬ": 460,
      "ᅭ": 461,
      "ᅮ": 462,
      "ᅯ": 463,
      "ᅱ": 464,
      "ᅲ": 465,
      "ᅳ": 466,
      "ᅴ": 467,
      "ᅵ": 468,
      "ᆨ": 469,
      "ᆫ": 470,
      "ᆯ": 471,
      "ᆷ": 472,
      "ᆸ": 473,
      "ᆺ": 474,
      "ᆼ": 475,
      "ሕ": 476,
      "ን": 477,
      "ᜀ": 478,
      "ᜁ": 479,
      "ᜂ": 480,
      "ᜃ": 481,
      "ᜄ": 482,
      "ᜅ": 483,
      "ᜆ": 484,
      "ᜇ": 485,
      "ᜈ": 486,
      "ᜉ": 487,
      "ᜊ": 488,
      "ᜋ": 489,
      "ᜌ": 490,
      "ᜍ": 491,
      "ᜎ": 492,
      "ᜏ": 493,
      "ᜐ": 494,
      "ᜑ": 495,
      "᜵": 496,
      "᜶": 497,
      "ក": 498,
      "ព": 499,
      "ា": 500,
      "‐": 501,
      "–": 502,
      "—": 503,
      "‘": 504,
      "’": 505,
      "“": 506,
      "”": 507,
      "†": 508,
      "•": 509,
      "…": 510,
      "‧": 511,
      "′": 512,
      "″": 513,
      "‹": 514,
      "›": 515,
      "⁄": 516,
      "ⁿ": 517,
      "₨": 518,
      "₩": 519,
      "€": 520,
      "₱": 521,
      "ℓ": 522,
      "℟": 523,
      "℣": 524,
      "⅓": 525,
      "→": 526,
      "↔": 527,
      "∂": 528,
      "∅": 529,
      "∇": 530,
      "∈": 531,
      "−": 532,
      "√": 533,
      "∞": 534,
      "∧": 535,
      "∴": 536,
      "≈": 537,
      "≤": 538,
      "≥": 539,
      "☆": 540,
      "♠": 541,
      "♥": 542,
      "⟨": 543,
      "⟩": 544,
      "ⲟ": 545,
      "ⴻ": 546,
      "ⵏ": 547,
      "ⵓ": 548,
      "ⵔ": 549,
      "ⵜ": 550,
      "。": 551,
      "「": 552,
      "」": 553,
      "〜": 554,
      "ぁ": 555,
      "あ": 556,
      "ぃ": 557,
      "い": 558,
      "う": 559,
      "ぇ": 560,
      "え": 561,
      "お": 562,
      "か": 563,
      "き": 564,
      "く": 565,
      "け": 566,
      "こ": 567,
      "さ": 568,
      "し": 569,
      "す": 570,
      "せ": 571,
      "そ": 572,
      "た": 573,
      "ち": 574,
      "っ": 575,
      "つ": 576,
      "て": 577,
      "と": 578,
      "な": 579,
      "に": 580,
      "の": 581,
      "は": 582,
      "ひ": 583,
      "ふ": 584,
      "へ": 585,
      "ほ": 586,
      "ま": 587,
      "み": 588,
      "む": 589,
      "め": 590,
      "も": 591,
      "ゃ": 592,
      "や": 593,
      "ゅ": 594,
      "ゆ": 595,
      "よ": 596,
      "ら": 597,
      "り": 598,
      "る": 599,
      "れ": 600,
      "ろ": 601,
      "わ": 602,
      "を": 603,
      "ん": 604,
      "゜": 605,
      "ァ": 606,
      "ア": 607,
      "ィ": 608,
      "イ": 609,
      "ゥ": 610,
      "ウ": 611,
      "ェ": 612,
      "エ": 613,
      "ォ": 614,
      "オ": 615,
      "カ": 616,
      "キ": 617,
      "ク": 618,
      "ケ": 619,
      "コ": 620,
      "サ": 621,
      "シ": 622,
      "ス": 623,
      "セ": 624,
      "タ": 625,
      "チ": 626,
      "ッ": 627,
      "ツ": 628,
      "テ": 629,
      "ト": 630,
      "ナ": 631,
      "ニ": 632,
      "ネ": 633,
      "ハ": 634,
      "ヒ": 635,
      "フ": 636,
      "ヘ": 637,
      "ホ": 638,
      "マ": 639,
      "ミ": 640,
      "ム": 641,
      "メ": 642,
      "モ": 643,
      "ャ": 644,
      "ヤ": 645,
      "ュ": 646,
      "ョ": 647,
      "ラ": 648,
      "リ": 649,
      "ル": 650,
      "レ": 651,
      "ロ": 652,
      "ワ": 653,
      "ン": 654,
      "・": 655,
      "ー": 656,
      "一": 657,
      "万": 658,
      "三": 659,
      "上": 660,
      "不": 661,
      "与": 662,
      "世": 663,
      "东": 664,
      "中": 665,
      "主": 666,
      "乃": 667,
      "之": 668,
      "九": 669,
      "事": 670,
      "二": 671,
      "亚": 672,
      "交": 673,
      "京": 674,
      "人": 675,
      "仁": 676,
      "他": 677,
      "仙": 678,
      "代": 679,
      "以": 680,
      "们": 681,
      "仮": 682,
      "伊": 683,
      "会": 684,
      "伝": 685,
      "作": 686,
      "使": 687,
      "俊": 688,
      "保": 689,
      "信": 690,
      "儿": 691,
      "元": 692,
      "先": 693,
      "光": 694,
      "克": 695,
      "全": 696,
      "八": 697,
      "公": 698,
      "六": 699,
      "共": 700,
      "内": 701,
      "军": 702,
      "出": 703,
      "別": 704,
      "利": 705,
      "到": 706,
      "制": 707,
      "前": 708,
      "功": 709,
      "勝": 710,
      "化": 711,
      "北": 712,
      "區": 713,
      "十": 714,
      "千": 715,
      "南": 716,
      "原": 717,
      "叉": 718,
      "口": 719,
      "古": 720,
      "台": 721,
      "史": 722,
      "号": 723,
      "司": 724,
      "吉": 725,
      "同": 726,
      "名": 727,
      "后": 728,
      "君": 729,
      "周": 730,
      "呼": 731,
      "命": 732,
      "和": 733,
      "品": 734,
      "哈": 735,
      "商": 736,
      "四": 737,
      "国": 738,
      "國": 739,
      "園": 740,
      "在": 741,
      "地": 742,
      "城": 743,
      "基": 744,
      "堂": 745,
      "場": 746,
      "士": 747,
      "多": 748,
      "夜": 749,
      "夢": 750,
      "大": 751,
      "天": 752,
      "太": 753,
      "奇": 754,
      "奈": 755,
      "女": 756,
      "好": 757,
      "如": 758,
      "始": 759,
      "娘": 760,
      "子": 761,
      "字": 762,
      "孝": 763,
      "学": 764,
      "學": 765,
      "宇": 766,
      "安": 767,
      "宋": 768,
      "宏": 769,
      "宗": 770,
      "宮": 771,
      "家": 772,
      "富": 773,
      "寺": 774,
      "寿": 775,
      "尊": 776,
      "小": 777,
      "少": 778,
      "尔": 779,
      "尹": 780,
      "屋": 781,
      "山": 782,
      "岐": 783,
      "岡": 784,
      "岩": 785,
      "島": 786,
      "崎": 787,
      "川": 788,
      "州": 789,
      "工": 790,
      "市": 791,
      "帝": 792,
      "師": 793,
      "平": 794,
      "年": 795,
      "幻": 796,
      "府": 797,
      "建": 798,
      "式": 799,
      "後": 800,
      "御": 801,
      "心": 802,
      "忍": 803,
      "志": 804,
      "思": 805,
      "恋": 806,
      "想": 807,
      "愛": 808,
      "慶": 809,
      "成": 810,
      "我": 811,
      "戦": 812,
      "戯": 813,
      "戸": 814,
      "所": 815,
      "抄": 816,
      "拳": 817,
      "摩": 818,
      "放": 819,
      "政": 820,
      "文": 821,
      "斗": 822,
      "新": 823,
      "方": 824,
      "日": 825,
      "早": 826,
      "明": 827,
      "易": 828,
      "星": 829,
      "時": 830,
      "普": 831,
      "智": 832,
      "書": 833,
      "最": 834,
      "會": 835,
      "月": 836,
      "有": 837,
      "朝": 838,
      "木": 839,
      "本": 840,
      "朴": 841,
      "杉": 842,
      "李": 843,
      "村": 844,
      "条": 845,
      "来": 846,
      "東": 847,
      "松": 848,
      "林": 849,
      "校": 850,
      "株": 851,
      "桜": 852,
      "森": 853,
      "業": 854,
      "橋": 855,
      "歌": 856,
      "正": 857,
      "武": 858,
      "民": 859,
      "気": 860,
      "水": 861,
      "永": 862,
      "汉": 863,
      "江": 864,
      "沙": 865,
      "沢": 866,
      "河": 867,
      "治": 868,
      "泉": 869,
      "法": 870,
      "流": 871,
      "浩": 872,
      "海": 873,
      "清": 874,
      "港": 875,
      "漢": 876,
      "澳": 877,
      "濟": 878,
      "熊": 879,
      "牛": 880,
      "物": 881,
      "特": 882,
      "犬": 883,
      "獣": 884,
      "玉": 885,
      "王": 886,
      "珠": 887,
      "球": 888,
      "理": 889,
      "琉": 890,
      "瓊": 891,
      "生": 892,
      "田": 893,
      "界": 894,
      "白": 895,
      "百": 896,
      "的": 897,
      "皇": 898,
      "省": 899,
      "真": 900,
      "督": 901,
      "石": 902,
      "社": 903,
      "神": 904,
      "福": 905,
      "秀": 906,
      "秋": 907,
      "科": 908,
      "空": 909,
      "立": 910,
      "第": 911,
      "等": 912,
      "精": 913,
      "紀": 914,
      "紅": 915,
      "線": 916,
      "羅": 917,
      "羊": 918,
      "美": 919,
      "義": 920,
      "羽": 921,
      "者": 922,
      "聖": 923,
      "能": 924,
      "臣": 925,
      "舞": 926,
      "航": 927,
      "花": 928,
      "英": 929,
      "茶": 930,
      "草": 931,
      "華": 932,
      "葉": 933,
      "藤": 934,
      "蘭": 935,
      "行": 936,
      "術": 937,
      "衛": 938,
      "西": 939,
      "見": 940,
      "角": 941,
      "記": 942,
      "話": 943,
      "語": 944,
      "論": 945,
      "语": 946,
      "貴": 947,
      "賞": 948,
      "身": 949,
      "軍": 950,
      "送": 951,
      "通": 952,
      "遊": 953,
      "道": 954,
      "那": 955,
      "邪": 956,
      "郎": 957,
      "部": 958,
      "郷": 959,
      "都": 960,
      "酒": 961,
      "里": 962,
      "野": 963,
      "金": 964,
      "録": 965,
      "長": 966,
      "門": 967,
      "開": 968,
      "阪": 969,
      "阿": 970,
      "陈": 971,
      "院": 972,
      "陸": 973,
      "陽": 974,
      "隊": 975,
      "際": 976,
      "集": 977,
      "雪": 978,
      "霊": 979,
      "青": 980,
      "韓": 981,
      "音": 982,
      "香": 983,
      "馬": 984,
      "高": 985,
      "魔": 986,
      "鹿": 987,
      "麗": 988,
      "龍": 989,
      "ꜣ": 990,
      "ꦗ": 991,
      "ꦱ": 992,
      "！": 993,
      "（": 994,
      "）": 995,
      "，": 996,
      "－": 997,
      "：": 998,
      "ｍ": 999,
      "～": 1000,
      "𐎗": 1001,
      "𐎘": 1002,
      "𐎚": 1003,
      "𐐯": 1004,
      "##e": 1005,
      "##m": 1006,
      "##a": 1007,
      "##s": 1008,
      "##h": 1009,
      "##i": 1010,
      "##r": 1011,
      "##o": 1012,
      "##k": 1013,
      "##g": 1014,
      "##p": 1015,
      "##l": 1016,
      "##c": 1017,
      "##q": 1018,
      "##u": 1019,
      "##d": 1020,
      "##n": 1021,
      "##t": 1022,
      "##y": 1023,
      "##z": 1024,
      "##b": 1025,
      "##w": 1026,
      "##v": 1027,
      "##о": 1028,
      "##ר": 1029,
      "##ד": 1030,
      "##כ": 1031,
      "##י": 1032,
      "##f": 1033,
      "##j": 1034,
      "##x": 1035,
      "##4": 1036,
      "##3": 1037,
      "##6": 1038,
      "##9": 1039,
      "##8": 1040,
      "##7": 1041,
      "##ע": 1042,
      "##צ": 1043,
      "##מ": 1044,
      "##א": 1045,
      "##ו": 1046,
      "##ת": 1047,
      "##ᅡ": 1048,
      "##ᆸ": 1049,
      "##5": 1050,
      "##ᜄ": 1051,
      "##ᜉ": 1052,
      "##ᜎ": 1053,
      "##ᜌ": 1054,
      "##ᜈ": 1055,
      "##ק": 1056,
      "##ל": 1057,
      "##ʻ": 1058,
      "##0": 1059,
      "##ᅩ": 1060,
      "##ᆼ": 1061,
      "##ᄆ": 1062,
      "##ᅧ": 1063,
      "##ᄋ": 1064,
      "##ᅪ": 1065,
      "##ᄅ": 1066,
      "##ᅳ": 1067,
      "##ן": 1068,
      "##2": 1069,
      "##1": 1070,
      "##ב": 1071,
      "##נ": 1072,
      "##פ": 1073,
      "##ש": 1074,
      "##ษ": 1075,
      "##ณ": 1076,
      "##โ": 1077,
      "##ล": 1078,
      "##ก": 1079,
      "##ℓ": 1080,
      "##а": 1081,
      "##н": 1082,
      "##ж": 1083,
      "##ι": 1084,
      "##ν": 1085,
      "##ε": 1086,
      "##α": 1087,
      "##ς": 1088,
      "##ł": 1089,
      "##и": 1090,
      "##к": 1091,
      "##л": 1092,
      "##θ": 1093,
      "##æ": 1094,
      "##τ": 1095,
      "##ρ": 1096,
      "##π": 1097,
      "##ο": 1098,
      "##δ": 1099,
      "##η": 1100,
      "##у": 1101,
      "##ा": 1102,
      "##ह": 1103,
      "##р": 1104,
      "##д": 1105,
      "##з": 1106,
      "##ا": 1107,
      "##ز": 1108,
      "##ق": 1109,
      "##ل": 1110,
      "##ف": 1111,
      "##ج": 1112,
      "##ر": 1113,
      "##ン": 1114,
      "##ナ": 1115,
      "##キ": 1116,
      "##モ": 1117,
      "##チ": 1118,
      "##ω": 1119,
      "##γ": 1120,
      "##φ": 1121,
      "##タ": 1122,
      "##ー": 1123,
      "##ᅮ": 1124,
      "##ᄑ": 1125,
      "##ᅵ": 1126,
      "##ᅦ": 1127,
      "##ᆷ": 1128,
      "##ح": 1129,
      "##с": 1130,
      "##т": 1131,
      "##е": 1132,
      "##ч": 1133,
      "##±": 1134,
      "##°": 1135,
      "##μ": 1136,
      "##σ": 1137,
      "##κ": 1138,
      "##λ": 1139,
      "##б": 1140,
      "##ј": 1141,
      "##ה": 1142,
      "##ъ": 1143,
      "##ם": 1144,
      "##ш": 1145,
      "##ф": 1146,
      "##в": 1147,
      "##ь": 1148,
      "##я": 1149,
      "##ᜃ": 1150,
      "##ᜆ": 1151,
      "##ᜅ": 1152,
      "##ག": 1153,
      "##ᅥ": 1154,
      "##ع": 1155,
      "##ي": 1156,
      "##ة": 1157,
      "##ħ": 1158,
      "##ц": 1159,
      "##ल": 1160,
      "##ی": 1161,
      "##خ": 1162,
      "##س": 1163,
      "##و": 1164,
      "##υ": 1165,
      "##م": 1166,
      "##♠": 1167,
      "##ك": 1168,
      "##ء": 1169,
      "##г": 1170,
      "##ख": 1171,
      "##ᄌ": 1172,
      "##ว": 1173,
      "##ต": 1174,
      "##п": 1175,
      "##і": 1176,
      "##ه": 1177,
      "##χ": 1178,
      "##ץ": 1179,
      "##ب": 1180,
      "##ہ": 1181,
      "##ы": 1182,
      "##ᅬ": 1183,
      "##ᆫ": 1184,
      "##ᄉ": 1185,
      "##ᆯ": 1186,
      "##ठ": 1187,
      "##न": 1188,
      "##м": 1189,
      "##ƣ": 1190,
      "##ə": 1191,
      "##ɪ": 1192,
      "##ˈ": 1193,
      "##ɛ": 1194,
      "##ᅢ": 1195,
      "##ن": 1196,
      "##ː": 1197,
      "##ラ": 1198,
      "##コ": 1199,
      "##³": 1200,
      "##د": 1201,
      "##ᅲ": 1202,
      "##ᜁ": 1203,
      "##ᜋ": 1204,
      "##×": 1205,
      "##ᜀ": 1206,
      "##ᄒ": 1207,
      "##ᆨ": 1208,
      "##ᄀ": 1209,
      "##ᅭ": 1210,
      "##พ": 1211,
      "##ช": 1212,
      "##ร": 1213,
      "##บ": 1214,
      "##ᆺ": 1215,
      "##ᄃ": 1216,
      "##ت": 1217,
      "##ɹ": 1218,
      "##щ": 1219,
      "##ᅣ": 1220,
      "##ɔ": 1221,
      "##ɑ": 1222,
      "##х": 1223,
      "##ᜍ": 1224,
      "##ס": 1225,
      "##ڠ": 1226,
      "##く": 1227,
      "##れ": 1228,
      "##𐎚": 1229,
      "##ـ": 1230,
      "##ص": 1231,
      "##ᅴ": 1232,
      "##ミ": 1233,
      "##ッ": 1234,
      "##ク": 1235,
      "##า": 1236,
      "##จ": 1237,
      "##ง": 1238,
      "##ห": 1239,
      "##ด": 1240,
      "##ß": 1241,
      "##ە": 1242,
      "##ى": 1243,
      "##ش": 1244,
      "##ז": 1245,
      "##ᜐ": 1246,
      "##เ": 1247,
      "##ท": 1248,
      "##ม": 1249,
      "##น": 1250,
      "##ค": 1251,
      "##ۇ": 1252,
      "##ა": 1253,
      "##ბ": 1254,
      "##ξ": 1255,
      "##ถ": 1256,
      "##ย": 1257,
      "##ח": 1258,
      "##か": 1259,
      "##り": 1260,
      "##ふ": 1261,
      "##る": 1262,
      "##ᄇ": 1263,
      "##ᄐ": 1264,
      "##ʰ": 1265,
      "##ᅨ": 1266,
      "##ไ": 1267,
      "##қ": 1268,
      "##າ": 1269,
      "##ա": 1270,
      "##տ": 1271,
      "##ր": 1272,
      "##º": 1273,
      "##テ": 1274,
      "##ィ": 1275,
      "##ı": 1276,
      "##ט": 1277,
      "##ɡ": 1278,
      "##ɵ": 1279,
      "##ɯ": 1280,
      "##ʋ": 1281,
      "##ի": 1282,
      "##ե": 1283,
      "##ト": 1284,
      "##ワ": 1285,
      "##ケ": 1286,
      "##ウ": 1287,
      "##ォ": 1288,
      "##э": 1289,
      "##ᜇ": 1290,
      "##đ": 1291,
      "##ث": 1292,
      "##ɣ": 1293,
      "##お": 1294,
      "##ち": 1295,
      "##て": 1296,
      "##ᅯ": 1297,
      "##ʁ": 1298,
      "##ظ": 1299,
      "##ײ": 1300,
      "##ম": 1301,
      "##ব": 1302,
      "##গ": 1303,
      "##イ": 1304,
      "##カ": 1305,
      "##フ": 1306,
      "##ェ": 1307,
      "##ү": 1308,
      "##ø": 1309,
      "##ʃ": 1310,
      "##あ": 1311,
      "##は": 1312,
      "##～": 1313,
      "##−": 1314,
      "##ˌ": 1315,
      "##ʂ": 1316,
      "##ル": 1317,
      "##な": 1318,
      "##し": 1319,
      "##シ": 1320,
      "##½": 1321,
      "##ใ": 1322,
      "##ར": 1323,
      "##マ": 1324,
      "##ャ": 1325,
      "##ʒ": 1326,
      "##ɨ": 1327,
      "##ط": 1328,
      "##ⁿ": 1329,
      "##ᄏ": 1330,
      "##ᄂ": 1331,
      "##と": 1332,
      "##す": 1333,
      "##み": 1334,
      "##☆": 1335,
      "##ᄄ": 1336,
      "##ᄎ": 1337,
      "##ʊ": 1338,
      "##ð": 1339,
      "##レ": 1340,
      "##ʌ": 1341,
      "##ニ": 1342,
      "##メ": 1343,
      "##ア": 1344,
      "##ス": 1345,
      "##ホ": 1346,
      "##オ": 1347,
      "##र": 1348,
      "##त": 1349,
      "##ぁ": 1350,
      "##っ": 1351,
      "##श": 1352,
      "##स": 1353,
      "##ะ": 1354,
      "##ส": 1355,
      "##อ": 1356,
      "##け": 1357,
      "##ɝ": 1358,
      "##ˁ": 1359,
      "##つ": 1360,
      "##ら": 1361,
      "##き": 1362,
      "##ܘ": 1363,
      "##ܐ": 1364,
      "##া": 1365,
      "##ল": 1366,
      "##ন": 1367,
      "##ⵔ": 1368,
      "##ⵜ": 1369,
      "##ⴻ": 1370,
      "##ⵏ": 1371,
      "##ា": 1372,
      "##ក": 1373,
      "##ព": 1374,
      "##β": 1375,
      "##ک": 1376,
      "##˨": 1377,
      "##˩": 1378,
      "##も": 1379,
      "##の": 1380,
      "##ན": 1381,
      "##ሕ": 1382,
      "##リ": 1383,
      "##ロ": 1384,
      "##ذ": 1385,
      "##う": 1386,
      "##そ": 1387,
      "##ད": 1388,
      "##ા": 1389,
      "##ᄊ": 1390,
      "##œ": 1391,
      "##ɾ": 1392,
      "##म": 1393,
      "##エ": 1394,
      "##ᜊ": 1395,
      "##ネ": 1396,
      "##ो": 1397,
      "##ट": 1398,
      "##ी": 1399,
      "##ツ": 1400,
      "##ን": 1401,
      "##ћ": 1402,
      "##た": 1403,
      "##め": 1404,
      "##に": 1405,
      "##ष": 1406,
      "##ि": 1407,
      "##چ": 1408,
      "##い": 1409,
      "##ん": 1410,
      "##ろ": 1411,
      "##བ": 1412,
      "##ム": 1413,
      "##ᜑ": 1414,
      "##®": 1415,
      "##ŋ": 1416,
      "##む": 1417,
      "##ɒ": 1418,
      "##भ": 1419,
      "##ʼ": 1420,
      "##²": 1421,
      "##¾": 1422,
      "##ܢ": 1423,
      "##よ": 1424,
      "##ⵓ": 1425,
      "##ハ": 1426,
      "##サ": 1427,
      "##ꜣ": 1428,
      "##མ": 1429,
      "##ས": 1430,
      "##ᅱ": 1431,
      "##さ": 1432,
      "##द": 1433,
      "##ო": 1434,
      "##დ": 1435,
      "##ნ": 1436,
      "##ᜂ": 1437,
      "##ภ": 1438,
      "##گ": 1439,
      "##ʾ": 1440,
      "##မ": 1441,
      "##ာ": 1442,
      "##သ": 1443,
      "##ョ": 1444,
      "##ʷ": 1445,
      "##ζ": 1446,
      "##غ": 1447,
      "##ক": 1448,
      "##র": 1449,
      "##ज": 1450,
      "##ю": 1451,
      "##լ": 1452,
      "##ս": 1453,
      "##क": 1454,
      "##ま": 1455,
      "##や": 1456,
      "##व": 1457,
      "##ァ": 1458,
      "##प": 1459,
      "##ュ": 1460,
      "##΄": 1461,
      "##ව": 1462,
      "##ය": 1463,
      "##ා": 1464,
      "##ල": 1465,
      "##ग": 1466,
      "##¢": 1467,
      "##ෙ": 1468,
      "##ड": 1469,
      "##ܡ": 1470,
      "##ર": 1471,
      "##پ": 1472,
      "##ג": 1473,
      "##ธ": 1474,
      "##ქ": 1475,
      "##ი": 1476,
      "##ാ": 1477,
      "##ɕ": 1478,
      "##ᜏ": 1479,
      "##ำ": 1480,
      "##པ": 1481,
      "##འ": 1482,
      "##ヘ": 1483,
      "##ض": 1484,
      "##ข": 1485,
      "##ヒ": 1486,
      "##ལ": 1487,
      "##を": 1488,
      "##ത": 1489,
      "##ป": 1490,
      "##य": 1491,
      "##ғ": 1492,
      "##ә": 1493,
      "##´": 1494,
      "##љ": 1495,
      "##մ": 1496,
      "##կ": 1497,
      "##𐐯": 1498,
      "##え": 1499,
      "##ʲ": 1500,
      "##ʹ": 1501,
      "##ף": 1502,
      "##ध": 1503,
      "##せ": 1504,
      "##յ": 1505,
      "##ն": 1506,
      "##こ": 1507,
      "##ｍ": 1508,
      "##զ": 1509,
      "##ꦗ": 1510,
      "##ɐ": 1511,
      "##ひ": 1512,
      "##ө": 1513,
      "##∞": 1514,
      "##ꦱ": 1515,
      "##ո": 1516,
      "##ւ": 1517,
      "##µ": 1518,
      "##ψ": 1519,
      "##ʿ": 1520,
      "##দ": 1521,
      "##џ": 1522,
      "##ศ": 1523,
      "##ე": 1524,
      "##ს": 1525,
      "##რ": 1526,
      "##ং": 1527,
      "##ে": 1528,
      "##ɬ": 1529,
      "##ผ": 1530,
      "##แ": 1531,
      "##¹": 1532,
      "##ぃ": 1533,
      "##→": 1534,
      "##ぇ": 1535,
      "##վ": 1536,
      "##հ": 1537,
      "##わ": 1538,
      "##ゆ": 1539,
      "##þ": 1540,
      "##𐎘": 1541,
      "##𐎗": 1542,
      "##ɲ": 1543,
      "##ப": 1544,
      "##⁄": 1545,
      "##ゃ": 1546,
      "##ゥ": 1547,
      "##¥": 1548,
      "##ほ": 1549,
      "##ゅ": 1550,
      "##ʔ": 1551,
      "##ვ": 1552,
      "##ך": 1553,
      "##₱": 1554,
      "##¬": 1555,
      "##ब": 1556,
      "##ҡ": 1557,
      "##ܓ": 1558,
      "##セ": 1559,
      "##ヤ": 1560,
      "##ⲟ": 1561,
      "##ು": 1562,
      "##ng": 1563,
      "##ang": 1564,
      "##an": 1565,
      "na": 1566,
      "sa": 1567,
      "ng": 1568,
      "##al": 1569,
      "##in": 1570,
      "##ag": 1571,
      "ang": 1572,
      "##at": 1573,
      "##ga": 1574,
      "##as": 1575,
      "##il": 1576,
      "mga": 1577,
      "##ar": 1578,
      "##ay": 1579,
      "##on": 1580,
      "##am": 1581,
      "ay": 1582,
      "##it": 1583,
      "##ong": 1584,
      "at": 1585,
      "##ak": 1586,
      "##ul": 1587,
      "##er": 1588,
      "##ah": 1589,
      "##ing": 1590,
      "##is": 1591,
      "##ap": 1592,
      "is": 1593,
      "##ab": 1594,
      "##ik": 1595,
      "##iy": 1596,
      "pag": 1597,
      "##aw": 1598,
      "##to": 1599,
      "##un": 1600,
      "##ad": 1601,
      "##en": 1602,
      "isang": 1603,
      "##um": 1604,
      "##es": 1605,
      "##or": 1606,
      "##os": 1607,
      "nag": 1608,
      "##ig": 1609,
      "##im": 1610,
      "##ilang": 1611,
      "##ip": 1612,
      "##us": 1613,
      "##ol": 1614,
      "##el": 1615,
      "pang": 1616,
      "no": 1617,
      "ito": 1618,
      "##iya": 1619,
      "##ur": 1620,
      "##id": 1621,
      "##ib": 1622,
      "kan": 1623,
      "##ung": 1624,
      "##yon": 1625,
      "##ro": 1626,
      "noong": 1627,
      "si": 1628,
      "may": 1629,
      "in": 1630,
      "##ula": 1631,
      "par": 1632,
      "##om": 1633,
      "pin": 1634,
      "##uk": 1635,
      "pam": 1636,
      "ni": 1637,
      "##ala": 1638,
      "##ut": 1639,
      "##et": 1640,
      "##em": 1641,
      "##od": 1642,
      "pan": 1643,
      "##ub": 1644,
      "##ir": 1645,
      "19": 1646,
      "un": 1647,
      "bilang": 1648,
      "##yang": 1649,
      "##ya": 1650,
      "an": 1651,
      "##di": 1652,
      "mag": 1653,
      "nak": 1654,
      "ib": 1655,
      "##ist": 1656,
      "kat": 1657,
      "kas": 1658,
      "##ic": 1659,
      "##yo": 1660,
      "##ek": 1661,
      "ta": 1662,
      "20": 1663,
      "hin": 1664,
      "##ito": 1665,
      "pagk": 1666,
      "##ent": 1667,
      "##op": 1668,
      "##ans": 1669,
      "##alaw": 1670,
      "##ih": 1671,
      "##ug": 1672,
      "##st": 1673,
      "##re": 1674,
      "##ayan": 1675,
      "para": 1676,
      "##ok": 1677,
      "ma": 1678,
      "##and": 1679,
      "##ot": 1680,
      "siya": 1681,
      "al": 1682,
      "mula": 1683,
      "ar": 1684,
      "##iw": 1685,
      "mal": 1686,
      "##uh": 1687,
      "##asyon": 1688,
      "mat": 1689,
      "##ant": 1690,
      "kanyang": 1691,
      "##ilip": 1692,
      "it": 1693,
      "hindi": 1694,
      "##og": 1695,
      "##awa": 1696,
      "##ed": 1697,
      "mar": 1698,
      "##inas": 1699,
      "##ers": 1700,
      "##alang": 1701,
      "kar": 1702,
      "##up": 1703,
      "##ila": 1704,
      "##angg": 1705,
      "il": 1706,
      "##itan": 1707,
      "re": 1708,
      "##ina": 1709,
      "kap": 1710,
      "##ia": 1711,
      "##ion": 1712,
      "ik": 1713,
      "kab": 1714,
      "kung": 1715,
      "bag": 1716,
      "##aan": 1717,
      "##iyang": 1718,
      "##yong": 1719,
      "th": 1720,
      "pilip": 1721,
      "##uw": 1722,
      "nang": 1723,
      "##le": 1724,
      "##ob": 1725,
      "##ahan": 1726,
      "kal": 1727,
      "nito": 1728,
      "##pin": 1729,
      "tin": 1730,
      "##amit": 1731,
      "##ika": 1732,
      "mak": 1733,
      "mas": 1734,
      "##ian": 1735,
      "##ch": 1736,
      "##pang": 1737,
      "##iko": 1738,
      "pa": 1739,
      "gin": 1740,
      "##pap": 1741,
      "##uan": 1742,
      "##alan": 1743,
      "##ita": 1744,
      "##tr": 1745,
      "pro": 1746,
      "##eb": 1747,
      "##ahil": 1748,
      "##atag": 1749,
      "pr": 1750,
      "##ama": 1751,
      "##abas": 1752,
      "##alak": 1753,
      "##sa": 1754,
      "pinak": 1755,
      "200": 1756,
      "##und": 1757,
      "upang": 1758,
      "pilipinas": 1759,
      "kay": 1760,
      "man": 1761,
      "est": 1762,
      "##oy": 1763,
      "isa": 1764,
      "ka": 1765,
      "##ter": 1766,
      "pal": 1767,
      "##amang": 1768,
      "tag": 1769,
      "##ens": 1770,
      "br": 1771,
      "##ta": 1772,
      "##ano": 1773,
      "dahil": 1774,
      "##idad": 1775,
      "##ahat": 1776,
      "ipin": 1777,
      "hal": 1778,
      "ak": 1779,
      "##aman": 1780,
      "tr": 1781,
      "am": 1782,
      "the": 1783,
      "sin": 1784,
      "bah": 1785,
      "##aro": 1786,
      "din": 1787,
      "as": 1788,
      "iba": 1789,
      "bat": 1790,
      "##alawang": 1791,
      "ch": 1792,
      "##iyon": 1793,
      "or": 1794,
      "##ari": 1795,
      "rin": 1796,
      "hangg": 1797,
      "pamam": 1798,
      "nat": 1799,
      "##apos": 1800,
      "nam": 1801,
      "##ac": 1802,
      "bin": 1803,
      "##sod": 1804,
      "unang": 1805,
      "##isyon": 1806,
      "##ilala": 1807,
      "##ud": 1808,
      "lum": 1809,
      "pags": 1810,
      "##les": 1811,
      "pat": 1812,
      "##mp": 1813,
      "##ungsod": 1814,
      "de": 1815,
      "##lo": 1816,
      "of": 1817,
      "##agi": 1818,
      "lungsod": 1819,
      "##eh": 1820,
      "sal": 1821,
      "##aba": 1822,
      "##imb": 1823,
      "##eng": 1824,
      "kin": 1825,
      "sum": 1826,
      "##aring": 1827,
      "##iv": 1828,
      "201": 1829,
      "##ado": 1830,
      "##awan": 1831,
      "##eg": 1832,
      "##ulad": 1833,
      "nags": 1834,
      "ika": 1835,
      "naging": 1836,
      "kah": 1837,
      "maa": 1838,
      "##awag": 1839,
      "hanggang": 1840,
      "kon": 1841,
      "bans": 1842,
      "##ri": 1843,
      "kanilang": 1844,
      "##ili": 1845,
      "panah": 1846,
      "itin": 1847,
      "ap": 1848,
      "tum": 1849,
      "tao": 1850,
      "##oh": 1851,
      "pagt": 1852,
      "##alag": 1853,
      "ibang": 1854,
      "##ero": 1855,
      "##ulang": 1856,
      "##ino": 1857,
      "pangk": 1858,
      "##ma": 1859,
      "niya": 1860,
      "##ulat": 1861,
      "##aka": 1862,
      "##emb": 1863,
      "##iga": 1864,
      "mah": 1865,
      "pagl": 1866,
      "kom": 1867,
      "gr": 1868,
      "ab": 1869,
      "ing": 1870,
      "##angan": 1871,
      "##pan": 1872,
      "saan": 1873,
      "##atay": 1874,
      "pamamag": 1875,
      "##abang": 1876,
      "bayan": 1877,
      "##ha": 1878,
      "##asan": 1879,
      "##tor": 1880,
      "##00": 1881,
      "##da": 1882,
      "##ism": 1883,
      "lo": 1884,
      "pagb": 1885,
      "##igan": 1886,
      "pamamagitan": 1887,
      "##ihan": 1888,
      "##apag": 1889,
      "##agamit": 1890,
      "bahagi": 1891,
      "##ikong": 1892,
      "##uo": 1893,
      "pinakam": 1894,
      "st": 1895,
      "##ulo": 1896,
      "##unit": 1897,
      "##ata": 1898,
      "##ikang": 1899,
      "18": 1900,
      "lamang": 1901,
      "maram": 1902,
      "es": 1903,
      "nasa": 1904,
      "ayon": 1905,
      "maaaring": 1906,
      "ingles": 1907,
      "##anap": 1908,
      "san": 1909,
      "##alo": 1910,
      "ilang": 1911,
      "pagpap": 1912,
      "gay": 1913,
      "##apon": 1914,
      "##alik": 1915,
      "ag": 1916,
      "en": 1917,
      "##amp": 1918,
      "##ikal": 1919,
      "ngunit": 1920,
      "lab": 1921,
      "##ep": 1922,
      "##angk": 1923,
      "mab": 1924,
      "##amb": 1925,
      "##ort": 1926,
      "dalawang": 1927,
      "##ating": 1928,
      "##lal": 1929,
      "min": 1930,
      "##unod": 1931,
      "ser": 1932,
      "##ista": 1933,
      "panahon": 1934,
      "tinat": 1935,
      "pagkak": 1936,
      "##yal": 1937,
      "kum": 1938,
      "taong": 1939,
      "##tur": 1940,
      "##unan": 1941,
      "hapon": 1942,
      "##ation": 1943,
      "##uhay": 1944,
      "gum": 1945,
      "kr": 1946,
      "##aniw": 1947,
      "##la": 1948,
      "##est": 1949,
      "da": 1950,
      "##ilangan": 1951,
      "##ahing": 1952,
      "##ec": 1953,
      "sh": 1954,
      "##orm": 1955,
      "ek": 1956,
      "##agang": 1957,
      "taon": 1958,
      "##puan": 1959,
      "##lat": 1960,
      "##ali": 1961,
      "bar": 1962,
      "##ento": 1963,
      "nap": 1964,
      "lu": 1965,
      "##yemb": 1966,
      "##atapos": 1967,
      "pinag": 1968,
      "##apat": 1969,
      "##yembre": 1970,
      "tim": 1971,
      "##yan": 1972,
      "##las": 1973,
      "kasama": 1974,
      "and": 1975,
      "##ulong": 1976,
      "imp": 1977,
      "##ra": 1978,
      "nan": 1979,
      "##ard": 1980,
      "lahat": 1981,
      "##ismo": 1982,
      "##eks": 1983,
      "pap": 1984,
      "um": 1985,
      "hul": 1986,
      "mil": 1987,
      "bu": 1988,
      "lalaw": 1989,
      "##alim": 1990,
      "op": 1991,
      "##oc": 1992,
      "##unang": 1993,
      "mayro": 1994,
      "pangun": 1995,
      "pamb": 1996,
      "nagt": 1997,
      "##ays": 1998,
      "##igay": 1999,
      "pel": 2000,
      "lalawigan": 2001,
      "##ce": 2002,
      "pun": 2003,
      "ind": 2004,
      "##long": 2005,
      "##ern": 2006,
      "##imula": 2007,
      "bansa": 2008,
      "##ahang": 2009,
      "kilala": 2010,
      "##io": 2011,
      "maraming": 2012,
      "araw": 2013,
      "##ungk": 2014,
      "walang": 2015,
      "tat": 2016,
      "##era": 2017,
      "##ibers": 2018,
      "ed": 2019,
      "tinatawag": 2020,
      "matatag": 2021,
      "pelik": 2022,
      "pangunahing": 2023,
      "##ue": 2024,
      "pak": 2025,
      "199": 2026,
      "##ity": 2027,
      "pop": 2028,
      "##atang": 2029,
      "magk": 2030,
      "dis": 2031,
      "nagb": 2032,
      "##adal": 2033,
      "##ahala": 2034,
      "##iyos": 2035,
      "##ada": 2036,
      "##aga": 2037,
      "hil": 2038,
      "##agawa": 2039,
      "art": 2040,
      "tel": 2041,
      "##igit": 2042,
      "sila": 2043,
      "karaniw": 2044,
      "amer": 2045,
      "pagkatapos": 2046,
      "part": 2047,
      "##ana": 2048,
      "unibers": 2049,
      "loob": 2050,
      "pas": 2051,
      "##oloh": 2052,
      "aw": 2053,
      "el": 2054,
      "te": 2055,
      "##ow": 2056,
      "ginagamit": 2057,
      "##aas": 2058,
      "matatagpuan": 2059,
      "kam": 2060,
      "##imp": 2061,
      "kabilang": 2062,
      "com": 2063,
      "estad": 2064,
      "##ubl": 2065,
      "##itong": 2066,
      "##alit": 2067,
      "##res": 2068,
      "##ayag": 2069,
      "ne": 2070,
      "ph": 2071,
      "sina": 2072,
      "tulad": 2073,
      "uri": 2074,
      "nab": 2075,
      "##gar": 2076,
      "inil": 2077,
      "nagk": 2078,
      "sub": 2079,
      "di": 2080,
      "##ine": 2081,
      "sar": 2082,
      "pamp": 2083,
      "##anganak": 2084,
      "itong": 2085,
      "malak": 2086,
      "##uku": 2087,
      "nil": 2088,
      "naman": 2089,
      "mus": 2090,
      "timog": 2091,
      "unibersidad": 2092,
      "mang": 2093,
      "##ago": 2094,
      "##aroon": 2095,
      "wikang": 2096,
      "popul": 2097,
      "##iling": 2098,
      "##ain": 2099,
      "le": 2100,
      "##ore": 2101,
      "ant": 2102,
      "pagh": 2103,
      "rom": 2104,
      "panan": 2105,
      "bagong": 2106,
      "habang": 2107,
      "##itang": 2108,
      "kasal": 2109,
      "anak": 2110,
      "198": 2111,
      "##ump": 2112,
      "##na": 2113,
      "inter": 2114,
      "kaniyang": 2115,
      "bum": 2116,
      "rep": 2117,
      "dito": 2118,
      "sam": 2119,
      "hum": 2120,
      "##ara": 2121,
      "buong": 2122,
      "sak": 2123,
      "##undo": 2124,
      "##unt": 2125,
      "diyos": 2126,
      "##inal": 2127,
      "##aran": 2128,
      "##anda": 2129,
      "##int": 2130,
      "##uno": 2131,
      "##iging": 2132,
      "mul": 2133,
      "##eo": 2134,
      "baba": 2135,
      "##anan": 2136,
      "##end": 2137,
      "nah": 2138,
      "nas": 2139,
      "##asa": 2140,
      "pagga": 2141,
      "##hi": 2142,
      "ts": 2143,
      "lin": 2144,
      "siyang": 2145,
      "to": 2146,
      "##bol": 2147,
      "##agat": 2148,
      "ad": 2149,
      "##erm": 2150,
      "karaniwang": 2151,
      "##ador": 2152,
      "##apit": 2153,
      "unid": 2154,
      "##istr": 2155,
      "kil": 2156,
      "##ulug": 2157,
      "pangalan": 2158,
      "nagp": 2159,
      "##asang": 2160,
      "estados": 2161,
      "##lur": 2162,
      "##uhan": 2163,
      "unidos": 2164,
      "nagpap": 2165,
      "kasaluku": 2166,
      "con": 2167,
      "##ubuo": 2168,
      "##ayang": 2169,
      "bas": 2170,
      "pagitan": 2171,
      "kag": 2172,
      "simb": 2173,
      "##eral": 2174,
      "ipinanganak": 2175,
      "##ansang": 2176,
      "##th": 2177,
      "reh": 2178,
      "##abi": 2179,
      "##so": 2180,
      "##aling": 2181,
      "##agd": 2182,
      "##uha": 2183,
      "##wa": 2184,
      "##ate": 2185,
      "##una": 2186,
      "##ugn": 2187,
      "##aral": 2188,
      "##ukoy": 2189,
      "bago": 2190,
      "##ey": 2191,
      "##asyong": 2192,
      "pl": 2193,
      "##dig": 2194,
      "##alaking": 2195,
      "sp": 2196,
      "pol": 2197,
      "##ebisyon": 2198,
      "kaya": 2199,
      "##ins": 2200,
      "sist": 2201,
      "##awat": 2202,
      "##ast": 2203,
      "##ikha": 2204,
      "197": 2205,
      "##ord": 2206,
      "gawa": 2207,
      "mundo": 2208,
      "##anong": 2209,
      "##iz": 2210,
      "karam": 2211,
      "katulad": 2212,
      "kanlur": 2213,
      "##arawan": 2214,
      "15": 2215,
      "##ye": 2216,
      "buhay": 2217,
      "populasyon": 2218,
      "##akas": 2219,
      "lup": 2220,
      "##siyon": 2221,
      "##ork": 2222,
      "res": 2223,
      "##iyong": 2224,
      "silang": 2225,
      "kul": 2226,
      "##ayo": 2227,
      "##ivers": 2228,
      "##ekt": 2229,
      "sistem": 2230,
      "##uc": 2231,
      "isin": 2232,
      "lugar": 2233,
      "dating": 2234,
      "bal": 2235,
      "bansang": 2236,
      "palabas": 2237,
      "##adong": 2238,
      "nob": 2239,
      "map": 2240,
      "##aya": 2241,
      "##igdig": 2242,
      "maging": 2243,
      "ilalim": 2244,
      "tatlong": 2245,
      "##sik": 2246,
      "##onom": 2247,
      "pum": 2248,
      "##bay": 2249,
      "univers": 2250,
      "mam": 2251,
      "##ibong": 2252,
      "##lalaro": 2253,
      "10": 2254,
      "telebisyon": 2255,
      "aaral": 2256,
      "bawat": 2257,
      "##isa": 2258,
      "##uto": 2259,
      "pelikula": 2260,
      "dig": 2261,
      "##angay": 2262,
      "kapag": 2263,
      "rel": 2264,
      "##uring": 2265,
      "##ao": 2266,
      "pos": 2267,
      "##ayon": 2268,
      "##igh": 2269,
      "pagp": 2270,
      "kol": 2271,
      "pambansang": 2272,
      "##ipag": 2273,
      "anim": 2274,
      "##yar": 2275,
      "##if": 2276,
      "pamahala": 2277,
      "esp": 2278,
      "itinatag": 2279,
      "##ente": 2280,
      "estado": 2281,
      "mod": 2282,
      "##ahati": 2283,
      "##gap": 2284,
      "##ill": 2285,
      "196": 2286,
      "##ie": 2287,
      "im": 2288,
      "##iwan": 2289,
      "batas": 2290,
      "##bo": 2291,
      "sig": 2292,
      "##uloy": 2293,
      "##agan": 2294,
      "##gr": 2295,
      "tungk": 2296,
      "194": 2297,
      "tang": 2298,
      "17": 2299,
      "##ular": 2300,
      "se": 2301,
      "pareh": 2302,
      "mayroong": 2303,
      "pamil": 2304,
      "nagm": 2305,
      "he": 2306,
      "panl": 2307,
      "000": 2308,
      "car": 2309,
      "nila": 2310,
      "##ibo": 2311,
      "##ustr": 2312,
      "##av": 2313,
      "##api": 2314,
      "##tura": 2315,
      "eur": 2316,
      "##ran": 2317,
      "id": 2318,
      "12": 2319,
      "col": 2320,
      "co": 2321,
      "16": 2322,
      "##ida": 2323,
      "kons": 2324,
      "sup": 2325,
      "##alaki": 2326,
      "##ly": 2327,
      "pagd": 2328,
      "##usyon": 2329,
      "dum": 2330,
      "##mit": 2331,
      "halimb": 2332,
      "##abing": 2333,
      "##asal": 2334,
      "##apan": 2335,
      "tub": 2336,
      "##ura": 2337,
      "ip": 2338,
      "ok": 2339,
      "##art": 2340,
      "apat": 2341,
      "hen": 2342,
      "halimbawa": 2343,
      "karamihan": 2344,
      "##alawak": 2345,
      "nagl": 2346,
      "##ulan": 2347,
      "tagapag": 2348,
      "mon": 2349,
      "babae": 2350,
      "aklat": 2351,
      "##alay": 2352,
      "prod": 2353,
      "##uang": 2354,
      "sinas": 2355,
      "##qu": 2356,
      "opis": 2357,
      "##nila": 2358,
      "nakak": 2359,
      "##andang": 2360,
      "##ert": 2361,
      "malaking": 2362,
      "me": 2363,
      "##co": 2364,
      "klas": 2365,
      "##anta": 2366,
      "paar": 2367,
      "##ond": 2368,
      "pagbab": 2369,
      "so": 2370,
      "alb": 2371,
      "on": 2372,
      "##ensiya": 2373,
      "lar": 2374,
      "##iniw": 2375,
      "##hang": 2376,
      "##ish": 2377,
      "##ira": 2378,
      "met": 2379,
      "##awang": 2380,
      "maynila": 2381,
      "195": 2382,
      "pangkat": 2383,
      "po": 2384,
      "gamit": 2385,
      "##ibigay": 2386,
      "tal": 2387,
      "##ess": 2388,
      "##panya": 2389,
      "higit": 2390,
      "##alabas": 2391,
      "ep": 2392,
      "##uri": 2393,
      "##osto": 2394,
      "##ell": 2395,
      "wika": 2396,
      "##ahayag": 2397,
      "europ": 2398,
      "##gan": 2399,
      "salitang": 2400,
      "nakat": 2401,
      "##man": 2402,
      "hilagang": 2403,
      "##alaga": 2404,
      "##tong": 2405,
      "kasalukuyang": 2406,
      "parehong": 2407,
      "##uro": 2408,
      "lim": 2409,
      "amerik": 2410,
      "##ati": 2411,
      "mo": 2412,
      "##olohiya": 2413,
      "##san": 2414,
      "dr": 2415,
      "bagay": 2416,
      "##ido": 2417,
      "##akita": 2418,
      "##land": 2419,
      "##iba": 2420,
      "binubuo": 2421,
      "new": 2422,
      "gaya": 2423,
      "kore": 2424,
      "##zon": 2425,
      "##arian": 2426,
      "git": 2427,
      "ikalawang": 2428,
      "ex": 2429,
      "##ilan": 2430,
      "##isip": 2431,
      "##umb": 2432,
      "la": 2433,
      "##ungan": 2434,
      "pamahalaan": 2435,
      "11": 2436,
      "##all": 2437,
      "laban": 2438,
      "##ugnay": 2439,
      "krist": 2440,
      "university": 2441,
      "tumut": 2442,
      "komp": 2443,
      "##ril": 2444,
      "niyang": 2445,
      "panahong": 2446,
      "##ingg": 2447,
      "sap": 2448,
      "awit": 2449,
      "opisyal": 2450,
      "##ham": 2451,
      "distr": 2452,
      "##rop": 2453,
      "ac": 2454,
      "##ial": 2455,
      "##ebr": 2456,
      "mataas": 2457,
      "14": 2458,
      "mayroon": 2459,
      "bul": 2460,
      "bak": 2461,
      "##alagang": 2462,
      "##ite": 2463,
      "pil": 2464,
      "lib": 2465,
      "prans": 2466,
      "gen": 2467,
      "tit": 2468,
      "subalit": 2469,
      "##apang": 2470,
      "ngayon": 2471,
      "manlalaro": 2472,
      "##ies": 2473,
      "ug": 2474,
      "ban": 2475,
      "ring": 2476,
      "##ge": 2477,
      "katawan": 2478,
      "kak": 2479,
      "grup": 2480,
      "huling": 2481,
      "##ack": 2482,
      "be": 2483,
      "pinam": 2484,
      "##ante": 2485,
      "pab": 2486,
      "##ust": 2487,
      "nina": 2488,
      "##aysayan": 2489,
      "pagiging": 2490,
      "ina": 2491,
      "##oto": 2492,
      "dir": 2493,
      "inst": 2494,
      "set": 2495,
      "ob": 2496,
      "##araan": 2497,
      "##alis": 2498,
      "pakik": 2499,
      "barangay": 2500,
      "##atawan": 2501,
      "13": 2502,
      "tun": 2503,
      "bagaman": 2504,
      "##lad": 2505,
      "##iran": 2506,
      "lang": 2507,
      "##sak": 2508,
      "mad": 2509,
      "sens": 2510,
      "##ekto": 2511,
      "##wal": 2512,
      "pant": 2513,
      "silangang": 2514,
      "naglal": 2515,
      "sent": 2516,
      "##eman": 2517,
      "##ind": 2518,
      "kuw": 2519,
      "##asak": 2520,
      "nangang": 2521,
      "##sp": 2522,
      "##dia": 2523,
      "##ver": 2524,
      "panda": 2525,
      "sc": 2526,
      "matapos": 2527,
      "med": 2528,
      "sel": 2529,
      "pamant": 2530,
      "huk": 2531,
      "##usunod": 2532,
      "##te": 2533,
      "paaralan": 2534,
      "siglo": 2535,
      "kalak": 2536,
      "##iit": 2537,
      "rehiyon": 2538,
      "ginawa": 2539,
      "kadal": 2540,
      "tungkol": 2541,
      "kop": 2542,
      "193": 2543,
      "##ath": 2544,
      "cr": 2545,
      "lik": 2546,
      "intern": 2547,
      "kristiy": 2548,
      "madal": 2549,
      "silangan": 2550,
      "##po": 2551,
      "kast": 2552,
      "pagtat": 2553,
      "kanluran": 2554,
      "##iniwala": 2555,
      "##isang": 2556,
      "##ipunan": 2557,
      "kahit": 2558,
      "buk": 2559,
      "##lam": 2560,
      "imper": 2561,
      "buw": 2562,
      "dagat": 2563,
      "har": 2564,
      "nagd": 2565,
      "album": 2566,
      "##ungo": 2567,
      "##ose": 2568,
      "kasaysayan": 2569,
      "##alya": 2570,
      "del": 2571,
      "pis": 2572,
      "republ": 2573,
      "net": 2574,
      "paggamit": 2575,
      "disyembre": 2576,
      "##uturing": 2577,
      "##rom": 2578,
      "##ulot": 2579,
      "##ich": 2580,
      "##abaw": 2581,
      "pilipino": 2582,
      "partik": 2583,
      "nahahati": 2584,
      "##irang": 2585,
      "##ena": 2586,
      "##ulugan": 2587,
      "##ark": 2588,
      "tubig": 2589,
      "##ubre": 2590,
      "nagsimula": 2591,
      "malapit": 2592,
      "organ": 2593,
      "2000": 2594,
      "##alig": 2595,
      "aleman": 2596,
      "qu": 2597,
      "ama": 2598,
      "mayo": 2599,
      "dal": 2600,
      "enero": 2601,
      "pandaigdig": 2602,
      "nakik": 2603,
      "us": 2604,
      "for": 2605,
      "trans": 2606,
      "##hip": 2607,
      "##aryo": 2608,
      "katang": 2609,
      "##uwal": 2610,
      "katao": 2611,
      "sab": 2612,
      "naka": 2613,
      "gam": 2614,
      "griy": 2615,
      "bib": 2616,
      "eb": 2617,
      "muling": 2618,
      "iyon": 2619,
      "##tos": 2620,
      "##ive": 2621,
      "##abah": 2622,
      "produk": 2623,
      "griyeg": 2624,
      "##utbol": 2625,
      "punong": 2626,
      "per": 2627,
      "##hal": 2628,
      "sy": 2629,
      "philip": 2630,
      "emp": 2631,
      "##ato": 2632,
      "daan": 2633,
      "##iwanag": 2634,
      "sch": 2635,
      "halos": 2636,
      "ding": 2637,
      "pangkal": 2638,
      "abril": 2639,
      "hun": 2640,
      "##nang": 2641,
      "dek": 2642,
      "marso": 2643,
      "pangulo": 2644,
      "okt": 2645,
      "ul": 2646,
      "neg": 2647,
      "tem": 2648,
      "##aganap": 2649,
      "lat": 2650,
      "kanya": 2651,
      "##tion": 2652,
      "##ical": 2653,
      "siy": 2654,
      "##umang": 2655,
      "ekonom": 2656,
      "agham": 2657,
      "bl": 2658,
      "bay": 2659,
      "agosto": 2660,
      "oktubre": 2661,
      "pangang": 2662,
      "##ton": 2663,
      "lit": 2664,
      "##utan": 2665,
      "pinakamalaking": 2666,
      "hay": 2667,
      "##angalan": 2668,
      "hud": 2669,
      "##oses": 2670,
      "sing": 2671,
      "2010": 2672,
      "artista": 2673,
      "sinaunang": 2674,
      "tan": 2675,
      "##esus": 2676,
      "maliit": 2677,
      "lalaki": 2678,
      "##aban": 2679,
      "##iwalay": 2680,
      "dep": 2681,
      "ur": 2682,
      "ibin": 2683,
      "paraan": 2684,
      "##ilb": 2685,
      "##isyong": 2686,
      "pres": 2687,
      "pelikulang": 2688,
      "pers": 2689,
      "##han": 2690,
      "25": 2691,
      "##asok": 2692,
      "##awit": 2693,
      "##eta": 2694,
      "hulyo": 2695,
      "##yay": 2696,
      "ro": 2697,
      "##way": 2698,
      "##eksiyon": 2699,
      "##ment": 2700,
      "##ne": 2701,
      "##atid": 2702,
      "hang": 2703,
      "##ihang": 2704,
      "pamilya": 2705,
      "##ral": 2706,
      "ilog": 2707,
      "##usan": 2708,
      "kabis": 2709,
      "##ones": 2710,
      "##ff": 2711,
      "nagkaroon": 2712,
      "##inong": 2713,
      "##uth": 2714,
      "teor": 2715,
      "##ami": 2716,
      "##ukat": 2717,
      "pinaka": 2718,
      "bab": 2719,
      "nobyembre": 2720,
      "philippin": 2721,
      "sik": 2722,
      "##ebrero": 2723,
      "ii": 2724,
      "nagh": 2725,
      "hunyo": 2726,
      "kur": 2727,
      "simula": 2728,
      "pebrero": 2729,
      "dapat": 2730,
      "prop": 2731,
      "##iwa": 2732,
      "##work": 2733,
      "papa": 2734,
      "romano": 2735,
      "prob": 2736,
      "progr": 2737,
      "setyembre": 2738,
      "##ight": 2739,
      "##ck": 2740,
      "##atili": 2741,
      "gayun": 2742,
      "##ov": 2743,
      "nakapag": 2744,
      "grupo": 2745,
      "tip": 2746,
      "ilan": 2747,
      "##angyar": 2748,
      "trad": 2749,
      "malawak": 2750,
      "##ela": 2751,
      "hapones": 2752,
      "##onan": 2753,
      "##alawa": 2754,
      "sining": 2755,
      "kasapi": 2756,
      "orih": 2757,
      "anyo": 2758,
      "big": 2759,
      "gus": 2760,
      "##ling": 2761,
      "30": 2762,
      "##erb": 2763,
      "sarili": 2764,
      "senso": 2765,
      "orihinal": 2766,
      "##ilis": 2767,
      "katol": 2768,
      "##omet": 2769,
      "kapangyar": 2770,
      "##iyo": 2771,
      "namatay": 2772,
      "cl": 2773,
      "##elo": 2774,
      "tul": 2775,
      "maaari": 2776,
      "##ice": 2777,
      "sol": 2778,
      "##umpay": 2779,
      "192": 2780,
      "lok": 2781,
      "##aliksik": 2782,
      "term": 2783,
      "rus": 2784,
      "network": 2785,
      "tsina": 2786,
      "##ement": 2787,
      "##awak": 2788,
      "##kol": 2789,
      "daang": 2790,
      "##atak": 2791,
      "##orn": 2792,
      "sistemang": 2793,
      "pagsas": 2794,
      "2007": 2795,
      "##abot": 2796,
      "ginamit": 2797,
      "##anggap": 2798,
      "int": 2799,
      "tur": 2800,
      "ol": 2801,
      "##olog": 2802,
      "mags": 2803,
      "##ataas": 2804,
      "gre": 2805,
      "buwan": 2806,
      "cent": 2807,
      "##abag": 2808,
      "kastila": 2809,
      "fran": 2810,
      "##ary": 2811,
      "gu": 2812,
      "nagmula": 2813,
      "##ez": 2814,
      "sistema": 2815,
      "rad": 2816,
      "sumusunod": 2817,
      "itinuturing": 2818,
      "##unta": 2819,
      "##str": 2820,
      "pangkalahat": 2821,
      "pagkaka": 2822,
      "bro": 2823,
      "oras": 2824,
      "simbahan": 2825,
      "##ius": 2826,
      "##aryong": 2827,
      "##ons": 2828,
      "kabu": 2829,
      "##agk": 2830,
      "##ost": 2831,
      "lupa": 2832,
      "korea": 2833,
      "sakit": 2834,
      "kaw": 2835,
      "bo": 2836,
      "##lim": 2837,
      "##ev": 2838,
      "kabah": 2839,
      "do": 2840,
      "##ko": 2841,
      "asya": 2842,
      "kinab": 2843,
      "##ors": 2844,
      "##ry": 2845,
      "##ulugang": 2846,
      "hilaga": 2847,
      "##ono": 2848,
      "pagg": 2849,
      "191": 2850,
      "##abaho": 2851,
      "relih": 2852,
      "##maang": 2853,
      "hom": 2854,
      "hari": 2855,
      "##per": 2856,
      "instit": 2857,
      "##inang": 2858,
      "europa": 2859,
      "##orp": 2860,
      "pinuno": 2861,
      "ter": 2862,
      "hesus": 2863,
      "nar": 2864,
      "em": 2865,
      "milyong": 2866,
      "##ional": 2867,
      "dekada": 2868,
      "hayop": 2869,
      "##utub": 2870,
      "##along": 2871,
      "yo": 2872,
      "kontr": 2873,
      "##atan": 2874,
      "21": 2875,
      "sur": 2876,
      "gitnang": 2877,
      "gan": 2878,
      "pans": 2879,
      "##oro": 2880,
      "que": 2881,
      "sen": 2882,
      "wh": 2883,
      "digmaang": 2884,
      "una": 2885,
      "miy": 2886,
      "pook": 2887,
      "pangalang": 2888,
      "can": 2889,
      "pul": 2890,
      "kapatid": 2891,
      "kabisera": 2892,
      "nitong": 2893,
      "##itaw": 2894,
      "##alita": 2895,
      "##alidad": 2896,
      "##enta": 2897,
      "kadalasang": 2898,
      "emper": 2899,
      "form": 2900,
      "austr": 2901,
      "bit": 2902,
      "##ulta": 2903,
      "tak": 2904,
      "magp": 2905,
      "lag": 2906,
      "##enyo": 2907,
      "##ket": 2908,
      "##itor": 2909,
      "##ahi": 2910,
      "anumang": 2911,
      "partikular": 2912,
      "pakikipag": 2913,
      "ba": 2914,
      "bahay": 2915,
      "##ith": 2916,
      "reg": 2917,
      "ass": 2918,
      "sul": 2919,
      "##ide": 2920,
      "puw": 2921,
      "comm": 2922,
      "manun": 2923,
      "batang": 2924,
      "##do": 2925,
      "##ica": 2926,
      "##ahin": 2927,
      "##paman": 2928,
      "##istang": 2929,
      "serb": 2930,
      "##ft": 2931,
      "2011": 2932,
      "juan": 2933,
      "pagm": 2934,
      "##irahan": 2935,
      "##aki": 2936,
      "2008": 2937,
      "24": 2938,
      "##iral": 2939,
      "pre": 2940,
      "tumutukoy": 2941,
      "komun": 2942,
      "gayunpaman": 2943,
      "##itika": 2944,
      "##atlong": 2945,
      "##adala": 2946,
      "##son": 2947,
      "salita": 2948,
      "madalas": 2949,
      "ko": 2950,
      "marami": 2951,
      "her": 2952,
      "##syon": 2953,
      "pagsus": 2954,
      "##unin": 2955,
      "bata": 2956,
      "tala": 2957,
      "##ihin": 2958,
      "##age": 2959,
      "##iang": 2960,
      "marc": 2961,
      "##kas": 2962,
      "##iyak": 2963,
      "kala": 2964,
      "##ayong": 2965,
      "##alog": 2966,
      "linya": 2967,
      "kinabib": 2968,
      "##lor": 2969,
      "##ikasyon": 2970,
      "kapul": 2971,
      "espes": 2972,
      "##usay": 2973,
      "##unuan": 2974,
      "tek": 2975,
      "samant": 2976,
      "pulo": 2977,
      "##nan": 2978,
      "##iss": 2979,
      "alam": 2980,
      "rec": 2981,
      "koleh": 2982,
      "##ba": 2983,
      "nangangah": 2984,
      "##hel": 2985,
      "##ormal": 2986,
      "futbol": 2987,
      "##uns": 2988,
      "##ea": 2989,
      "mer": 2990,
      "##ka": 2991,
      "bers": 2992,
      "limang": 2993,
      "kilalang": 2994,
      "##uti": 2995,
      "##uy": 2996,
      "##ugo": 2997,
      "kapangyarihan": 2998,
      "nagbibigay": 2999,
      "##maan": 3000,
      "prot": 3001,
      "23": 3002,
      "##kr": 3003,
      "griyego": 3004,
      "ig": 3005,
      "miyemb": 3006,
      "kinabibilangan": 3007,
      "pamum": 3008,
      "##agal": 3009,
      "##olo": 3010,
      "gumagamit": 3011,
      "tuw": 3012,
      "##itar": 3013,
      "ah": 3014,
      "sob": 3015,
      "##anay": 3016,
      "kanlurang": 3017,
      "##iyal": 3018,
      "serye": 3019,
      "apr": 3020,
      "##ona": 3021,
      "kabahayan": 3022,
      "22": 3023,
      "##hin": 3024,
      "kulay": 3025,
      "##alaman": 3026,
      "kaharian": 3027,
      "##ve": 3028,
      "batay": 3029,
      "joh": 3030,
      "nagsis": 3031,
      "nort": 3032,
      "et": 3033,
      "ehip": 3034,
      "##osop": 3035,
      "antas": 3036,
      "##agdag": 3037,
      "all": 3038,
      "laro": 3039,
      "klaseng": 3040,
      "##leng": 3041,
      "##tin": 3042,
      "##luw": 3043,
      "##ipas": 3044,
      "##yayari": 3045,
      "pet": 3046,
      "dak": 3047,
      "##atayan": 3048,
      "pinap": 3049,
      "emperador": 3050,
      "kong": 3051,
      "uma": 3052,
      "air": 3053,
      "jose": 3054,
      "miyembro": 3055,
      "##onya": 3056,
      "pand": 3057,
      "##az": 3058,
      "##ear": 3059,
      "inilabas": 3060,
      "##esa": 3061,
      "ugn": 3062,
      "bibl": 3063,
      "digmaan": 3064,
      "nal": 3065,
      "pagkain": 3066,
      "gaw": 3067,
      "##arap": 3068,
      "##bong": 3069,
      "##ektor": 3070,
      "asawa": 3071,
      "aawit": 3072,
      "##ail": 3073,
      "##uter": 3074,
      "dem": 3075,
      "##arang": 3076,
      "##iwang": 3077,
      "pagbabago": 3078,
      "modern": 3079,
      "simbahang": 3080,
      "katangian": 3081,
      "ir": 3082,
      "##ool": 3083,
      "##der": 3084,
      "makik": 3085,
      "papel": 3086,
      "ce": 3087,
      "eduk": 3088,
      "koponan": 3089,
      "##ca": 3090,
      "pati": 3091,
      "##erh": 3092,
      "estasyon": 3093,
      "industr": 3094,
      "wala": 3095,
      "2006": 3096,
      "2009": 3097,
      "##ress": 3098,
      "##enida": 3099,
      "umi": 3100,
      "mamam": 3101,
      "daigdig": 3102,
      "larangan": 3103,
      "naglalaman": 3104,
      "##ler": 3105,
      "##ipe": 3106,
      "kamatayan": 3107,
      "##ibil": 3108,
      "str": 3109,
      "##iks": 3110,
      "##ental": 3111,
      "##ld": 3112,
      "katoliko": 3113,
      "seks": 3114,
      "##yer": 3115,
      "##ason": 3116,
      "##eno": 3117,
      "sil": 3118,
      "sanhi": 3119,
      "isinulat": 3120,
      "ibig": 3121,
      "##esis": 3122,
      "paggawa": 3123,
      "190": 3124,
      "pus": 3125,
      "##ibid": 3126,
      "##ence": 3127,
      "##ema": 3128,
      "pinakamah": 3129,
      "up": 3130,
      "pangalawang": 3131,
      "tunay": 3132,
      "lay": 3133,
      "26": 3134,
      "pangh": 3135,
      "##ipat": 3136,
      "kaysa": 3137,
      "bis": 3138,
      "noon": 3139,
      "##emat": 3140,
      "##uhang": 3141,
      "katutub": 3142,
      "lalo": 3143,
      "##imulang": 3144,
      "muli": 3145,
      "##pany": 3146,
      "amerika": 3147,
      "colle": 3148,
      "republika": 3149,
      "ark": 3150,
      "pagkakaroon": 3151,
      "##aysay": 3152,
      "maria": 3153,
      "##ti": 3154,
      "##ph": 3155,
      "##yag": 3156,
      "##yano": 3157,
      "##isto": 3158,
      "napak": 3159,
      "pranses": 3160,
      "##rap": 3161,
      "##atuloy": 3162,
      "inih": 3163,
      "##enc": 3164,
      "gumawa": 3165,
      "27": 3166,
      "ped": 3167,
      "##alagay": 3168,
      "abenida": 3169,
      "titik": 3170,
      "189": 3171,
      "nagsas": 3172,
      "biy": 3173,
      "##sang": 3174,
      "##ij": 3175,
      "kasalukuyan": 3176,
      "##ahe": 3177,
      "##tas": 3178,
      "##oci": 3179,
      "##orld": 3180,
      "kahulugan": 3181,
      "but": 3182,
      "##isyo": 3183,
      "kamp": 3184,
      "##lang": 3185,
      "proses": 3186,
      "pilosop": 3187,
      "labas": 3188,
      "italya": 3189,
      "minist": 3190,
      "gob": 3191,
      "samp": 3192,
      "28": 3193,
      "char": 3194,
      "##min": 3195,
      "##ismong": 3196,
      "espanya": 3197,
      "ben": 3198,
      "tanging": 3199,
      "lingg": 3200,
      "manunulat": 3201,
      "##de": 3202,
      "##atas": 3203,
      "pampubl": 3204,
      "##anggit": 3205,
      "##ick": 3206,
      "mun": 3207,
      "school": 3208,
      "paglal": 3209,
      "bil": 3210,
      "sariling": 3211,
      "akt": 3212,
      "kakay": 3213,
      "##udi": 3214,
      "nin": 3215,
      "##ayos": 3216,
      "ari": 3217,
      "amerikano": 3218,
      "award": 3219,
      "nakab": 3220,
      "kristiyano": 3221,
      "latin": 3222,
      "##ere": 3223,
      "kump": 3224,
      "##iano": 3225,
      "##akop": 3226,
      "##ash": 3227,
      "ini": 3228,
      "##kod": 3229,
      "city": 3230,
      "karagd": 3231,
      "tinawag": 3232,
      "amerikanong": 3233,
      "##uel": 3234,
      "go": 3235,
      "sand": 3236,
      "fo": 3237,
      "##ibig": 3238,
      "##irap": 3239,
      "world": 3240,
      "##yeng": 3241,
      "##alam": 3242,
      "##one": 3243,
      "##inig": 3244,
      "lokal": 3245,
      "er": 3246,
      "##unlad": 3247,
      "##ukl": 3248,
      "##aging": 3249,
      "##awid": 3250,
      "philippine": 3251,
      "pangkalahatang": 3252,
      "##ihim": 3253,
      "taga": 3254,
      "eksp": 3255,
      "##araang": 3256,
      "magb": 3257,
      "##ex": 3258,
      "##tan": 3259,
      "##iel": 3260,
      "tagalog": 3261,
      "##abay": 3262,
      "100": 3263,
      "##ann": 3264,
      "##ugto": 3265,
      "##osa": 3266,
      "his": 3267,
      "john": 3268,
      "pangm": 3269,
      "##lin": 3270,
      "mater": 3271,
      "rey": 3272,
      "ut": 3273,
      "##agam": 3274,
      "halaga": 3275,
      "gawain": 3276,
      "quezon": 3277,
      "indones": 3278,
      "##ure": 3279,
      "ehipto": 3280,
      "dok": 3281,
      "##ser": 3282,
      "nakap": 3283,
      "##enteng": 3284,
      "abs": 3285,
      "##akal": 3286,
      "lumang": 3287,
      "dam": 3288,
      "sinabi": 3289,
      "paghah": 3290,
      "##ektr": 3291,
      "2005": 3292,
      "sumunod": 3293,
      "kond": 3294,
      "kim": 3295,
      "publ": 3296,
      "des": 3297,
      "gma": 3298,
      "tinut": 3299,
      "nanalo": 3300,
      "mor": 3301,
      "pinan": 3302,
      "militar": 3303,
      "pananaliksik": 3304,
      "##que": 3305,
      "arab": 3306,
      "rito": 3307,
      "him": 3308,
      "tawag": 3309,
      "##rat": 3310,
      "akda": 3311,
      "kilomet": 3312,
      "distrito": 3313,
      "bce": 3314,
      "##va": 3315,
      "##no": 3316,
      "kuwento": 3317,
      "##itiko": 3318,
      "lupain": 3319,
      "bol": 3320,
      "naga": 3321,
      "nakal": 3322,
      "york": 3323,
      "##mas": 3324,
      "nais": 3325,
      "national": 3326,
      "gulang": 3327,
      "##entong": 3328,
      "##ugnayan": 3329,
      "##amin": 3330,
      "##ukan": 3331,
      "##undin": 3332,
      "ge": 3333,
      "##dang": 3334,
      "naw": 3335,
      "##ugan": 3336,
      "minsan": 3337,
      "##ium": 3338,
      "##ley": 3339,
      "##akatawan": 3340,
      "##ora": 3341,
      "kalag": 3342,
      "bangk": 3343,
      "dalawa": 3344,
      "anime": 3345,
      "##ilo": 3346,
      "cb": 3347,
      "kanila": 3348,
      "natur": 3349,
      "mahalagang": 3350,
      "##uting": 3351,
      "nangangahulugang": 3352,
      "##esto": 3353,
      "##igo": 3354,
      "##alin": 3355,
      "##umbas": 3356,
      "##isasyon": 3357,
      "##iban": 3358,
      "##uman": 3359,
      "modernong": 3360,
      "##akilala": 3361,
      "##ator": 3362,
      "mababang": 3363,
      "south": 3364,
      "##ii": 3365,
      "manan": 3366,
      "edad": 3367,
      "formula": 3368,
      "bud": 3369,
      "dom": 3370,
      "##uin": 3371,
      "fr": 3372,
      "##amm": 3373,
      "unit": 3374,
      "2012": 3375,
      "high": 3376,
      "##lan": 3377,
      "edukasyon": 3378,
      "##oss": 3379,
      "##ational": 3380,
      "sukat": 3381,
      "##erasyon": 3382,
      "os": 3383,
      "mahigit": 3384,
      "##vel": 3385,
      "##ital": 3386,
      "##igil": 3387,
      "pad": 3388,
      "kor": 3389,
      "cal": 3390,
      "##eho": 3391,
      "ho": 3392,
      "##adem": 3393,
      "##aso": 3394,
      "tekn": 3395,
      "partido": 3396,
      "##olohiyang": 3397,
      "pinagm": 3398,
      "ikatlong": 3399,
      "##atayo": 3400,
      "kabuuang": 3401,
      "##asin": 3402,
      "##old": 3403,
      "babaeng": 3404,
      "##anga": 3405,
      "manga": 3406,
      "hit": 3407,
      "##agay": 3408,
      "palig": 3409,
      "##ect": 3410,
      "##inggil": 3411,
      "samantalang": 3412,
      "isra": 3413,
      "##ima": 3414,
      "roma": 3415,
      "##idong": 3416,
      "29": 3417,
      "##lay": 3418,
      "2013": 3419,
      "##ys": 3420,
      "isinas": 3421,
      "##ese": 3422,
      "##alitan": 3423,
      "college": 3424,
      "halip": 3425,
      "pagka": 3426,
      "pagkab": 3427,
      "karapat": 3428,
      "bibliya": 3429,
      "israel": 3430,
      "##enn": 3431,
      "dav": 3432,
      "mapag": 3433,
      "##za": 3434,
      "natatang": 3435,
      "bur": 3436,
      "##ile": 3437,
      "negos": 3438,
      "##ros": 3439,
      "mac": 3440,
      "manila": 3441,
      "dugo": 3442,
      "##ach": 3443,
      "huli": 3444,
      "##ace": 3445,
      "##yun": 3446,
      "rob": 3447,
      "##hen": 3448,
      "pah": 3449,
      "##let": 3450,
      "sapagk": 3451,
      "makikita": 3452,
      "sw": 3453,
      "ibabaw": 3454,
      "##ics": 3455,
      "##ugh": 3456,
      "atom": 3457,
      "##ipiko": 3458,
      "comp": 3459,
      "heneral": 3460,
      "bel": 3461,
      "##pe": 3462,
      "pagkakata": 3463,
      "pampublikong": 3464,
      "##atibong": 3465,
      "pransiya": 3466,
      "kalakhang": 3467,
      "marcos": 3468,
      "lumabas": 3469,
      "ministro": 3470,
      "##ikan": 3471,
      "dip": 3472,
      "##inast": 3473,
      "spec": 3474,
      "val": 3475,
      "tv": 3476,
      "kilometro": 3477,
      "##ayaan": 3478,
      "patuloy": 3479,
      "basket": 3480,
      "wik": 3481,
      "panit": 3482,
      "labanan": 3483,
      "prins": 3484,
      "star": 3485,
      "nakilala": 3486,
      "ekonomiya": 3487,
      "bir": 3488,
      "##amatay": 3489,
      "##atayang": 3490,
      "pinang": 3491,
      "##ican": 3492,
      "##rong": 3493,
      "kaugnayan": 3494,
      "ipinag": 3495,
      "chr": 3496,
      "indibid": 3497,
      "##omb": 3498,
      "##ahanap": 3499,
      "31": 3500,
      "##atanggap": 3501,
      "japan": 3502,
      "matemat": 3503,
      "##undok": 3504,
      "##ias": 3505,
      "islam": 3506,
      "pamayan": 3507,
      "##eth": 3508,
      "dahilan": 3509,
      "karaniwan": 3510,
      "nilikha": 3511,
      "ganitong": 3512,
      "##arin": 3513,
      "##uran": 3514,
      "##anghel": 3515,
      "elektr": 3516,
      "mol": 3517,
      "napap": 3518,
      "musika": 3519,
      "2004": 3520,
      "alemanya": 3521,
      "jo": 3522,
      "kw": 3523,
      "##ailangan": 3524,
      "##ahok": 3525,
      "dinast": 3526,
      "kababa": 3527,
      "##own": 3528,
      "angk": 3529,
      "##anang": 3530,
      "##alal": 3531,
      "##ibigan": 3532,
      "nakas": 3533,
      "sapagkat": 3534,
      "eng": 3535,
      "riz": 3536,
      "##ibang": 3537,
      "cbn": 3538,
      "hangganan": 3539,
      "pinamum": 3540,
      "nagbigay": 3541,
      "filip": 3542,
      "nilang": 3543,
      "##iro": 3544,
      "##usang": 3545,
      "seryeng": 3546,
      "linyang": 3547,
      "aprika": 3548,
      "tok": 3549,
      "##agatang": 3550,
      "gas": 3551,
      "hinggil": 3552,
      "paan": 3553,
      "##araniw": 3554,
      "##ake": 3555,
      "muslim": 3556,
      "50": 3557,
      "my": 3558,
      "sus": 3559,
      "patak": 3560,
      "gayundin": 3561,
      "fre": 3562,
      "##anao": 3563,
      "sentro": 3564,
      "mit": 3565,
      "##yn": 3566,
      "imb": 3567,
      "ca": 3568,
      "##ier": 3569,
      "britan": 3570,
      "pw": 3571,
      "tradisyon": 3572,
      "##ograp": 3573,
      "magkak": 3574,
      "mic": 3575,
      "##erg": 3576,
      "gamitin": 3577,
      "##se": 3578,
      "kaso": 3579,
      "arm": 3580,
      "bukod": 3581,
      "##ual": 3582,
      "##uot": 3583,
      "are": 3584,
      "##orta": 3585,
      "hudyo": 3586,
      "rizal": 3587,
      "##yu": 3588,
      "sek": 3589,
      "##igang": 3590,
      "pinamumunuan": 3591,
      "sag": 3592,
      "##are": 3593,
      "umiiral": 3594,
      "natit": 3595,
      "##athala": 3596,
      "##anggol": 3597,
      "makak": 3598,
      "makapag": 3599,
      "pampol": 3600,
      "banal": 3601,
      "international": 3602,
      "gusali": 3603,
      "isip": 3604,
      "##port": 3605,
      "##ugang": 3606,
      "##abagong": 3607,
      "##ene": 3608,
      "##agumpay": 3609,
      "kinaka": 3610,
      "##uz": 3611,
      "##ugis": 3612,
      "ebanghel": 3613,
      "##ilangang": 3614,
      "mand": 3615,
      "##yl": 3616,
      "##ase": 3617,
      "##asiwa": 3618,
      "mangg": 3619,
      "sir": 3620,
      "tar": 3621,
      "imperyo": 3622,
      "likas": 3623,
      "propes": 3624,
      "olimp": 3625,
      "##yari": 3626,
      "tuwing": 3627,
      "main": 3628,
      "ist": 3629,
      "##antaon": 3630,
      "lub": 3631,
      "sasak": 3632,
      "halaman": 3633,
      "sinasabing": 3634,
      "programa": 3635,
      "will": 3636,
      "##yente": 3637,
      "parang": 3638,
      "sulat": 3639,
      "sunod": 3640,
      "pandaigdigang": 3641,
      "magt": 3642,
      "selula": 3643,
      "bus": 3644,
      "baybay": 3645,
      "magm": 3646,
      "associ": 3647,
      "santa": 3648,
      "##uon": 3649,
      "nau": 3650,
      "bumubuo": 3651,
      "##atig": 3652,
      "north": 3653,
      "nait": 3654,
      "##ulin": 3655,
      "##igyan": 3656,
      "##alakbay": 3657,
      "linggo": 3658,
      "gl": 3659,
      "gil": 3660,
      "relihiyon": 3661,
      "fil": 3662,
      "idin": 3663,
      "santo": 3664,
      "pinaniniwala": 3665,
      "ide": 3666,
      "katumbas": 3667,
      "maliban": 3668,
      "##tern": 3669,
      "kultura": 3670,
      "munisip": 3671,
      "bundok": 3672,
      "sinus": 3673,
      "kompanya": 3674,
      "imperyong": 3675,
      "##sk": 3676,
      "pinags": 3677,
      "puno": 3678,
      "##able": 3679,
      "don": 3680,
      "resulta": 3681,
      "record": 3682,
      "kinik": 3683,
      "port": 3684,
      "enerh": 3685,
      "##alat": 3686,
      "pilipinong": 3687,
      "2014": 3688,
      "##ilbi": 3689,
      "pagmam": 3690,
      "day": 3691,
      "##awaran": 3692,
      "##ispo": 3693,
      "mind": 3694,
      "nagtatag": 3695,
      "##bolusyon": 3696,
      "##yet": 3697,
      "##ako": 3698,
      "##akan": 3699,
      "franc": 3700,
      "by": 3701,
      "ra": 3702,
      "##uga": 3703,
      "naglalaro": 3704,
      "bato": 3705,
      "pagkakataon": 3706,
      "##undan": 3707,
      "##iliit": 3708,
      "pampolitika": 3709,
      "sm": 3710,
      "##ball": 3711,
      "##antong": 3712,
      "##ensiyang": 3713,
      "proseso": 3714,
      "##ee": 3715,
      "##law": 3716,
      "dan": 3717,
      "##isan": 3718,
      "##ipon": 3719,
      "dumating": 3720,
      "pampang": 3721,
      "##ormasyon": 3722,
      "luzon": 3723,
      "##ungkahi": 3724,
      "center": 3725,
      "layunin": 3726,
      "katutubong": 3727,
      "##uch": 3728,
      "kapan": 3729,
      "##ahanan": 3730,
      "ipinap": 3731,
      "init": 3732,
      "malakas": 3733,
      "exp": 3734,
      "##uni": 3735,
      "pablo": 3736,
      "king": 3737,
      "##ampok": 3738,
      "kapwa": 3739,
      "2015": 3740,
      "##sh": 3741,
      "##anismo": 3742,
      "dib": 3743,
      "proy": 3744,
      "kaugnay": 3745,
      "sangay": 3746,
      "indonesia": 3747,
      "rehiyong": 3748,
      "##ean": 3749,
      "##asyo": 3750,
      "kumulang": 3751,
      "probl": 3752,
      "sangk": 3753,
      "war": 3754,
      "##gor": 3755,
      "kasunod": 3756,
      "##ikling": 3757,
      "af": 3758,
      "##ret": 3759,
      "##tod": 3760,
      "##amahala": 3761,
      "pahayag": 3762,
      "##yante": 3763,
      "patungo": 3764,
      "tipan": 3765,
      "tug": 3766,
      "##asya": 3767,
      "kamay": 3768,
      "pananaw": 3769,
      "##orpor": 3770,
      "##akter": 3771,
      "we": 3772,
      "##siyong": 3773,
      "kont": 3774,
      "##illa": 3775,
      "lakas": 3776,
      "##ute": 3777,
      "hy": 3778,
      "km": 3779,
      "lipunan": 3780,
      "pitong": 3781,
      "##nam": 3782,
      "##kolar": 3783,
      "##ont": 3784,
      "ins": 3785,
      "katim": 3786,
      "milyon": 3787,
      "magkaroon": 3788,
      "sun": 3789,
      "##atiling": 3790,
      "pinangalan": 3791,
      "hukbong": 3792,
      "##anib": 3793,
      "gal": 3794,
      "india": 3795,
      "hel": 3796,
      "metro": 3797,
      "lumitaw": 3798,
      "##uli": 3799,
      "##ampal": 3800,
      "##ated": 3801,
      "##papawid": 3802,
      "##ipin": 3803,
      "mabilis": 3804,
      "nad": 3805,
      "##stant": 3806,
      "modelo": 3807,
      "ros": 3808,
      "magiging": 3809,
      "nobel": 3810,
      "nagpapakita": 3811,
      "hangin": 3812,
      "lumil": 3813,
      "nai": 3814,
      "##uta": 3815,
      "##ode": 3816,
      "ele": 3817,
      "##go": 3818,
      "kailangan": 3819,
      "aqu": 3820,
      "karakter": 3821,
      "nagiging": 3822,
      "aral": 3823,
      "himp": 3824,
      "##ult": 3825,
      "pero": 3826,
      "season": 3827,
      "produkto": 3828,
      "pagkakaiba": 3829,
      "labis": 3830,
      "dulo": 3831,
      "##li": 3832,
      "av": 3833,
      "gro": 3834,
      "vir": 3835,
      "##amo": 3836,
      "##ansa": 3837,
      "tinatayang": 3838,
      "materyal": 3839,
      "vi": 3840,
      "maliliit": 3841,
      "naganap": 3842,
      "##eses": 3843,
      "##ire": 3844,
      "nagtat": 3845,
      "pamantasan": 3846,
      "jr": 3847,
      "##emento": 3848,
      "nagkaka": 3849,
      "tauhan": 3850,
      "kalye": 3851,
      "pinakamataas": 3852,
      "nagtapos": 3853,
      "serbisyo": 3854,
      "##ando": 3855,
      "##aram": 3856,
      "##use": 3857,
      "##alian": 3858,
      "##alakay": 3859,
      "kinatawan": 3860,
      "pangkaraniw": 3861,
      "##ting": 3862,
      "##orya": 3863,
      "##ibay": 3864,
      "2003": 3865,
      "##turang": 3866,
      "pamagat": 3867,
      "kasund": 3868,
      "talaan": 3869,
      "##ekta": 3870,
      "pagsis": 3871,
      "trop": 3872,
      "pagkakat": 3873,
      "mamamayan": 3874,
      "##alia": 3875,
      "kauna": 3876,
      "##igas": 3877,
      "trabaho": 3878,
      "##ataya": 3879,
      "##anatili": 3880,
      "plan": 3881,
      "hanay": 3882,
      "##oma": 3883,
      "inc": 3884,
      "##erno": 3885,
      "##olohikal": 3886,
      "##ilya": 3887,
      "##ote": 3888,
      "sikat": 3889,
      "##aligiran": 3890,
      "##ho": 3891,
      "temp": 3892,
      "ugnayan": 3893,
      "with": 3894,
      "##ektong": 3895,
      "galing": 3896,
      "ram": 3897,
      "sk": 3898,
      "##alarawan": 3899,
      "##upad": 3900,
      "##ock": 3901,
      "indibidwal": 3902,
      "##uyod": 3903,
      "haring": 3904,
      "##imbag": 3905,
      "gayon": 3906,
      "industriya": 3907,
      "##uklasan": 3908,
      "##yunal": 3909,
      "pangulong": 3910,
      "ekw": 3911,
      "humigit": 3912,
      "##ola": 3913,
      "##atura": 3914,
      "##wang": 3915,
      "pe": 3916,
      "##agsak": 3917,
      "##atandang": 3918,
      "##aloob": 3919,
      "##lak": 3920,
      "pagkaraan": 3921,
      "2001": 3922,
      "tom": 3923,
      "##ign": 3924,
      "nanin": 3925,
      "magmula": 3926,
      "banda": 3927,
      "konsep": 3928,
      "dat": 3929,
      "sibil": 3930,
      "##akda": 3931,
      "ebanghelyo": 3932,
      "tahanan": 3933,
      "##atibo": 3934,
      "##itis": 3935,
      "kolehiyo": 3936,
      "hugis": 3937,
      "lip": 3938,
      "ukol": 3939,
      "188": 3940,
      "aga": 3941,
      "ec": 3942,
      "sang": 3943,
      "##ix": 3944,
      "##idente": 3945,
      "palip": 3946,
      "seg": 3947,
      "##akit": 3948,
      "##erman": 3949,
      "sund": 3950,
      "##ai": 3951,
      "##imulan": 3952,
      "seksuwal": 3953,
      "pagtut": 3954,
      "artik": 3955,
      "##aganak": 3956,
      "tiyak": 3957,
      "##agpuan": 3958,
      "bandang": 3959,
      "wat": 3960,
      "##her": 3961,
      "tsino": 3962,
      "40": 3963,
      "##unga": 3964,
      "was": 3965,
      "##ilipat": 3966,
      "##ensiyon": 3967,
      "tanyag": 3968,
      "kad": 3969,
      "web": 3970,
      "pangg": 3971,
      "paris": 3972,
      "sant": 3973,
      "super": 3974,
      "paul": 3975,
      "ipinaganak": 3976,
      "hol": 3977,
      "##yuter": 3978,
      "park": 3979,
      "##ugtong": 3980,
      "malalaking": 3981,
      "2002": 3982,
      "gitna": 3983,
      "istr": 3984,
      "##stem": 3985,
      "prib": 3986,
      "##ua": 3987,
      "##ron": 3988,
      "##amat": 3989,
      "magulang": 3990,
      "ibinigay": 3991,
      "##iriwang": 3992,
      "doon": 3993,
      "##din": 3994,
      "pamamaraan": 3995,
      "luc": 3996,
      "##yat": 3997,
      "maaring": 3998,
      "##panan": 3999,
      "posisyon": 4000,
      "teritor": 4001,
      "kalaunan": 4002,
      "sapat": 4003,
      "tunog": 4004,
      "sit": 4005,
      "gamot": 4006,
      "tinutukoy": 4007,
      "ga": 4008,
      "dakilang": 4009,
      "##luwensiya": 4010,
      "##irit": 4011,
      "##asyonal": 4012,
      "tagap": 4013,
      "tagapagt": 4014,
      "epekto": 4015,
      "teoriya": 4016,
      "ano": 4017,
      "2016": 4018,
      "pamantasang": 4019,
      "united": 4020,
      "dna": 4021,
      "##inc": 4022,
      "##ilidad": 4023,
      "kanta": 4024,
      "pisikal": 4025,
      "ber": 4026,
      "gabi": 4027,
      "jos": 4028,
      "##rer": 4029,
      "alk": 4030,
      "gawaing": 4031,
      "natatanging": 4032,
      "ulo": 4033,
      "##usyong": 4034,
      "##istan": 4035,
      "elemento": 4036,
      "munisipalidad": 4037,
      "##su": 4038,
      "alp": 4039,
      "balat": 4040,
      "bon": 4041,
      "##dic": 4042,
      "panlipunan": 4043,
      "pinagmulan": 4044,
      "kapanah": 4045,
      "kun": 4046,
      "makabagong": 4047,
      "geor": 4048,
      "plat": 4049,
      "##yr": 4050,
      "##ions": 4051,
      "##unting": 4052,
      "nakuha": 4053,
      "admin": 4054,
      "katimugang": 4055,
      "##iam": 4056,
      "##agong": 4057,
      "##mo": 4058,
      "##log": 4059,
      "##esh": 4060,
      "bi": 4061,
      "##unsad": 4062,
      "beses": 4063,
      "##arya": 4064,
      "pangyayari": 4065,
      "kalayaan": 4066,
      "makab": 4067,
      "deb": 4068,
      "uk": 4069,
      "##uklas": 4070,
      "person": 4071,
      "vic": 4072,
      "##chn": 4073,
      "##low": 4074,
      "malaki": 4075,
      "system": 4076,
      "gobern": 4077,
      "##isenyo": 4078,
      "paksa": 4079,
      "ceb": 4080,
      "sem": 4081,
      "##aliwanag": 4082,
      "makat": 4083,
      "kaibigan": 4084,
      "pagsasan": 4085,
      "paglil": 4086,
      "1990": 4087,
      "administr": 4088,
      "fl": 4089,
      "kaka": 4090,
      "##unayan": 4091,
      "##ise": 4092,
      "esk": 4093,
      "mik": 4094,
      "sabihin": 4095,
      "base": 4096,
      "cam": 4097,
      "obispo": 4098,
      "histor": 4099,
      "ginagawa": 4100,
      "tungkulin": 4101,
      "num": 4102,
      "186": 4103,
      "bumalik": 4104,
      "kasangk": 4105,
      "namum": 4106,
      "##uhit": 4107,
      "aktor": 4108,
      "ulit": 4109,
      "##ilbing": 4110,
      "land": 4111,
      "##unong": 4112,
      "madaling": 4113,
      "##bon": 4114,
      "##rob": 4115,
      "literal": 4116,
      "enerhiya": 4117,
      "lalak": 4118,
      "##ahal": 4119,
      "##amba": 4120,
      "ev": 4121,
      "##arong": 4122,
      "##awala": 4123,
      "##ukas": 4124,
      "##angkin": 4125,
      "impormasyon": 4126,
      "urb": 4127,
      "##eon": 4128,
      "haba": 4129,
      "##anteng": 4130,
      "paniniwala": 4131,
      "espany": 4132,
      "sci": 4133,
      "sobyet": 4134,
      "francis": 4135,
      "##ambing": 4136,
      "espesyal": 4137,
      "krom": 4138,
      "##andaan": 4139,
      "pamamahala": 4140,
      "wikipe": 4141,
      "espanyol": 4142,
      "##loob": 4143,
      "pagpapat": 4144,
      "pamumuno": 4145,
      "filipino": 4146,
      "film": 4147,
      "leg": 4148,
      "##alipas": 4149,
      "larawan": 4150,
      "##urg": 4151,
      "iii": 4152,
      "gobernador": 4153,
      "year": 4154,
      "pinat": 4155,
      "pir": 4156,
      "tab": 4157,
      "tulong": 4158,
      "##adaan": 4159,
      "matagumpay": 4160,
      "canada": 4161,
      "##alok": 4162,
      "ital": 4163,
      "itaas": 4164,
      "##eph": 4165,
      "##ungat": 4166,
      "pic": 4167,
      "##aharap": 4168,
      "element": 4169,
      "nasabing": 4170,
      "cap": 4171,
      "tokyo": 4172,
      "mong": 4173,
      "##ome": 4174,
      "##ersa": 4175,
      "kaganap": 4176,
      "##rod": 4177,
      "##etiko": 4178,
      "simp": 4179,
      "wind": 4180,
      "##iwatig": 4181,
      "kakayahan": 4182,
      "##ner": 4183,
      "##inaw": 4184,
      "pedro": 4185,
      "association": 4186,
      "angel": 4187,
      "187": 4188,
      "philippines": 4189,
      "rek": 4190,
      "nagw": 4191,
      "##yum": 4192,
      "##inasyon": 4193,
      "##agad": 4194,
      "katawag": 4195,
      "##ico": 4196,
      "itinayo": 4197,
      "tangga": 4198,
      "top": 4199,
      "music": 4200,
      "nagsimulang": 4201,
      "sakop": 4202,
      "##une": 4203,
      "##reo": 4204,
      "unahang": 4205,
      "negosyo": 4206,
      "##ubh": 4207,
      "maagang": 4208,
      "dar": 4209,
      "##ahagi": 4210,
      "magd": 4211,
      "prim": 4212,
      "##ria": 4213,
      "natural": 4214,
      "liwanag": 4215,
      "bang": 4216,
      "ganap": 4217,
      "##uwag": 4218,
      "pagbibigay": 4219,
      "##ept": 4220,
      "nabuo": 4221,
      "turk": 4222,
      "gregor": 4223,
      "labing": 4224,
      "posib": 4225,
      "mek": 4226,
      "inaas": 4227,
      "siyent": 4228,
      "gant": 4229,
      "mid": 4230,
      "kabila": 4231,
      "kailan": 4232,
      "pumasok": 4233,
      "kababaihan": 4234,
      "##usugan": 4235,
      "karera": 4236,
      "##atakbo": 4237,
      "kalend": 4238,
      "natuklasan": 4239,
      "kolehiyong": 4240,
      "broad": 4241,
      "##ony": 4242,
      "##ultura": 4243,
      "kabat": 4244,
      "institusyon": 4245,
      "britanya": 4246,
      "katay": 4247,
      "##tain": 4248,
      "##panyang": 4249,
      "pamahalaang": 4250,
      "direktor": 4251,
      "paano": 4252,
      "ha": 4253,
      "##ikat": 4254,
      "tagapang": 4255,
      "mel": 4256,
      "##trol": 4257,
      "pamayanan": 4258,
      "naninirahan": 4259,
      "iisang": 4260,
      "nangung": 4261,
      "natagpuan": 4262,
      "mem": 4263,
      "##ansin": 4264,
      "popular": 4265,
      "##latera": 4266,
      "dah": 4267,
      "pormal": 4268,
      "walong": 4269,
      "##erto": 4270,
      "##uksan": 4271,
      "mata": 4272,
      "binuo": 4273,
      "constant": 4274,
      "puso": 4275,
      "##song": 4276,
      "malays": 4277,
      "makas": 4278,
      "brit": 4279,
      "##ampas": 4280,
      "out": 4281,
      "west": 4282,
      "off": 4283,
      "agr": 4284,
      "##akbo": 4285,
      "##igtas": 4286,
      "katoto": 4287,
      "tulay": 4288,
      "bersyon": 4289,
      "sim": 4290,
      "##umento": 4291,
      "unyong": 4292,
      "##ield": 4293,
      "that": 4294,
      "olimpiko": 4295,
      "kalaunang": 4296,
      "##si": 4297,
      "##yonal": 4298,
      "daanan": 4299,
      "reyna": 4300,
      "say": 4301,
      "amb": 4302,
      "kristiyanismo": 4303,
      "kontrol": 4304,
      "##ampalataya": 4305,
      "bik": 4306,
      "guro": 4307,
      "ret": 4308,
      "##ayat": 4309,
      "60": 4310,
      "mart": 4311,
      "awitin": 4312,
      "gumagawa": 4313,
      "1980": 4314,
      "##agamot": 4315,
      "kromos": 4316,
      "miss": 4317,
      "##awi": 4318,
      "nangyari": 4319,
      "##asalita": 4320,
      "zamb": 4321,
      "lumikha": 4322,
      "wal": 4323,
      "##ct": 4324,
      "tagumpay": 4325,
      "jam": 4326,
      "##inga": 4327,
      "nakita": 4328,
      "##ology": 4329,
      "iw": 4330,
      "show": 4331,
      "##alif": 4332,
      "sec": 4333,
      "malayang": 4334,
      "maka": 4335,
      "halalan": 4336,
      "nagmum": 4337,
      "##50": 4338,
      "##ulog": 4339,
      "play": 4340,
      "ginanap": 4341,
      "studi": 4342,
      "##osp": 4343,
      "siyam": 4344,
      "nagkakaisang": 4345,
      "##ingan": 4346,
      "fer": 4347,
      "##iki": 4348,
      "##unawa": 4349,
      "kalik": 4350,
      "termino": 4351,
      "karagdagang": 4352,
      "yugto": 4353,
      "##uwa": 4354,
      "ipinalabas": 4355,
      "resp": 4356,
      "american": 4357,
      "##ubuhay": 4358,
      "unlad": 4359,
      "##uhin": 4360,
      "kampus": 4361,
      "baybayin": 4362,
      "##ahim": 4363,
      "1970": 4364,
      "dati": 4365,
      "##ektang": 4366,
      "gar": 4367,
      "muk": 4368,
      "##utang": 4369,
      "one": 4370,
      "##aysayang": 4371,
      "temper": 4372,
      "pinakamahusay": 4373,
      "tor": 4374,
      "##isk": 4375,
      "eks": 4376,
      "pagkakas": 4377,
      "##aksiyon": 4378,
      "##ubok": 4379,
      "pinagb": 4380,
      "nagbab": 4381,
      "christ": 4382,
      "32": 4383,
      "lond": 4384,
      "##ungong": 4385,
      "maikling": 4386,
      "bahaging": 4387,
      "rusya": 4388,
      "lalaking": 4389,
      "##ts": 4390,
      "##akat": 4391,
      "inhin": 4392,
      "kapulungan": 4393,
      "sto": 4394,
      "gene": 4395,
      "##wn": 4396,
      "lumipat": 4397,
      "leb": 4398,
      "##iwasan": 4399,
      "itim": 4400,
      "you": 4401,
      "anyong": 4402,
      "rev": 4403,
      "akadem": 4404,
      "limit": 4405,
      "griyegong": 4406,
      "men": 4407,
      "##ango": 4408,
      "##ass": 4409,
      "paglikha": 4410,
      "##eksto": 4411,
      "list": 4412,
      "krus": 4413,
      "##red": 4414,
      "alex": 4415,
      "gumag": 4416,
      "mindanao": 4417,
      "fel": 4418,
      "##ibot": 4419,
      "gumanap": 4420,
      "klase": 4421,
      "##utas": 4422,
      "##acter": 4423,
      "paglalakbay": 4424,
      "los": 4425,
      "##ario": 4426,
      "mahusay": 4427,
      "ugat": 4428,
      "##ingkod": 4429,
      "pagkat": 4430,
      "europeo": 4431,
      "distritong": 4432,
      "aquino": 4433,
      "##car": 4434,
      "##uj": 4435,
      "##urang": 4436,
      "kaalaman": 4437,
      "gantimp": 4438,
      "vid": 4439,
      "problema": 4440,
      "east": 4441,
      "meh": 4442,
      "konseho": 4443,
      "taas": 4444,
      "programang": 4445,
      "single": 4446,
      "kumakatawan": 4447,
      "napag": 4448,
      "toto": 4449,
      "##ektura": 4450,
      "pamilyang": 4451,
      "kinikilala": 4452,
      "pribadong": 4453,
      "500": 4454,
      "##ition": 4455,
      "##iyan": 4456,
      "sampung": 4457,
      "william": 4458,
      "cat": 4459,
      "##usa": 4460,
      "bakter": 4461,
      "artikulo": 4462,
      "kapanahunan": 4463,
      "fern": 4464,
      "##osis": 4465,
      "basketball": 4466,
      "##ansiya": 4467,
      "umabot": 4468,
      "nagkak": 4469,
      "grupong": 4470,
      "species": 4471,
      "det": 4472,
      "isk": 4473,
      "##usal": 4474,
      "1998": 4475,
      "internet": 4476,
      "pen": 4477,
      "##ulungan": 4478,
      "mai": 4479,
      "reb": 4480,
      "##iyahan": 4481,
      "##orma": 4482,
      "##ander": 4483,
      "##taas": 4484,
      "##mon": 4485,
      "##hanan": 4486,
      "##ision": 4487,
      "pinalitan": 4488,
      "paghih": 4489,
      "1986": 4490,
      "kagawaran": 4491,
      "calif": 4492,
      "##atanghal": 4493,
      "putbol": 4494,
      "##ild": 4495,
      "naniniwala": 4496,
      "##he": 4497,
      "##pak": 4498,
      "##ney": 4499,
      "nail": 4500,
      "##ingin": 4501,
      "disenyo": 4502,
      "pumap": 4503,
      "cav": 4504,
      "##ilos": 4505,
      "##ilim": 4506,
      "##iter": 4507,
      "pagbub": 4508,
      "isla": 4509,
      "##uko": 4510,
      "company": 4511,
      "nakikilala": 4512,
      "kalikasan": 4513,
      "californ": 4514,
      "flor": 4515,
      "##unc": 4516,
      "##iwaan": 4517,
      "pagpapa": 4518,
      "kina": 4519,
      "produc": 4520,
      "buh": 4521,
      "panloob": 4522,
      "##fer": 4523,
      "sumali": 4524,
      "state": 4525,
      "pangkaraniwang": 4526,
      "hip": 4527,
      "lans": 4528,
      "##ilalang": 4529,
      "##etnam": 4530,
      "milya": 4531,
      "##ris": 4532,
      "metal": 4533,
      "kawalan": 4534,
      "pari": 4535,
      "nakikita": 4536,
      "ebid": 4537,
      "##udad": 4538,
      "drama": 4539,
      "california": 4540,
      "nakaraang": 4541,
      "2017": 4542,
      "karagdagan": 4543,
      "malaysia": 4544,
      "law": 4545,
      "mahabang": 4546,
      "pinaniniwalaang": 4547,
      "cebu": 4548,
      "cor": 4549,
      "pot": 4550,
      "sari": 4551,
      "##ahiwatig": 4552,
      "pictur": 4553,
      "mait": 4554,
      "ikin": 4555,
      "mababa": 4556,
      "paligid": 4557,
      "##iyano": 4558,
      "##ukuha": 4559,
      "panlabas": 4560,
      "##aklak": 4561,
      "ent": 4562,
      "##ink": 4563,
      "##ings": 4564,
      "panganib": 4565,
      "mahalaga": 4566,
      "leon": 4567,
      "pagganap": 4568,
      "mig": 4569,
      "muh": 4570,
      "red": 4571,
      "##mot": 4572,
      "##asiwaan": 4573,
      "inglatera": 4574,
      "punto": 4575,
      "pilosopiya": 4576,
      "fir": 4577,
      "kinuha": 4578,
      "ipinangalan": 4579,
      "sumasak": 4580,
      "jer": 4581,
      "##ood": 4582,
      "##abit": 4583,
      "##upa": 4584,
      "love": 4585,
      "##ople": 4586,
      "malawakang": 4587,
      "kabuuan": 4588,
      "band": 4589,
      "##ew": 4590,
      "##tang": 4591,
      "##ete": 4592,
      "##unti": 4593,
      "##ammad": 4594,
      "hitler": 4595,
      "normal": 4596,
      "suk": 4597,
      "larong": 4598,
      "kh": 4599,
      "##abasa": 4600,
      "namang": 4601,
      "saligang": 4602,
      "pinagt": 4603,
      "portug": 4604,
      "konsepto": 4605,
      "video": 4606,
      "dami": 4607,
      "fa": 4608,
      "pay": 4609,
      "##dom": 4610,
      "##ets": 4611,
      "binigyan": 4612,
      "papunta": 4613,
      "kasunduan": 4614,
      "best": 4615,
      "##oll": 4616,
      "paaralang": 4617,
      "kompyuter": 4618,
      "iv": 4619,
      "##lik": 4620,
      "##vi": 4621,
      "##amento": 4622,
      "##ster": 4623,
      "##tra": 4624,
      "prinsip": 4625,
      "astr": 4626,
      "app": 4627,
      "organisasyon": 4628,
      "bih": 4629,
      "ortod": 4630,
      "pansin": 4631,
      "heb": 4632,
      "##cc": 4633,
      "real": 4634,
      "proyekto": 4635,
      "ating": 4636,
      "techn": 4637,
      "espirit": 4638,
      "lansangan": 4639,
      "aktr": 4640,
      "humantong": 4641,
      "himpilan": 4642,
      "lalake": 4643,
      "cy": 4644,
      "hot": 4645,
      "##cast": 4646,
      "##akt": 4647,
      "pinas": 4648,
      "komed": 4649,
      "##ows": 4650,
      "lap": 4651,
      "mes": 4652,
      "##antay": 4653,
      "stre": 4654,
      "enter": 4655,
      "probins": 4656,
      "kongres": 4657,
      "naip": 4658,
      "##ini": 4659,
      "lou": 4660,
      "gumamit": 4661,
      "1997": 4662,
      "##iniwalang": 4663,
      "karapatan": 4664,
      "hong": 4665,
      "not": 4666,
      "salin": 4667,
      "minsang": 4668,
      "##utol": 4669,
      "carl": 4670,
      "tw": 4671,
      "##form": 4672,
      "estr": 4673,
      "politiko": 4674,
      "naunang": 4675,
      "aposto": 4676,
      "pinagk": 4677,
      "oper": 4678,
      "1960": 4679,
      "##line": 4680,
      "##unahan": 4681,
      "2018": 4682,
      "70": 4683,
      "bk": 4684,
      "sah": 4685,
      "nangyayari": 4686,
      "##alakal": 4687,
      "##daman": 4688,
      "magn": 4689,
      "patungong": 4690,
      "pagsusuri": 4691,
      "kakayahang": 4692,
      "ortodok": 4693,
      "back": 4694,
      "sos": 4695,
      "binuksan": 4696,
      "mahah": 4697,
      "kadalasan": 4698,
      "depart": 4699,
      "patakaran": 4700,
      "kalendaryong": 4701,
      "aari": 4702,
      "arkit": 4703,
      "##ugtog": 4704,
      "sug": 4705,
      "##ota": 4706,
      "ako": 4707,
      "##epend": 4708,
      "##resyon": 4709,
      "interes": 4710,
      "posit": 4711,
      "pagdating": 4712,
      "teritoryo": 4713,
      "pur": 4714,
      "##lano": 4715,
      "##act": 4716,
      "binibig": 4717,
      "##sala": 4718,
      "nakatanggap": 4719,
      "##tural": 4720,
      "##can": 4721,
      "##bah": 4722,
      "##areh": 4723,
      "##esya": 4724,
      "##ella": 4725,
      "masa": 4726,
      "trono": 4727,
      "1992": 4728,
      "sinasalita": 4729,
      "##ondo": 4730,
      "hukbo": 4731,
      "##ayap": 4732,
      "##usap": 4733,
      "kabataan": 4734,
      "pagkas": 4735,
      "natapos": 4736,
      "1999": 4737,
      "ruta": 4738,
      "##anggal": 4739,
      "kateg": 4740,
      "##ree": 4741,
      "kaban": 4742,
      "pakikipagt": 4743,
      "prep": 4744,
      "express": 4745,
      "##usalem": 4746,
      "apostol": 4747,
      "##agaw": 4748,
      "##oph": 4749,
      "bagyo": 4750,
      "1995": 4751,
      "pund": 4752,
      "##etong": 4753,
      "##emon": 4754,
      "time": 4755,
      "bituin": 4756,
      "bill": 4757,
      "kada": 4758,
      "##iyas": 4759,
      "pagtaas": 4760,
      "pinamagatang": 4761,
      "##uyan": 4762,
      "salaysay": 4763,
      "mahirap": 4764,
      "nagsisimula": 4765,
      "dalaw": 4766,
      "han": 4767,
      "##ras": 4768,
      "tu": 4769,
      "sumas": 4770,
      "matematika": 4771,
      "kaniya": 4772,
      "palarong": 4773,
      "radyo": 4774,
      "yunit": 4775,
      "pangino": 4776,
      "patay": 4777,
      "impluwensiya": 4778,
      "elektron": 4779,
      "boy": 4780,
      "sib": 4781,
      "kahal": 4782,
      "##ale": 4783,
      "##amant": 4784,
      "katagang": 4785,
      "##ict": 4786,
      "kapaligiran": 4787,
      "aktres": 4788,
      "35": 4789,
      "##anghal": 4790,
      "##ibidad": 4791,
      "nakipag": 4792,
      "espesye": 4793,
      "utak": 4794,
      "hur": 4795,
      "tula": 4796,
      "##aping": 4797,
      "##asaad": 4798,
      "instr": 4799,
      "paliparan": 4800,
      "lun": 4801,
      "##inis": 4802,
      "tagas": 4803,
      "relasyon": 4804,
      "dinastiyang": 4805,
      "group": 4806,
      "##rang": 4807,
      "##emang": 4808,
      "edisyon": 4809,
      "katotohanan": 4810,
      "sinimulan": 4811,
      "kalagayan": 4812,
      "##unog": 4813,
      "##eter": 4814,
      "1984": 4815,
      "kopya": 4816,
      "##eus": 4817,
      "santos": 4818,
      "nabubuhay": 4819,
      "dalubh": 4820,
      "pangangailangan": 4821,
      "igles": 4822,
      "pictures": 4823,
      "##oso": 4824,
      "##ific": 4825,
      "organismo": 4826,
      "rich": 4827,
      "nanan": 4828,
      "model": 4829,
      "1945": 4830,
      "80": 4831,
      "ih": 4832,
      "##tomas": 4833,
      "##che": 4834,
      "##aliang": 4835,
      "##eksyon": 4836,
      "##omp": 4837,
      "makap": 4838,
      "konst": 4839,
      "ideya": 4840,
      "hak": 4841,
      "##itn": 4842,
      "pagtit": 4843,
      "stat": 4844,
      "naglingkod": 4845,
      "david": 4846,
      "had": 4847,
      "sintomas": 4848,
      "max": 4849,
      "inilarawan": 4850,
      "area": 4851,
      "##iago": 4852,
      "##oth": 4853,
      "ginto": 4854,
      "bumuo": 4855,
      "gawin": 4856,
      "panitikan": 4857,
      "camp": 4858,
      "##ayaw": 4859,
      "isina": 4860,
      "##ille": 4861,
      "##ikano": 4862,
      "operasyon": 4863,
      "temperatura": 4864,
      "iran": 4865,
      "ulat": 4866,
      "tren": 4867,
      "demok": 4868,
      "james": 4869,
      "muhammad": 4870,
      "mi": 4871,
      "su": 4872,
      "##ayt": 4873,
      "kundi": 4874,
      "dantaon": 4875,
      "lansang": 4876,
      "rock": 4877,
      "ten": 4878,
      "##we": 4879,
      "##tom": 4880,
      "abo": 4881,
      "magl": 4882,
      "##into": 4883,
      "isda": 4884,
      "##ensiyal": 4885,
      "series": 4886,
      "saring": 4887,
      "pagsasanay": 4888,
      "sama": 4889,
      "##ider": 4890,
      "kompanyang": 4891,
      "##ower": 4892,
      "media": 4893,
      "kaganapan": 4894,
      "##agaling": 4895,
      "malamang": 4896,
      "kinakatawan": 4897,
      "kamaka": 4898,
      "pagpup": 4899,
      "33": 4900,
      "##tim": 4901,
      "pangung": 4902,
      "gab": 4903,
      "##dam": 4904,
      "##agsik": 4905,
      "##ilyo": 4906,
      "##lass": 4907,
      "hiv": 4908,
      "hiwalay": 4909,
      "ty": 4910,
      "nga": 4911,
      "##ulay": 4912,
      "##rot": 4913,
      "pina": 4914,
      "pisika": 4915,
      "siyudad": 4916,
      "kanser": 4917,
      "nobela": 4918,
      "awiting": 4919,
      "general": 4920,
      "nagawa": 4921,
      "##abilang": 4922,
      "australia": 4923,
      "nauugnay": 4924,
      "##ily": 4925,
      "maip": 4926,
      "kalihim": 4927,
      "ipag": 4928,
      "gaan": 4929,
      "lamb": 4930,
      "kahoy": 4931,
      "epis": 4932,
      "integ": 4933,
      "jul": 4934,
      "##uka": 4935,
      "ipinakilala": 4936,
      "##apangyar": 4937,
      "institute": 4938,
      "blo": 4939,
      "##ikayat": 4940,
      "pangkalahatan": 4941,
      "posibleng": 4942,
      "jud": 4943,
      "tungo": 4944,
      "##yerno": 4945,
      "##tok": 4946,
      "alang": 4947,
      "##anggi": 4948,
      "sinasabi": 4949,
      "molek": 4950,
      "alpab": 4951,
      "broadcast": 4952,
      "lansangang": 4953,
      "diy": 4954,
      "##ipl": 4955,
      "##irapan": 4956,
      "##upan": 4957,
      "teoriyang": 4958,
      "publiko": 4959,
      "corpor": 4960,
      "gir": 4961,
      "timb": 4962,
      "ngayong": 4963,
      "malay": 4964,
      "imin": 4965,
      "mut": 4966,
      "##agn": 4967,
      "##ubog": 4968,
      "bakterya": 4969,
      "host": 4970,
      "##tle": 4971,
      "##utong": 4972,
      "dim": 4973,
      "##onia": 4974,
      "laguna": 4975,
      "natitira": 4976,
      "kod": 4977,
      "estud": 4978,
      "halamang": 4979,
      "mis": 4980,
      "##ulasyon": 4981,
      "estasyong": 4982,
      "inilalarawan": 4983,
      "nakatuon": 4984,
      "windows": 4985,
      "tanggapan": 4986,
      "##apo": 4987,
      "indi": 4988,
      "end": 4989,
      "partidong": 4990,
      "isinilang": 4991,
      "mont": 4992,
      "awards": 4993,
      "mekan": 4994,
      "##rid": 4995,
      "##angka": 4996,
      "terminong": 4997,
      "damit": 4998,
      "hid": 4999,
      "sinundan": 5000,
      "buto": 5001,
      "##ucle": 5002,
      "russ": 5003,
      "gilid": 5004,
      "song": 5005,
      "##aguyod": 5006,
      "##omang": 5007,
      "sentral": 5008,
      "etn": 5009,
      "ebolusyon": 5010,
      "##atong": 5011,
      "##isag": 5012,
      "punsiyon": 5013,
      "blg": 5014,
      "tradisyonal": 5015,
      "mos": 5016,
      "##omen": 5017,
      "kasarian": 5018,
      "1989": 5019,
      "sasakyang": 5020,
      "den": 5021,
      "lawa": 5022,
      "##alaan": 5023,
      "##alakas": 5024,
      "uring": 5025,
      "norte": 5026,
      "kinas": 5027,
      "pig": 5028,
      "rod": 5029,
      "vol": 5030,
      "##zo": 5031,
      "##abaan": 5032,
      "##ikit": 5033,
      "tex": 5034,
      "##lab": 5035,
      "nalal": 5036,
      "##ontrol": 5037,
      "##uma": 5038,
      "##acio": 5039,
      "estadong": 5040,
      "produksiyon": 5041,
      "robert": 5042,
      "kesa": 5043,
      "ven": 5044,
      "kalusugan": 5045,
      "##abase": 5046,
      "##inding": 5047,
      "36": 5048,
      "##col": 5049,
      "##ales": 5050,
      "##erim": 5051,
      "tipo": 5052,
      "fe": 5053,
      "##adr": 5054,
      "magh": 5055,
      "##ersang": 5056,
      "siyentipiko": 5057,
      "##ja": 5058,
      "##iver": 5059,
      "impeksiyon": 5060,
      "nabanggit": 5061,
      "eksperim": 5062,
      "##ym": 5063,
      "nakaka": 5064,
      "ibon": 5065,
      "kasulat": 5066,
      "magka": 5067,
      "francisco": 5068,
      "##ulit": 5069,
      "##uluhan": 5070,
      "##ugon": 5071,
      "##alanan": 5072,
      "pagsasal": 5073,
      "katangiang": 5074,
      "kondisyon": 5075,
      "diper": 5076,
      "##arl": 5077,
      "##orte": 5078,
      "sign": 5079,
      "hukuman": 5080,
      "pulis": 5081,
      "field": 5082,
      "##bang": 5083,
      "atake": 5084,
      "##urn": 5085,
      "##antad": 5086,
      "1994": 5087,
      "1950": 5088,
      "homo": 5089,
      "teknolohiya": 5090,
      "kand": 5091,
      "##uck": 5092,
      "nor": 5093,
      "##ahulugan": 5094,
      "kanon": 5095,
      "ikaapat": 5096,
      "pinakamatandang": 5097,
      "##utok": 5098,
      "ninuno": 5099,
      "300": 5100,
      "skolar": 5101,
      "##jo": 5102,
      "nagaganap": 5103,
      "##els": 5104,
      "##uho": 5105,
      "##eda": 5106,
      "samahan": 5107,
      "kompos": 5108,
      "##ank": 5109,
      "##ame": 5110,
      "185": 5111,
      "susunod": 5112,
      "tila": 5113,
      "nakar": 5114,
      "##idae": 5115,
      "entertain": 5116,
      "##den": 5117,
      "##ze": 5118,
      "karan": 5119,
      "##uporta": 5120,
      "joseph": 5121,
      "pangs": 5122,
      "tumat": 5123,
      "simbolo": 5124,
      "bangko": 5125,
      "elec": 5126,
      "gold": 5127,
      "liga": 5128,
      "palat": 5129,
      "1991": 5130,
      "45": 5131,
      "mismo": 5132,
      "##ty": 5133,
      "##ikap": 5134,
      "##lex": 5135,
      "natut": 5136,
      "nakatira": 5137,
      "cast": 5138,
      "sumus": 5139,
      "##ein": 5140,
      "##amas": 5141,
      "38": 5142,
      "stor": 5143,
      "##alala": 5144,
      "lih": 5145,
      "##rip": 5146,
      "##anggo": 5147,
      "1987": 5148,
      "post": 5149,
      "lumilitaw": 5150,
      "mc": 5151,
      "corporation": 5152,
      "##ipikong": 5153,
      "##etikong": 5154,
      "panun": 5155,
      "katap": 5156,
      "bukas": 5157,
      "ham": 5158,
      "sat": 5159,
      "##ingnan": 5160,
      "##abog": 5161,
      "kalim": 5162,
      "sangg": 5163,
      "##ni": 5164,
      "nilal": 5165,
      "adv": 5166,
      "koreano": 5167,
      "katayuan": 5168,
      "inhinyer": 5169,
      "hap": 5170,
      "atl": 5171,
      "##ety": 5172,
      "taiwan": 5173,
      "##ards": 5174,
      "paligs": 5175,
      "mismong": 5176,
      "##aon": 5177,
      "##arami": 5178,
      "##obo": 5179,
      "tatak": 5180,
      "##tog": 5181,
      "presyo": 5182,
      "komunidad": 5183,
      "kinakailangan": 5184,
      "agad": 5185,
      "vill": 5186,
      "##iram": 5187,
      "##yanong": 5188,
      "independ": 5189,
      "suporta": 5190,
      "##ologo": 5191,
      "eh": 5192,
      "god": 5193,
      "##wiran": 5194,
      "##agon": 5195,
      "##uling": 5196,
      "academ": 5197,
      "magandang": 5198,
      "bahag": 5199,
      "krim": 5200,
      "magkaka": 5201,
      "first": 5202,
      "nucle": 5203,
      "panig": 5204,
      "aks": 5205,
      "barko": 5206,
      "umaabot": 5207,
      "rem": 5208,
      "##sing": 5209,
      "##yte": 5210,
      "kailangang": 5211,
      "road": 5212,
      "george": 5213,
      "black": 5214,
      "##ior": 5215,
      "##pas": 5216,
      "##alapit": 5217,
      "nilalang": 5218,
      "fernando": 5219,
      "let": 5220,
      "##ani": 5221,
      "##ative": 5222,
      "##arra": 5223,
      "anton": 5224,
      "santiago": 5225,
      "##riya": 5226,
      "##urch": 5227,
      "matagal": 5228,
      "mangang": 5229,
      "district": 5230,
      "ginawang": 5231,
      "nagsasalita": 5232,
      "apoy": 5233,
      "pagdiriwang": 5234,
      "central": 5235,
      "nangungunang": 5236,
      "##aph": 5237,
      "##ely": 5238,
      "matat": 5239,
      "kapanganak": 5240,
      "paa": 5241,
      "ipinahayag": 5242,
      "##ego": 5243,
      "umu": 5244,
      "artistang": 5245,
      "1978": 5246,
      "padre": 5247,
      "37": 5248,
      "kem": 5249,
      "##imo": 5250,
      "chann": 5251,
      "pagtatayo": 5252,
      "##ations": 5253,
      "entertainment": 5254,
      "##ortahan": 5255,
      "anti": 5256,
      "##ife": 5257,
      "##arka": 5258,
      "game": 5259,
      "##luwens": 5260,
      "34": 5261,
      "cong": 5262,
      "from": 5263,
      "##anc": 5264,
      "pantel": 5265,
      "nagdulot": 5266,
      "dol": 5267,
      "##aly": 5268,
      "##asama": 5269,
      "1993": 5270,
      "##intulot": 5271,
      "nangangailangan": 5272,
      "likod": 5273,
      "fac": 5274,
      "##aktura": 5275,
      "inf": 5276,
      "pagkamatay": 5277,
      "##gen": 5278,
      "##du": 5279,
      "##ingi": 5280,
      "agu": 5281,
      "##ambal": 5282,
      "##ther": 5283,
      "kolon": 5284,
      "##landes": 5285,
      "science": 5286,
      "zambo": 5287,
      "tamang": 5288,
      "tuloy": 5289,
      "now": 5290,
      "tatlo": 5291,
      "budd": 5292,
      "bok": 5293,
      "iyong": 5294,
      "kn": 5295,
      "put": 5296,
      "suw": 5297,
      "malinaw": 5298,
      "##trabaho": 5299,
      "umalis": 5300,
      "conc": 5301,
      "count": 5302,
      "##velop": 5303,
      "numero": 5304,
      "soc": 5305,
      "##men": 5306,
      "##ber": 5307,
      "##uksiyon": 5308,
      "##ubo": 5309,
      "##ariang": 5310,
      "##lav": 5311,
      "1996": 5312,
      "palak": 5313,
      "mabil": 5314,
      "##ilingkod": 5315,
      "lind": 5316,
      "klim": 5317,
      "alagad": 5318,
      "pasipiko": 5319,
      "kapuluan": 5320,
      "tig": 5321,
      "palaro": 5322,
      "kapanganakan": 5323,
      "karagatang": 5324,
      "kalahati": 5325,
      "dag": 5326,
      "tre": 5327,
      "##mar": 5328,
      "##uso": 5329,
      "naglalarawan": 5330,
      "kongreso": 5331,
      "bub": 5332,
      "kita": 5333,
      "porm": 5334,
      "nasasak": 5335,
      "nuk": 5336,
      "gobyerno": 5337,
      "wikipedia": 5338,
      "mehiko": 5339,
      "sud": 5340,
      "mais": 5341,
      "ori": 5342,
      "daantaon": 5343,
      "##agatan": 5344,
      "bersiyon": 5345,
      "pors": 5346,
      "paraang": 5347,
      "prem": 5348,
      "tagagamit": 5349,
      "sanggun": 5350,
      "cir": 5351,
      "jack": 5352,
      "##erc": 5353,
      "##ids": 5354,
      "union": 5355,
      "kalapit": 5356,
      "parte": 5357,
      "hard": 5358,
      "##ungg": 5359,
      "pinili": 5360,
      "##uke": 5361,
      "direktang": 5362,
      "kuryente": 5363,
      "intsik": 5364,
      "katutubo": 5365,
      "##ency": 5366,
      "sangkap": 5367,
      "##ayapaan": 5368,
      "iisip": 5369,
      "pok": 5370,
      "##apa": 5371,
      "##ungang": 5372,
      "pinah": 5373,
      "kasan": 5374,
      "ikal": 5375,
      "binab": 5376,
      "184": 5377,
      "plano": 5378,
      "dumadaan": 5379,
      "pera": 5380,
      "##ef": 5381,
      "##20": 5382,
      "##aks": 5383,
      "island": 5384,
      "thail": 5385,
      "internasyonal": 5386,
      "simpleng": 5387,
      "thailand": 5388,
      "mr": 5389,
      "##uyo": 5390,
      "mateo": 5391,
      "makita": 5392,
      "tumukoy": 5393,
      "##itnaan": 5394,
      "teksto": 5395,
      "anat": 5396,
      "##leto": 5397,
      "church": 5398,
      "kristo": 5399,
      "paglalarawan": 5400,
      "##araming": 5401,
      "lut": 5402,
      "unti": 5403,
      "arg": 5404,
      "kahabaan": 5405,
      "disipl": 5406,
      "suliran": 5407,
      "dinastiya": 5408,
      "parangal": 5409,
      "liham": 5410,
      "kasamang": 5411,
      "kinilala": 5412,
      "mov": 5413,
      "charles": 5414,
      "hebreo": 5415,
      "bid": 5416,
      "##ilaw": 5417,
      "mabuting": 5418,
      "kumb": 5419,
      "babil": 5420,
      "personal": 5421,
      "90": 5422,
      "bunga": 5423,
      "naa": 5424,
      "pinsala": 5425,
      "makapangyar": 5426,
      "kaut": 5427,
      "manggagawa": 5428,
      "class": 5429,
      "van": 5430,
      "##ania": 5431,
      "##uki": 5432,
      "##last": 5433,
      "tour": 5434,
      "paghahari": 5435,
      "isinasagawa": 5436,
      "tro": 5437,
      "##ls": 5438,
      "##ole": 5439,
      "grad": 5440,
      "pananakop": 5441,
      "singap": 5442,
      "inihayag": 5443,
      "mitolohiyang": 5444,
      "dulot": 5445,
      "puting": 5446,
      "##ux": 5447,
      "##ny": 5448,
      "sinulat": 5449,
      "nagpatuloy": 5450,
      "kalakalan": 5451,
      "relihiyos": 5452,
      "bitco": 5453,
      "herusalem": 5454,
      "pagmamay": 5455,
      "agrik": 5456,
      "cavite": 5457,
      "mabilisang": 5458,
      "bos": 5459,
      "##amitan": 5460,
      "##ture": 5461,
      "sundalo": 5462,
      "son": 5463,
      "##ance": 5464,
      "isyu": 5465,
      "karne": 5466,
      "##aliit": 5467,
      "lee": 5468,
      "pananampalataya": 5469,
      "cruz": 5470,
      "miguel": 5471,
      "##alapi": 5472,
      "martin": 5473,
      "rebolusyon": 5474,
      "kapitan": 5475,
      "pamilihan": 5476,
      "nagwagi": 5477,
      "louis": 5478,
      "channel": 5479,
      "zamboanga": 5480,
      "##lac": 5481,
      "##angkop": 5482,
      "pantay": 5483,
      "ugnayang": 5484,
      "##awal": 5485,
      "nakikipag": 5486,
      "pinangalanan": 5487,
      "angeles": 5488,
      "jav": 5489,
      "##eksuwal": 5490,
      "respons": 5491,
      "ebidensiya": 5492,
      "kategorya": 5493,
      "fin": 5494,
      "uugnay": 5495,
      "##ipp": 5496,
      "bakal": 5497,
      "datos": 5498,
      "##gas": 5499,
      "##ery": 5500,
      "bababa": 5501,
      "basketbol": 5502,
      "panginoon": 5503,
      "balang": 5504,
      "hinango": 5505,
      "makipag": 5506,
      "order": 5507,
      "##ardo": 5508,
      "bulaklak": 5509,
      "harap": 5510,
      "mot": 5511,
      "##ilit": 5512,
      "##arth": 5513,
      "##amahan": 5514,
      "##irma": 5515,
      "palitan": 5516,
      "direksiyon": 5517,
      "##yayaring": 5518,
      "##eryo": 5519,
      "develop": 5520,
      "grand": 5521,
      "##ueva": 5522,
      "kalagitnaan": 5523,
      "kingdom": 5524,
      "mukha": 5525,
      "diwa": 5526,
      "leh": 5527,
      "##akh": 5528,
      "##ulok": 5529,
      "##eso": 5530,
      "pagkal": 5531,
      "##tao": 5532,
      "##ival": 5533,
      "paggamot": 5534,
      "london": 5535,
      "jan": 5536,
      "##rabaho": 5537,
      "##cl": 5538,
      "##win": 5539,
      "nakah": 5540,
      "##ekl": 5541,
      "matinding": 5542,
      "diin": 5543,
      "found": 5544,
      "gol": 5545,
      "##damin": 5546,
      "##inst": 5547,
      "mark": 5548,
      "pangkas": 5549,
      "##ograpiya": 5550,
      "##ning": 5551,
      "##yin": 5552,
      "##isita": 5553,
      "##ungkulan": 5554,
      "team": 5555,
      "batangas": 5556,
      "lebel": 5557,
      "##ji": 5558,
      "##amig": 5559,
      "aug": 5560,
      "down": 5561,
      "laman": 5562,
      "##isina": 5563,
      "baga": 5564,
      "sumulat": 5565,
      "sentrong": 5566,
      "green": 5567,
      "mamb": 5568,
      "pala": 5569,
      "##cia": 5570,
      "##berg": 5571,
      "##agu": 5572,
      "##ahero": 5573,
      "kontin": 5574,
      "1975": 5575,
      "panghim": 5576,
      "az": 5577,
      "##agawang": 5578,
      "##ull": 5579,
      "##etro": 5580,
      "ibarra": 5581,
      "tinag": 5582,
      "magkat": 5583,
      "bun": 5584,
      "sanggol": 5585,
      "##fa": 5586,
      "##iyento": 5587,
      "nakabase": 5588,
      "kilusang": 5589,
      "1972": 5590,
      "##peto": 5591,
      "183": 5592,
      "kagand": 5593,
      "templo": 5594,
      "victor": 5595,
      "misyon": 5596,
      "ray": 5597,
      "tam": 5598,
      "##mer": 5599,
      "##alth": 5600,
      "##tol": 5601,
      "##ipikasyon": 5602,
      "##uwid": 5603,
      "tinanggap": 5604,
      "org": 5605,
      "republikang": 5606,
      "magbigay": 5607,
      "##ren": 5608,
      "##akain": 5609,
      "samar": 5610,
      "tagapagp": 5611,
      "langit": 5612,
      "naturang": 5613,
      "tagapagtatag": 5614,
      "bula": 5615,
      "tay": 5616,
      "##kop": 5617,
      "##iwala": 5618,
      "braz": 5619,
      "cop": 5620,
      "lawak": 5621,
      "##angalang": 5622,
      "panin": 5623,
      "pinakama": 5624,
      "lumaki": 5625,
      "human": 5626,
      "##aranas": 5627,
      "##akasal": 5628,
      "puwesto": 5629,
      "petsa": 5630,
      "pula": 5631,
      "##pit": 5632,
      "##gam": 5633,
      "katam": 5634,
      "libong": 5635,
      "tut": 5636,
      "##ien": 5637,
      "##dib": 5638,
      "##omba": 5639,
      "kataas": 5640,
      "##anggaling": 5641,
      "proto": 5642,
      "pinakas": 5643,
      "##udulot": 5644,
      "##hael": 5645,
      "look": 5646,
      "##ende": 5647,
      "lokasyon": 5648,
      "makasaysayang": 5649,
      "las": 5650,
      "long": 5651,
      "lak": 5652,
      "##ibilang": 5653,
      "pagbagsak": 5654,
      "edsa": 5655,
      "humah": 5656,
      "bac": 5657,
      "mala": 5658,
      "##ory": 5659,
      "under": 5660,
      "##alawakan": 5661,
      "##isipan": 5662,
      "karapatang": 5663,
      "fed": 5664,
      "##atlo": 5665,
      "##ington": 5666,
      "##awalang": 5667,
      "##ayagan": 5668,
      "komunista": 5669,
      "##ibilidad": 5670,
      "pagtuturo": 5671,
      "kromosomang": 5672,
      "hep": 5673,
      "vo": 5674,
      "##ke": 5675,
      "isinal": 5676,
      "arch": 5677,
      "maharl": 5678,
      "nanatili": 5679,
      "estudyante": 5680,
      "singapore": 5681,
      "wakas": 5682,
      "balita": 5683,
      "senador": 5684,
      "nakabatay": 5685,
      "pantelebisyon": 5686,
      "##ford": 5687,
      "##osh": 5688,
      "1988": 5689,
      "##untang": 5690,
      "afr": 5691,
      "listahan": 5692,
      "baka": 5693,
      "##kong": 5694,
      "##ware": 5695,
      "##agin": 5696,
      "##iles": 5697,
      "insp": 5698,
      "ginagam": 5699,
      "natin": 5700,
      "dinala": 5701,
      "bakit": 5702,
      "produktong": 5703,
      "senado": 5704,
      "legal": 5705,
      "italyano": 5706,
      "karanasan": 5707,
      "ung": 5708,
      "##likasyon": 5709,
      "##indi": 5710,
      "##igat": 5711,
      "panuk": 5712,
      "anong": 5713,
      "itlog": 5714,
      "pagtatapos": 5715,
      "##ektibong": 5716,
      "sr": 5717,
      "saint": 5718,
      "##ikot": 5719,
      "##ury": 5720,
      "pagkilala": 5721,
      "richard": 5722,
      "magpap": 5723,
      "heomet": 5724,
      "ruso": 5725,
      "sayaw": 5726,
      "boto": 5727,
      "estilo": 5728,
      "salapi": 5729,
      "nagsilbi": 5730,
      "mahal": 5731,
      "paglul": 5732,
      "isinagawa": 5733,
      "pamantayang": 5734,
      "bonif": 5735,
      "39": 5736,
      "foss": 5737,
      "mist": 5738,
      "##yus": 5739,
      "##amis": 5740,
      "masas": 5741,
      "kaug": 5742,
      "##ection": 5743,
      "##aligt": 5744,
      "mahahalagang": 5745,
      "rh": 5746,
      "##put": 5747,
      "##burg": 5748,
      "##ipis": 5749,
      "aking": 5750,
      "nilalaman": 5751,
      "langis": 5752,
      "sasakyan": 5753,
      "pit": 5754,
      "marahil": 5755,
      "nagpas": 5756,
      "polit": 5757,
      "panitikang": 5758,
      "brazil": 5759,
      "nayon": 5760,
      "##isp": 5761,
      "##uktura": 5762,
      "##atagan": 5763,
      "binago": 5764,
      "papuntang": 5765,
      "##intulad": 5766,
      "##ave": 5767,
      "act": 5768,
      "samantala": 5769,
      "sirk": 5770,
      "astronom": 5771,
      "line": 5772,
      "##rel": 5773,
      "##zi": 5774,
      "namuno": 5775,
      "1946": 5776,
      "domin": 5777,
      "hor": 5778,
      "##iksiyon": 5779,
      "pinal": 5780,
      "##entr": 5781,
      "kalaban": 5782,
      "komisyon": 5783,
      "pansamant": 5784,
      "##krip": 5785,
      "planeta": 5786,
      "ger": 5787,
      "##eria": 5788,
      "##umentong": 5789,
      "##ukunan": 5790,
      "ulan": 5791,
      "dagdag": 5792,
      "galaw": 5793,
      "lahi": 5794,
      "##ags": 5795,
      "manl": 5796,
      "karamdaman": 5797,
      "michael": 5798,
      "natitirang": 5799,
      "mainit": 5800,
      "00": 5801,
      "ot": 5802,
      "##ulak": 5803,
      "pangyayaring": 5804,
      "##iana": 5805,
      "asia": 5806,
      "pinakamab": 5807,
      "nahalal": 5808,
      "pamumuhay": 5809,
      "prosesong": 5810,
      "damdamin": 5811,
      "hon": 5812,
      "##itusyon": 5813,
      "##emp": 5814,
      "syn": 5815,
      "kursong": 5816,
      "nawala": 5817,
      "hawak": 5818,
      "pulang": 5819,
      "rit": 5820,
      "inilipat": 5821,
      "##anais": 5822,
      "##resent": 5823,
      "payak": 5824,
      "##patuloy": 5825,
      "karagatan": 5826,
      "news": 5827,
      "transport": 5828,
      "alkal": 5829,
      "lindol": 5830,
      "bern": 5831,
      "div": 5832,
      "##hat": 5833,
      "##lus": 5834,
      "##laban": 5835,
      "inu": 5836,
      "mail": 5837,
      "gregorian": 5838,
      "county": 5839,
      "bonifacio": 5840,
      "cre": 5841,
      "der": 5842,
      "##ilalim": 5843,
      "##ising": 5844,
      "##ume": 5845,
      "pinakak": 5846,
      "komiks": 5847,
      "bigkas": 5848,
      "jac": 5849,
      "ke": 5850,
      "##uning": 5851,
      "pares": 5852,
      "kasing": 5853,
      "ikalim": 5854,
      "##alagahan": 5855,
      "##impalak": 5856,
      "acc": 5857,
      "maliwanag": 5858,
      "sino": 5859,
      "1985": 5860,
      "tagapangasiwa": 5861,
      "kabanata": 5862,
      "korte": 5863,
      "##uluwa": 5864,
      "##tot": 5865,
      "makati": 5866,
      "pac": 5867,
      "ginam": 5868,
      "gresya": 5869,
      "##toridad": 5870,
      "artist": 5871,
      "politika": 5872,
      "studio": 5873,
      "bre": 5874,
      "od": 5875,
      "##ange": 5876,
      "##ater": 5877,
      "isp": 5878,
      "##abl": 5879,
      "arian": 5880,
      "pagsubok": 5881,
      "1981": 5882,
      "tagapags": 5883,
      "glob": 5884,
      "##atiko": 5885,
      "##ilikha": 5886,
      "##entino": 5887,
      "pagtatag": 5888,
      "##ambakal": 5889,
      "represent": 5890,
      "academy": 5891,
      "42": 5892,
      "laki": 5893,
      "##elt": 5894,
      "ref": 5895,
      "sho": 5896,
      "partikulo": 5897,
      "##ailalim": 5898,
      "katawagan": 5899,
      "electr": 5900,
      "fossil": 5901,
      "dist": 5902,
      "wil": 5903,
      "aten": 5904,
      "##urt": 5905,
      "##istika": 5906,
      "katipunan": 5907,
      "alin": 5908,
      "kamag": 5909,
      "bitcoin": 5910,
      "far": 5911,
      "loh": 5912,
      "tib": 5913,
      "nagrer": 5914,
      "patimpalak": 5915,
      "kulturang": 5916,
      "pinamunuan": 5917,
      "huda": 5918,
      "angkop": 5919,
      "rekord": 5920,
      "nagmumula": 5921,
      "##awig": 5922,
      "##ution": 5923,
      "espasyo": 5924,
      "##iew": 5925,
      "ipinagb": 5926,
      "##ahad": 5927,
      "daambakal": 5928,
      "hango": 5929,
      "micros": 5930,
      "carlos": 5931,
      "bisa": 5932,
      "roy": 5933,
      "##alawig": 5934,
      "##agdagan": 5935,
      "engine": 5936,
      "sagisag": 5937,
      "lubos": 5938,
      "production": 5939,
      "##ague": 5940,
      "##unay": 5941,
      "nakamit": 5942,
      "serv": 5943,
      "kris": 5944,
      "##unawaan": 5945,
      "log": 5946,
      "##itz": 5947,
      "isab": 5948,
      "soft": 5949,
      "kos": 5950,
      "lad": 5951,
      "sta": 5952,
      "##iri": 5953,
      "pasig": 5954,
      "naglabas": 5955,
      "##uriang": 5956,
      "kagandahan": 5957,
      "sept": 5958,
      "##ural": 5959,
      "pambansa": 5960,
      "pagpatay": 5961,
      "1969": 5962,
      "tangway": 5963,
      "davao": 5964,
      "400": 5965,
      "##ilin": 5966,
      "matandang": 5967,
      "nagsasaad": 5968,
      "kagamitan": 5969,
      "nagsisilbing": 5970,
      "lucas": 5971,
      "dahon": 5972,
      "##chi": 5973,
      "kahulugang": 5974,
      "labi": 5975,
      "pananalapi": 5976,
      "gusto": 5977,
      "regular": 5978,
      "british": 5979,
      "dalubhasa": 5980,
      "soci": 5981,
      "##yp": 5982,
      "sabay": 5983,
      "##igi": 5984,
      "##upo": 5985,
      "tumaas": 5986,
      "##alikha": 5987,
      "##grad": 5988,
      "kuwentong": 5989,
      "webs": 5990,
      "hakbang": 5991,
      "je": 5992,
      "tirahan": 5993,
      "##kan": 5994,
      "##anaw": 5995,
      "##agas": 5996,
      "nakad": 5997,
      "kata": 5998,
      "ash": 5999,
      "##turo": 6000,
      "presyon": 6001,
      "pagsusulat": 6002,
      "dalawamp": 6003,
      "48": 6004,
      "cla": 6005,
      "##ject": 6006,
      "malaman": 6007,
      "kapayapaan": 6008,
      "kaunting": 6009,
      "pagtatanghal": 6010,
      "klasikong": 6011,
      "sultan": 6012,
      "expressway": 6013,
      "mens": 6014,
      "##any": 6015,
      "##erong": 6016,
      "##igpit": 6017,
      "hinih": 6018,
      "hinaharap": 6019,
      "dinisenyo": 6020,
      "1973": 6021,
      "tema": 6022,
      "propesor": 6023,
      "pinangalanang": 6024,
      "broadcasting": 6025,
      "##adrado": 6026,
      "boh": 6027,
      "dy": 6028,
      "##alas": 6029,
      "##aha": 6030,
      "pangl": 6031,
      "##etr": 6032,
      "##odes": 6033,
      "kapalit": 6034,
      "kalin": 6035,
      "##ahating": 6036,
      "##ehan": 6037,
      "interp": 6038,
      "1940": 6039,
      "kasulatan": 6040,
      "agrikultura": 6041,
      "##ae": 6042,
      "##akaw": 6043,
      "##isyunal": 6044,
      "iskolar": 6045,
      "##awas": 6046,
      "##reh": 6047,
      "ikaw": 6048,
      "pasahero": 6049,
      "inilagay": 6050,
      "mult": 6051,
      "kakulang": 6052,
      "daloy": 6053,
      "katapusan": 6054,
      "sis": 6055,
      "##atal": 6056,
      "##ahalaga": 6057,
      "kahirapan": 6058,
      "1983": 6059,
      "medisina": 6060,
      "komunikasyon": 6061,
      "doktr": 6062,
      "kandid": 6063,
      "41": 6064,
      "##uong": 6065,
      "##ime": 6066,
      "manuel": 6067,
      "##alagyan": 6068,
      "nagpapahiwatig": 6069,
      "alamat": 6070,
      "##erang": 6071,
      "##usulat": 6072,
      "##uturo": 6073,
      "nakakuha": 6074,
      "kapangyarihang": 6075,
      "urbano": 6076,
      "piraso": 6077,
      "portuges": 6078,
      "alpabetong": 6079,
      "hus": 6080,
      "##arter": 6081,
      "alis": 6082,
      "##ize": 6083,
      "##board": 6084,
      "pamayanang": 6085,
      "##amahalaan": 6086,
      "vietnam": 6087,
      "##uruan": 6088,
      "apar": 6089,
      "barb": 6090,
      "oks": 6091,
      "kemikal": 6092,
      "sip": 6093,
      "tamb": 6094,
      "##aster": 6095,
      "##akay": 6096,
      "##urong": 6097,
      "aly": 6098,
      "bayani": 6099,
      "gayong": 6100,
      "1948": 6101,
      "nananatiling": 6102,
      "43": 6103,
      "cab": 6104,
      "just": 6105,
      "rate": 6106,
      "tampok": 6107,
      "sex": 6108,
      "pareho": 6109,
      "pagtatalik": 6110,
      "pinaniniwalaan": 6111,
      "espiritu": 6112,
      "oriental": 6113,
      "night": 6114,
      "##ities": 6115,
      "##usahan": 6116,
      "pangt": 6117,
      "panging": 6118,
      "parir": 6119,
      "prepektura": 6120,
      "tuk": 6121,
      "##ahangg": 6122,
      "##apekto": 6123,
      "natalo": 6124,
      "pagsulat": 6125,
      "##raft": 6126,
      "puntos": 6127,
      "##utos": 6128,
      "1930": 6129,
      "antonio": 6130,
      "les": 6131,
      "##bal": 6132,
      "##urs": 6133,
      "ann": 6134,
      "kasabay": 6135,
      "##ilio": 6136,
      "kastilang": 6137,
      "tekst": 6138,
      "nangangahulugan": 6139,
      "tugon": 6140,
      "sumasaklaw": 6141,
      "sans": 6142,
      "##serb": 6143,
      "##inabang": 6144,
      "##ede": 6145,
      "komb": 6146,
      "##uther": 6147,
      "final": 6148,
      "hes": 6149,
      "##awasan": 6150,
      "pagkawala": 6151,
      "halagang": 6152,
      "asawang": 6153,
      "pagtanggap": 6154,
      "pagbabalik": 6155,
      "iminungkahi": 6156,
      "panghimpapawid": 6157,
      "##asangk": 6158,
      "hinirang": 6159,
      "arro": 6160,
      "kapital": 6161,
      "diyosesis": 6162,
      "arke": 6163,
      "technology": 6164,
      "lis": 6165,
      "lor": 6166,
      "lalong": 6167,
      "mom": 6168,
      "vis": 6169,
      "##ayad": 6170,
      "##olf": 6171,
      "ibaba": 6172,
      "kaluluwa": 6173,
      "palaging": 6174,
      "tumanggap": 6175,
      "##ector": 6176,
      "motor": 6177,
      "solusyon": 6178,
      "butas": 6179,
      "ferdin": 6180,
      "glor": 6181,
      "jesus": 6182,
      "##oft": 6183,
      "nagng": 6184,
      "##igma": 6185,
      "malaya": 6186,
      "america": 6187,
      "1976": 6188,
      "lupon": 6189,
      "pamantayan": 6190,
      "terminal": 6191,
      "camb": 6192,
      "tingnan": 6193,
      "##ident": 6194,
      "champ": 6195,
      "gawing": 6196,
      "pagpapaunlad": 6197,
      "sosyal": 6198,
      "demokrat": 6199,
      "kakulangan": 6200,
      "bot": 6201,
      "##oob": 6202,
      "##wil": 6203,
      "kapit": 6204,
      "tradisyunal": 6205,
      "memor": 6206,
      "aalok": 6207,
      "talagang": 6208,
      "##yle": 6209,
      "sas": 6210,
      "kalidad": 6211,
      "pagpapak": 6212,
      "medic": 6213,
      "inaasahang": 6214,
      "test": 6215,
      "wash": 6216,
      "##etang": 6217,
      "tind": 6218,
      "1979": 6219,
      "henry": 6220,
      "nobelang": 6221,
      "departamento": 6222,
      "ferdinand": 6223,
      "work": 6224,
      "nav": 6225,
      "##abatang": 6226,
      "##ensya": 6227,
      "kilos": 6228,
      "people": 6229,
      "nueva": 6230,
      "##ook": 6231,
      "##dan": 6232,
      "##irasyon": 6233,
      "taunang": 6234,
      "she": 6235,
      "virg": 6236,
      "katawagang": 6237,
      "nukle": 6238,
      "##ariling": 6239,
      "##igt": 6240,
      "##ope": 6241,
      "pamamaraang": 6242,
      "namam": 6243,
      "inilunsad": 6244,
      "##inaldo": 6245,
      "dipl": 6246,
      "kasangkapan": 6247,
      "##eklara": 6248,
      "microsoft": 6249,
      "aar": 6250,
      "tans": 6251,
      "##ram": 6252,
      "##wood": 6253,
      "##atupad": 6254,
      "inilathala": 6255,
      "paghahanap": 6256,
      "mamatay": 6257,
      "puwersa": 6258,
      "nakasulat": 6259,
      "##robers": 6260,
      "iglesia": 6261,
      "46": 6262,
      "yari": 6263,
      "##gaw": 6264,
      "pagn": 6265,
      "##ukin": 6266,
      "mary": 6267,
      "china": 6268,
      "tumagal": 6269,
      "1982": 6270,
      "persian": 6271,
      "atomo": 6272,
      "katamt": 6273,
      "alkalde": 6274,
      "gon": 6275,
      "##ward": 6276,
      "##ates": 6277,
      "##aho": 6278,
      "kasalanan": 6279,
      "malalim": 6280,
      "##antum": 6281,
      "mahih": 6282,
      "bibig": 6283,
      "gantimpalang": 6284,
      "pansamantalang": 6285,
      "tis": 6286,
      "##vin": 6287,
      "##iso": 6288,
      "##apal": 6289,
      "##ents": 6290,
      "amp": 6291,
      "dec": 6292,
      "selulang": 6293,
      "cel": 6294,
      "oh": 6295,
      "utos": 6296,
      "##ars": 6297,
      "##esta": 6298,
      "magagamit": 6299,
      "gumaganap": 6300,
      "alexand": 6301,
      "paligsahan": 6302,
      "##usob": 6303,
      "ala": 6304,
      "##iwas": 6305,
      "opt": 6306,
      "##impluwens": 6307,
      "code": 6308,
      "##ville": 6309,
      "##ilong": 6310,
      "pinatay": 6311,
      "magasin": 6312,
      "kapareh": 6313,
      "palasyo": 6314,
      "pagbuo": 6315,
      "pagkakab": 6316,
      "mapa": 6317,
      "radio": 6318,
      "records": 6319,
      "hudaismo": 6320,
      "47": 6321,
      "cro": 6322,
      "du": 6323,
      "##urian": 6324,
      "##ott": 6325,
      "musikang": 6326,
      "organis": 6327,
      "63": 6328,
      "hib": 6329,
      "ver": 6330,
      "##ikli": 6331,
      "##imog": 6332,
      "inan": 6333,
      "katunayan": 6334,
      "alak": 6335,
      "mabuti": 6336,
      "museo": 6337,
      "saklaw": 6338,
      "silid": 6339,
      "doktor": 6340,
      "##iyasat": 6341,
      "modelong": 6342,
      "##umi": 6343,
      "##ush": 6344,
      "##erson": 6345,
      "telev": 6346,
      "games": 6347,
      "timbang": 6348,
      "ginampanan": 6349,
      "44": 6350,
      "kot": 6351,
      "##uela": 6352,
      "##ilik": 6353,
      "##ering": 6354,
      "##apay": 6355,
      "##abol": 6356,
      "taasang": 6357,
      "181": 6358,
      "ekst": 6359,
      "aguinaldo": 6360,
      "live": 6361,
      "win": 6362,
      "yaman": 6363,
      "##anes": 6364,
      "##ahas": 6365,
      "pagkuk": 6366,
      "malub": 6367,
      "180": 6368,
      "kumik": 6369,
      "sitw": 6370,
      "totoo": 6371,
      "bahagyang": 6372,
      "klima": 6373,
      "75": 6374,
      "ku": 6375,
      "ox": 6376,
      "##atikong": 6377,
      "##ebar": 6378,
      "##ebenta": 6379,
      "kumpanya": 6380,
      "party": 6381,
      "1965": 6382,
      "pagsasama": 6383,
      "nagsisilbi": 6384,
      "pampanga": 6385,
      "gaanong": 6386,
      "bulacan": 6387,
      "##tima": 6388,
      "##away": 6389,
      "pantao": 6390,
      "alon": 6391,
      "altern": 6392,
      "deg": 6393,
      "1964": 6394,
      "house": 6395,
      "propesyonal": 6396,
      "buhok": 6397,
      "bari": 6398,
      "piling": 6399,
      "##abuti": 6400,
      "parok": 6401,
      "##atagal": 6402,
      "manus": 6403,
      "paglipas": 6404,
      "arts": 6405,
      "1941": 6406,
      "libro": 6407,
      "nakapagpap": 6408,
      "frank": 6409,
      "takot": 6410,
      "patakarang": 6411,
      "ipinapakita": 6412,
      "ambag": 6413,
      "pagsasalin": 6414,
      "dut": 6415,
      "lam": 6416,
      "ren": 6417,
      "kard": 6418,
      "magkakas": 6419,
      "1947": 6420,
      "pagkaing": 6421,
      "circ": 6422,
      "bilis": 6423,
      "layo": 6424,
      "##istiko": 6425,
      "itinalaga": 6426,
      "##orts": 6427,
      "nanatiling": 6428,
      "##ungkahing": 6429,
      "liberal": 6430,
      "magsas": 6431,
      "kontrata": 6432,
      "demon": 6433,
      "kababaihang": 6434,
      "ekwasyong": 6435,
      "tagasunod": 6436,
      "mir": 6437,
      "power": 6438,
      "##gado": 6439,
      "##round": 6440,
      "pambatas": 6441,
      "150": 6442,
      "pagbabagong": 6443,
      "distrib": 6444,
      "pabalik": 6445,
      "serbisyong": 6446,
      "sekswal": 6447,
      "kontrobers": 6448,
      "elementong": 6449,
      "nagbabago": 6450,
      "probinsiya": 6451,
      "suliranin": 6452,
      "##air": 6453,
      "##kul": 6454,
      "##ining": 6455,
      "def": 6456,
      "low": 6457,
      "pinakamalaki": 6458,
      "leap": 6459,
      "libingan": 6460,
      "kimikal": 6461,
      "proyektong": 6462,
      "tropical": 6463,
      "inv": 6464,
      "chin": 6465,
      "##imbento": 6466,
      "##resulta": 6467,
      "pederal": 6468,
      "##kis": 6469,
      "##itud": 6470,
      "##akip": 6471,
      "##etisyon": 6472,
      "andre": 6473,
      "depende": 6474,
      "pahayagan": 6475,
      "nowiki": 6476,
      "disiplina": 6477,
      "washington": 6478,
      "##amam": 6479,
      "##ukol": 6480,
      "##ugin": 6481,
      "napili": 6482,
      "##apatid": 6483,
      "1949": 6484,
      "kanluraning": 6485,
      "usap": 6486,
      "tomas": 6487,
      "fri": 6488,
      "##usin": 6489,
      "parlam": 6490,
      "paniniwalang": 6491,
      "##uba": 6492,
      "thom": 6493,
      "makuha": 6494,
      "ingg": 6495,
      "cath": 6496,
      "ling": 6497,
      "##unl": 6498,
      "##ody": 6499,
      "paglago": 6500,
      "minuto": 6501,
      "pagkakak": 6502,
      "kawalang": 6503,
      "pandagat": 6504,
      "pokemon": 6505,
      "cer": 6506,
      "ps": 6507,
      "##iti": 6508,
      "pangalawa": 6509,
      "lumal": 6510,
      "nakaug": 6511,
      "home": 6512,
      "pinangunahan": 6513,
      "cas": 6514,
      "##anas": 6515,
      "##adang": 6516,
      "trib": 6517,
      "##ember": 6518,
      "bea": 6519,
      "kapuluang": 6520,
      "kasanayan": 6521,
      "august": 6522,
      "liw": 6523,
      "mur": 6524,
      "muna": 6525,
      "pon": 6526,
      "##hala": 6527,
      "##yd": 6528,
      "##esar": 6529,
      "##igong": 6530,
      "##uportahan": 6531,
      "bagyong": 6532,
      "umaga": 6533,
      "bumagsak": 6534,
      "1963": 6535,
      "titulo": 6536,
      "beij": 6537,
      "quir": 6538,
      "liter": 6539,
      "##onood": 6540,
      "bilog": 6541,
      "social": 6542,
      "cur": 6543,
      "por": 6544,
      "pla": 6545,
      "ton": 6546,
      "##aham": 6547,
      "##ababa": 6548,
      "##abalik": 6549,
      "##oles": 6550,
      "bagamat": 6551,
      "hall": 6552,
      "aspeto": 6553,
      "patr": 6554,
      "pagpasok": 6555,
      "1961": 6556,
      "##arines": 6557,
      "kadahil": 6558,
      "urban": 6559,
      "buddha": 6560,
      "balak": 6561,
      "cag": 6562,
      "ht": 6563,
      "##atro": 6564,
      "maj": 6565,
      "binanggit": 6566,
      "pagsasa": 6567,
      "mapap": 6568,
      "1967": 6569,
      "1957": 6570,
      "merk": 6571,
      "mandal": 6572,
      "osp": 6573,
      "##ced": 6574,
      "##abilidad": 6575,
      "##ender": 6576,
      "pangangasiwa": 6577,
      "beijing": 6578,
      "doc": 6579,
      "##eal": 6580,
      "##cy": 6581,
      "##antiko": 6582,
      "princ": 6583,
      "conv": 6584,
      "coun": 6585,
      "ikalimang": 6586,
      "ast": 6587,
      "gatas": 6588,
      "##ares": 6589,
      "##ayanan": 6590,
      "##alangin": 6591,
      "makata": 6592,
      "182": 6593,
      "antip": 6594,
      "1971": 6595,
      "kalakal": 6596,
      "prinsipe": 6597,
      "bad": 6598,
      "##by": 6599,
      "maiwasan": 6600,
      "akdang": 6601,
      "talamp": 6602,
      "pinakaunang": 6603,
      "66": 6604,
      "dilaw": 6605,
      "hand": 6606,
      "puti": 6607,
      "##lish": 6608,
      "##bp": 6609,
      "pampan": 6610,
      "##irm": 6611,
      "nakasal": 6612,
      "##entina": 6613,
      "alt": 6614,
      "maling": 6615,
      "its": 6616,
      "makina": 6617,
      "masel": 6618,
      "##ebra": 6619,
      "trin": 6620,
      "trap": 6621,
      "online": 6622,
      "##ban": 6623,
      "##oseksuwal": 6624,
      "batayan": 6625,
      "napaka": 6626,
      "##endo": 6627,
      "pumunta": 6628,
      "irl": 6629,
      "aktibong": 6630,
      "biktima": 6631,
      "pangungusap": 6632,
      "kalimitang": 6633,
      "royal": 6634,
      "erop": 6635,
      "ken": 6636,
      "over": 6637,
      "##umin": 6638,
      "##osyon": 6639,
      "##ides": 6640,
      "asp": 6641,
      "diego": 6642,
      "1974": 6643,
      "pagpili": 6644,
      "tagapagb": 6645,
      "bany": 6646,
      "camarines": 6647,
      "campus": 6648,
      "society": 6649,
      "lil": 6650,
      "##ks": 6651,
      "##ipad": 6652,
      "##emonya": 6653,
      "##oka": 6654,
      "kalahating": 6655,
      "tinit": 6656,
      "cho": 6657,
      "phil": 6658,
      "humih": 6659,
      "simbol": 6660,
      "sev": 6661,
      "virus": 6662,
      "ospital": 6663,
      "digit": 6664,
      "numb": 6665,
      "pu": 6666,
      "##aheng": 6667,
      "kalalak": 6668,
      "kahalagahan": 6669,
      "labor": 6670,
      "neur": 6671,
      "##insan": 6672,
      "reyes": 6673,
      "isipan": 6674,
      "guhit": 6675,
      "squ": 6676,
      "tanda": 6677,
      "mall": 6678,
      "neut": 6679,
      "cons": 6680,
      "kristiyanong": 6681,
      "republic": 6682,
      "1920": 6683,
      "nagngangalang": 6684,
      "gov": 6685,
      "ال": 6686,
      "##arating": 6687,
      "##ester": 6688,
      "##ibutan": 6689,
      "##alakad": 6690,
      "mamalya": 6691,
      "bulebar": 6692,
      "club": 6693,
      "##ission": 6694,
      "georg": 6695,
      "pagpupulong": 6696,
      "##dp": 6697,
      "##yos": 6698,
      "##bi": 6699,
      "##uts": 6700,
      "ipinakita": 6701,
      "sumikat": 6702,
      "educ": 6703,
      "1939": 6704,
      "##erba": 6705,
      "protest": 6706,
      "foot": 6707,
      "domest": 6708,
      "##ahimpapawid": 6709,
      "software": 6710,
      "##akdang": 6711,
      "##awin": 6712,
      "##ige": 6713,
      "aralan": 6714,
      "ipinas": 6715,
      "who": 6716,
      "irlanda": 6717,
      "##rus": 6718,
      "inang": 6719,
      "##etic": 6720,
      "aksiyon": 6721,
      "kumuha": 6722,
      "nakakat": 6723,
      "titulong": 6724,
      "medikal": 6725,
      "teknikal": 6726,
      "mapagk": 6727,
      "lumilikha": 6728,
      "prinsipyo": 6729,
      "development": 6730,
      "huwag": 6731,
      "kalawakan": 6732,
      "pi": 6733,
      "paminsan": 6734,
      "batong": 6735,
      "nanirahan": 6736,
      "leyte": 6737,
      "1977": 6738,
      "1968": 6739,
      "birhen": 6740,
      "manggagamot": 6741,
      "ortodokso": 6742,
      "aal": 6743,
      "aangkin": 6744,
      "##uss": 6745,
      "##ibing": 6746,
      "ana": 6747,
      "##undong": 6748,
      "ipinadala": 6749,
      "##astas": 6750,
      "kurso": 6751,
      "gusaling": 6752,
      "pilosopo": 6753,
      "sandat": 6754,
      "inspirasyon": 6755,
      "49": 6756,
      "dest": 6757,
      "##gang": 6758,
      "##back": 6759,
      "##angang": 6760,
      "##diang": 6761,
      "kasong": 6762,
      "pagtukoy": 6763,
      "mahigpit": 6764,
      "paglabas": 6765,
      "carbon": 6766,
      "ekonomiko": 6767,
      "baboy": 6768,
      "hyd": 6769,
      "##bs": 6770,
      "##olyo": 6771,
      "amang": 6772,
      "binabay": 6773,
      "lumahok": 6774,
      "mill": 6775,
      "##ustuhan": 6776,
      "raj": 6777,
      "block": 6778,
      "hab": 6779,
      "##ki": 6780,
      "napan": 6781,
      "##ahintulot": 6782,
      "nov": 6783,
      "kalahok": 6784,
      "prutas": 6785,
      "2019": 6786,
      "paglipat": 6787,
      "imahe": 6788,
      "nagdudulot": 6789,
      "relihiyong": 6790,
      "pwersa": 6791,
      "gantimpala": 6792,
      "sanggunian": 6793,
      "interpret": 6794,
      "55": 6795,
      "cot": 6796,
      "##eto": 6797,
      "##bakal": 6798,
      "pangasin": 6799,
      "kathang": 6800,
      "##estiga": 6801,
      "##ief": 6802,
      "quark": 6803,
      "kinasasangk": 6804,
      "kup": 6805,
      "oc": 6806,
      "ath": 6807,
      "paraon": 6808,
      "##oke": 6809,
      "##uda": 6810,
      "seremonya": 6811,
      "rox": 6812,
      "great": 6813,
      "white": 6814,
      "kinakailangang": 6815,
      "independiy": 6816,
      "anatom": 6817,
      "nanggaling": 6818,
      "##pa": 6819,
      "##oli": 6820,
      "kinalaman": 6821,
      "itinakda": 6822,
      "polonya": 6823,
      "bigat": 6824,
      "wikipediang": 6825,
      "cd": 6826,
      "##uate": 6827,
      "##ahambing": 6828,
      "##apt": 6829,
      "kalam": 6830,
      "natanggap": 6831,
      "##alaganap": 6832,
      "##angkang": 6833,
      "isinama": 6834,
      "tubo": 6835,
      "sobrang": 6836,
      "naitala": 6837,
      "balangkas": 6838,
      "nagreres": 6839,
      "manuskr": 6840,
      "ebol": 6841,
      "##ios": 6842,
      "##illo": 6843,
      "##ahiwalay": 6844,
      "##ade": 6845,
      "##ulaan": 6846,
      "##ubund": 6847,
      "matut": 6848,
      "ilarawan": 6849,
      "##ukuyin": 6850,
      "##mith": 6851,
      "1959": 6852,
      "laur": 6853,
      "negatibong": 6854,
      "##atoryo": 6855,
      "natatangi": 6856,
      "lubhang": 6857,
      "makapangyarihang": 6858,
      "kautusan": 6859,
      "talampakan": 6860,
      "53": 6861,
      "cup": 6862,
      "##ease": 6863,
      "##unaw": 6864,
      "##utin": 6865,
      "ale": 6866,
      "##anganib": 6867,
      "young": 6868,
      "television": 6869,
      "cos": 6870,
      "rail": 6871,
      "von": 6872,
      "##ipot": 6873,
      "pinagsama": 6874,
      "bh": 6875,
      "iisa": 6876,
      "mich": 6877,
      "pulong": 6878,
      "run": 6879,
      "sor": 6880,
      "##uing": 6881,
      "hindu": 6882,
      "this": 6883,
      "press": 6884,
      "##lov": 6885,
      "kahariang": 6886,
      "opisina": 6887,
      "kakaibang": 6888,
      "constantin": 6889,
      "porsiyento": 6890,
      "iral": 6891,
      "piy": 6892,
      "pista": 6893,
      "tama": 6894,
      "##kl": 6895,
      "##aria": 6896,
      "##awad": 6897,
      "pagsabog": 6898,
      "pamamaga": 6899,
      "nagkamit": 6900,
      "populasyong": 6901,
      "bulubund": 6902,
      "daangbakal": 6903,
      "aktibidad": 6904,
      "christian": 6905,
      "positibong": 6906,
      "51": 6907,
      "fam": 6908,
      "hanap": 6909,
      "kl": 6910,
      "##bc": 6911,
      "##enue": 6912,
      "mayor": 6913,
      "panay": 6914,
      "hinati": 6915,
      "malab": 6916,
      "prad": 6917,
      "kaunti": 6918,
      "palay": 6919,
      "komers": 6920,
      "pangunahin": 6921,
      "lead": 6922,
      "##umpleto": 6923,
      "nagpakita": 6924,
      "##ektibo": 6925,
      "medyo": 6926,
      "tawagin": 6927,
      "himpilang": 6928,
      "tropikal": 6929,
      "pakikipagtalik": 6930,
      "konstitusyon": 6931,
      "girl": 6932,
      "arroyo": 6933,
      "bayang": 6934,
      "wo": 6935,
      "kantang": 6936,
      "malayo": 6937,
      "##ilipas": 6938,
      "##alakalan": 6939,
      "kain": 6940,
      "chart": 6941,
      "child": 6942,
      "kritiko": 6943,
      "indiya": 6944,
      "puwersang": 6945,
      "bilyong": 6946,
      "daniel": 6947,
      "dibdib": 6948,
      "paulit": 6949,
      "bektor": 6950,
      "herm": 6951,
      "##kad": 6952,
      "##ci": 6953,
      "##abal": 6954,
      "##ori": 6955,
      "pinunong": 6956,
      "maayos": 6957,
      "ars": 6958,
      "##edy": 6959,
      "kayaman": 6960,
      "shin": 6961,
      "kaguluhan": 6962,
      "1966": 6963,
      "thomas": 6964,
      "mito": 6965,
      "rat": 6966,
      "##uyang": 6967,
      "##eration": 6968,
      "magaz": 6969,
      "##oton": 6970,
      "araling": 6971,
      "iloc": 6972,
      "bagama": 6973,
      "manag": 6974,
      "stand": 6975,
      "meron": 6976,
      "bolyum": 6977,
      "japanese": 6978,
      "aur": 6979,
      "got": 6980,
      "##aksyon": 6981,
      "##eran": 6982,
      "##iman": 6983,
      "alf": 6984,
      "magkas": 6985,
      "pilak": 6986,
      "pagkakatuklas": 6987,
      "landas": 6988,
      "how": 6989,
      "ipap": 6990,
      "key": 6991,
      "wr": 6992,
      "##pl": 6993,
      "##yadong": 6994,
      "##amay": 6995,
      "##igyang": 6996,
      "pagkap": 6997,
      "##uhunan": 6998,
      "kaisipan": 6999,
      "##aligtas": 7000,
      "layuning": 7001,
      "english": 7002,
      "au": 7003,
      "kawan": 7004,
      "##mang": 7005,
      "##ahay": 7006,
      "##isda": 7007,
      "pangatlong": 7008,
      "unting": 7009,
      "##eksiyong": 7010,
      "disk": 7011,
      "##ordin": 7012,
      "sea": 7013,
      "mex": 7014,
      "1953": 7015,
      "gawi": 7016,
      "watawat": 7017,
      "totoong": 7018,
      "java": 7019,
      "cagayan": 7020,
      "pangasinan": 7021,
      "54": 7022,
      "beng": 7023,
      "born": 7024,
      "dro": 7025,
      "gn": 7026,
      "gaganap": 7027,
      "luther": 7028,
      "##atwiran": 7029,
      "##ape": 7030,
      "##osisyon": 7031,
      "##ibal": 7032,
      "ikot": 7033,
      "trip": 7034,
      "sinis": 7035,
      "kagub": 7036,
      "1954": 7037,
      "baut": 7038,
      "tuwirang": 7039,
      "iniulat": 7040,
      "free": 7041,
      "pradesh": 7042,
      "aut": 7043,
      "hig": 7044,
      "vers": 7045,
      "##ument": 7046,
      "##eland": 7047,
      "nic": 7048,
      "pana": 7049,
      "alitan": 7050,
      "##ants": 7051,
      "kabayo": 7052,
      "patimog": 7053,
      "nagsilbing": 7054,
      "pasyente": 7055,
      "roman": 7056,
      "columb": 7057,
      "bank": 7058,
      "brown": 7059,
      "##ibidahan": 7060,
      "pinakamahalagang": 7061,
      "kampeon": 7062,
      "mananaliksik": 7063,
      "kailanman": 7064,
      "rodr": 7065,
      "nasasakupan": 7066,
      "kinasasangkutan": 7067,
      "hati": 7068,
      "li": 7069,
      "tabi": 7070,
      "yelo": 7071,
      "##uf": 7072,
      "##down": 7073,
      "pinapat": 7074,
      "pagkuha": 7075,
      "ikalawa": 7076,
      "igin": 7077,
      "tarlac": 7078,
      "naitatag": 7079,
      "gumagalaw": 7080,
      "eksperimento": 7081,
      "56": 7082,
      "52": 7083,
      "65": 7084,
      "occ": 7085,
      "simulang": 7086,
      "##dy": 7087,
      "##nap": 7088,
      "##amental": 7089,
      "##olitan": 7090,
      "kataga": 7091,
      "patri": 7092,
      "kumalat": 7093,
      "1962": 7094,
      "medalya": 7095,
      "gastos": 7096,
      "history": 7097,
      "##uridad": 7098,
      "##reen": 7099,
      "kaligt": 7100,
      "itinuring": 7101,
      "pagpapanatili": 7102,
      "nabuhay": 7103,
      "samakat": 7104,
      "1958": 7105,
      "bantog": 7106,
      "likido": 7107,
      "persa": 7108,
      "teorya": 7109,
      "roxas": 7110,
      "auto": 7111,
      "gub": 7112,
      "norm": 7113,
      "tukuyin": 7114,
      "nagtrabaho": 7115,
      "##olina": 7116,
      "kaloob": 7117,
      "masamang": 7118,
      "lumalabas": 7119,
      "mabigat": 7120,
      "samahang": 7121,
      "konseh": 7122,
      "titi": 7123,
      "pabor": 7124,
      "tradisyong": 7125,
      "##ences": 7126,
      "good": 7127,
      "econom": 7128,
      "inaasahan": 7129,
      "isinalin": 7130,
      "tindahan": 7131,
      "quirino": 7132,
      "bc": 7133,
      "buo": 7134,
      "kahil": 7135,
      "riles": 7136,
      "##ring": 7137,
      "ngipin": 7138,
      "##ugot": 7139,
      "malamig": 7140,
      "makalipas": 7141,
      "head": 7142,
      "##alisis": 7143,
      "ekwasyon": 7144,
      "paghihiwalay": 7145,
      "kaugalian": 7146,
      "dala": 7147,
      "hat": 7148,
      "tiyan": 7149,
      "wa": 7150,
      "wes": 7151,
      "pinalabas": 7152,
      "katulong": 7153,
      "##edeng": 7154,
      "times": 7155,
      "obserb": 7156,
      "bidyo": 7157,
      "relihiyoso": 7158,
      "hem": 7159,
      "##ele": 7160,
      "inak": 7161,
      "kabaligt": 7162,
      "palibot": 7163,
      "hangganang": 7164,
      "pagsapit": 7165,
      "pakistan": 7166,
      "uniberso": 7167,
      "heart": 7168,
      "color": 7169,
      "ipakita": 7170,
      "airport": 7171,
      "gloria": 7172,
      "magazine": 7173,
      "dob": 7174,
      "yam": 7175,
      "##pi": 7176,
      "##uyong": 7177,
      "##wika": 7178,
      "##arta": 7179,
      "##ette": 7180,
      "##uparan": 7181,
      "tumulong": 7182,
      "tinatanggap": 7183,
      "##ektado": 7184,
      "nakapagb": 7185,
      "pagsasagawa": 7186,
      "protina": 7187,
      "tugt": 7188,
      "istraktura": 7189,
      "pagbubukas": 7190,
      "etniko": 7191,
      "kalalakihan": 7192,
      "bic": 7193,
      "daw": 7194,
      "german": 7195,
      "##ui": 7196,
      "##isismo": 7197,
      "pagw": 7198,
      "##imili": 7199,
      "##ihas": 7200,
      "##anood": 7201,
      "baha": 7202,
      "pasilidad": 7203,
      "tangh": 7204,
      "##ression": 7205,
      "##ija": 7206,
      "kumpara": 7207,
      "tekstong": 7208,
      "600": 7209,
      "eg": 7210,
      "fest": 7211,
      "has": 7212,
      "vel": 7213,
      "##wan": 7214,
      "##ule": 7215,
      "##ukal": 7216,
      "itinat": 7217,
      "##ataong": 7218,
      "##ahanga": 7219,
      "179": 7220,
      "henerasyon": 7221,
      "paggalaw": 7222,
      "kondado": 7223,
      "nakalilipas": 7224,
      "##iii": 7225,
      "rebel": 7226,
      "kamakailan": 7227,
      "non": 7228,
      "##tv": 7229,
      "##ος": 7230,
      "##iness": 7231,
      "kapal": 7232,
      "dev": 7233,
      "stud": 7234,
      "##lands": 7235,
      "##lamig": 7236,
      "kontinente": 7237,
      "virgin": 7238,
      "pagkakakilan": 7239,
      "govern": 7240,
      "##sil": 7241,
      "##itin": 7242,
      "##ugong": 7243,
      "alm": 7244,
      "market": 7245,
      "kapist": 7246,
      "makamit": 7247,
      "##loh": 7248,
      "pinakamat": 7249,
      "1952": 7250,
      "arabo": 7251,
      "berlin": 7252,
      "mongol": 7253,
      "kamakailang": 7254,
      "hub": 7255,
      "ly": 7256,
      "om": 7257,
      "rosa": 7258,
      "smith": 7259,
      "orig": 7260,
      "posisyong": 7261,
      "nagsasabing": 7262,
      "isinaad": 7263,
      "kolonyal": 7264,
      "##ei": 7265,
      "##af": 7266,
      "nakagawa": 7267,
      "karangalan": 7268,
      "tumakbo": 7269,
      "pagpapahayag": 7270,
      "baryo": 7271,
      "mangyari": 7272,
      "##umpa": 7273,
      "ibinibigay": 7274,
      "propeta": 7275,
      "##instein": 7276,
      "diplom": 7277,
      "kaligtasan": 7278,
      "perman": 7279,
      "##abago": 7280,
      "##ukod": 7281,
      "ilo": 7282,
      "tinuturing": 7283,
      "##alitang": 7284,
      "billboard": 7285,
      "kodigo": 7286,
      "number": 7287,
      "ever": 7288,
      "sop": 7289,
      "##alaya": 7290,
      "##ukt": 7291,
      "tinukoy": 7292,
      "##ahatid": 7293,
      "mapang": 7294,
      "perp": 7295,
      "character": 7296,
      "desisyon": 7297,
      "pader": 7298,
      "##acteria": 7299,
      "estrada": 7300,
      "arkitektura": 7301,
      "molekula": 7302,
      "pampanit": 7303,
      "64": 7304,
      "bor": 7305,
      "fib": 7306,
      "gulay": 7307,
      "##ilia": 7308,
      "##abato": 7309,
      "##ibabaw": 7310,
      "master": 7311,
      "esc": 7312,
      "second": 7313,
      "digital": 7314,
      "samakatuwid": 7315,
      "bec": 7316,
      "likha": 7317,
      "##ous": 7318,
      "anghel": 7319,
      "##islat": 7320,
      "##roh": 7321,
      "##odo": 7322,
      "pagkalipas": 7323,
      "##try": 7324,
      "nagsagawa": 7325,
      "pinagh": 7326,
      "##untunin": 7327,
      "linyar": 7328,
      "##indalawang": 7329,
      "mediter": 7330,
      "nagsasagawa": 7331,
      "aktibo": 7332,
      "birus": 7333,
      "ikalabing": 7334,
      "##tir": 7335,
      "##ises": 7336,
      "##igkas": 7337,
      "pinakap": 7338,
      "open": 7339,
      "nagtatapos": 7340,
      "newton": 7341,
      "nagsasabi": 7342,
      "mainam": 7343,
      "avenue": 7344,
      "komedya": 7345,
      "kompositor": 7346,
      "malubhang": 7347,
      "pn": 7348,
      "ump": 7349,
      "##eong": 7350,
      "##alungat": 7351,
      "##inta": 7352,
      "##akitang": 7353,
      "##awasak": 7354,
      "##eme": 7355,
      "alipin": 7356,
      "paglalagay": 7357,
      "league": 7358,
      "monark": 7359,
      "ganito": 7360,
      "biyetnam": 7361,
      "pinagsamang": 7362,
      "nagkakaroon": 7363,
      "lihim": 7364,
      "lider": 7365,
      "##uit": 7366,
      "##ding": 7367,
      "pangp": 7368,
      "nomin": 7369,
      "hinah": 7370,
      "##ugma": 7371,
      "cross": 7372,
      "##letong": 7373,
      "garcia": 7374,
      "text": 7375,
      "62": 7376,
      "data": 7377,
      "tulang": 7378,
      "##bas": 7379,
      "##bit": 7380,
      "##ayas": 7381,
      "##amali": 7382,
      "magas": 7383,
      "##ogle": 7384,
      "prof": 7385,
      "##ensis": 7386,
      "paghuh": 7387,
      "##intul": 7388,
      "##ization": 7389,
      "resear": 7390,
      "counc": 7391,
      "nagdadala": 7392,
      "negros": 7393,
      "president": 7394,
      "hits": 7395,
      "computer": 7396,
      "tinaguriang": 7397,
      "research": 7398,
      "##ingat": 7399,
      "##abeth": 7400,
      "tinig": 7401,
      "patinig": 7402,
      "salungat": 7403,
      "teatro": 7404,
      "pagpip": 7405,
      "kolonya": 7406,
      "ebreo": 7407,
      "kandidato": 7408,
      "sitwasyon": 7409,
      "58": 7410,
      "57": 7411,
      "bet": 7412,
      "cul": 7413,
      "dre": 7414,
      "nep": 7415,
      "tiy": 7416,
      "upuan": 7417,
      "##my": 7418,
      "##zar": 7419,
      "##ilahok": 7420,
      "##ird": 7421,
      "nakaraan": 7422,
      "mali": 7423,
      "kapas": 7424,
      "kilusan": 7425,
      "pagsasaliksik": 7426,
      "google": 7427,
      "special": 7428,
      "pinagbibidahan": 7429,
      "education": 7430,
      "memb": 7431,
      "pahil": 7432,
      "##rad": 7433,
      "##ald": 7434,
      "kabihas": 7435,
      "palayaw": 7436,
      "##angkilik": 7437,
      "narar": 7438,
      "foundation": 7439,
      "binabaybay": 7440,
      "kagubatan": 7441,
      "tol": 7442,
      "##con": 7443,
      "##ces": 7444,
      "sad": 7445,
      "##awalan": 7446,
      "##edral": 7447,
      "##ertebr": 7448,
      "point": 7449,
      "1935": 7450,
      "intel": 7451,
      "##relih": 7452,
      "magsasaka": 7453,
      "council": 7454,
      "76": 7455,
      "kred": 7456,
      "tanong": 7457,
      "talaga": 7458,
      "##buhay": 7459,
      "##10": 7460,
      "nakatayo": 7461,
      "taglamig": 7462,
      "napat": 7463,
      "##untis": 7464,
      "book": 7465,
      "moral": 7466,
      "krimen": 7467,
      "iloilo": 7468,
      "##uag": 7469,
      "##inom": 7470,
      "##agot": 7471,
      "##akyat": 7472,
      "##top": 7473,
      "##awaan": 7474,
      "##angkot": 7475,
      "bask": 7476,
      "##arte": 7477,
      "libre": 7478,
      "inaalok": 7479,
      "nagtataglay": 7480,
      "ilocos": 7481,
      "life": 7482,
      "nba": 7483,
      "##rian": 7484,
      "nauna": 7485,
      "##uluhang": 7486,
      "noo": 7487,
      "intr": 7488,
      "pagkilos": 7489,
      "track": 7490,
      "tumatanggap": 7491,
      "pangkasal": 7492,
      "pinagd": 7493,
      "1951": 7494,
      "produksyon": 7495,
      "1898": 7496,
      "kasunduang": 7497,
      "nagreresulta": 7498,
      "einstein": 7499,
      "huw": 7500,
      "##ground": 7501,
      "##ues": 7502,
      "##gasyon": 7503,
      "##ilitang": 7504,
      "mass": 7505,
      "tribo": 7506,
      "##ungkol": 7507,
      "pangangalaga": 7508,
      "publish": 7509,
      "ach": 7510,
      "gagamit": 7511,
      "rand": 7512,
      "##lit": 7513,
      "##aybay": 7514,
      "##apekt": 7515,
      "##abatas": 7516,
      "matanda": 7517,
      "ginawaran": 7518,
      "asian": 7519,
      "chal": 7520,
      "tumungo": 7521,
      "mahaba": 7522,
      "step": 7523,
      "##lathala": 7524,
      "aklatan": 7525,
      "medi": 7526,
      "nakatala": 7527,
      "piso": 7528,
      "##ughaw": 7529,
      "matematikal": 7530,
      "sundalong": 7531,
      "dolyar": 7532,
      "mensahe": 7533,
      "kardinal": 7534,
      "kayamanan": 7535,
      "festival": 7536,
      "ple": 7537,
      "isahang": 7538,
      "##ikanong": 7539,
      "##ukang": 7540,
      "karun": 7541,
      "chi": 7542,
      "kinal": 7543,
      "tumpak": 7544,
      "nagbago": 7545,
      "1942": 7546,
      "##abawal": 7547,
      "australya": 7548,
      "pusa": 7549,
      "paliparang": 7550,
      "segundo": 7551,
      "office": 7552,
      "85": 7553,
      "95": 7554,
      "aasal": 7555,
      "bida": 7556,
      "galit": 7557,
      "kub": 7558,
      "lan": 7559,
      "sust": 7560,
      "##heng": 7561,
      "##itikal": 7562,
      "##akwil": 7563,
      "##uld": 7564,
      "##erya": 7565,
      "##oda": 7566,
      "nagsasan": 7567,
      "##atauhan": 7568,
      "##ahinga": 7569,
      "punsiyong": 7570,
      "musik": 7571,
      "160": 7572,
      "syria": 7573,
      "##ihimagsik": 7574,
      "pahina": 7575,
      "nagtatrabaho": 7576,
      "sky": 7577,
      "turkiya": 7578,
      "mahihirap": 7579,
      "cin": 7580,
      "hir": 7581,
      "right": 7582,
      "##agandang": 7583,
      "angg": 7584,
      "##igr": 7585,
      "##ibol": 7586,
      "paring": 7587,
      "##etikal": 7588,
      "##iction": 7589,
      "ilong": 7590,
      "ikap": 7591,
      "masyadong": 7592,
      "ipinagd": 7593,
      "asukal": 7594,
      "##apagal": 7595,
      "##ambot": 7596,
      "cont": 7597,
      "##agdan": 7598,
      "1956": 7599,
      "1955": 7600,
      "##awakan": 7601,
      "austria": 7602,
      "nakalipas": 7603,
      "macapagal": 7604,
      "makakuha": 7605,
      "##hing": 7606,
      "##arno": 7607,
      "pinoy": 7608,
      "##ubukan": 7609,
      "##diwang": 7610,
      "kasuot": 7611,
      "##chus": 7612,
      "asin": 7613,
      "paglaki": 7614,
      "##adaloy": 7615,
      "imm": 7616,
      "european": 7617,
      "naghih": 7618,
      "laging": 7619,
      "ahas": 7620,
      "sekw": 7621,
      "rosario": 7622,
      "pangkaraniwan": 7623,
      "darwin": 7624,
      "mangangalakal": 7625,
      "bob": 7626,
      "dula": 7627,
      "gh": 7628,
      "seo": 7629,
      "nagresulta": 7630,
      "kant": 7631,
      "loc": 7632,
      "##ukuyang": 7633,
      "touch": 7634,
      "##istrado": 7635,
      "kagaya": 7636,
      "1944": 7637,
      "idol": 7638,
      "quarter": 7639,
      "gayunman": 7640,
      "episode": 7641,
      "eroplano": 7642,
      "cle": 7643,
      "rap": 7644,
      "way": 7645,
      "kalipunan": 7646,
      "abala": 7647,
      "elekt": 7648,
      "178": 7649,
      "supr": 7650,
      "naglilingkod": 7651,
      "paghahanda": 7652,
      "sangandaan": 7653,
      "kromosoma": 7654,
      "pundasyon": 7655,
      "chinese": 7656,
      "ef": 7657,
      "fuj": 7658,
      "lop": 7659,
      "sung": 7660,
      "naib": 7661,
      "##arili": 7662,
      "##aragdag": 7663,
      "ilaw": 7664,
      "grap": 7665,
      "style": 7666,
      "naniniwalang": 7667,
      "arth": 7668,
      "metrop": 7669,
      "##umbalik": 7670,
      "direksyon": 7671,
      "magkakaroon": 7672,
      "congo": 7673,
      "lac": 7674,
      "##eer": 7675,
      "##yung": 7676,
      "##br": 7677,
      "##48": 7678,
      "##ikt": 7679,
      "##imit": 7680,
      "pinip": 7681,
      "prakt": 7682,
      "kaay": 7683,
      "ipinagk": 7684,
      "komon": 7685,
      "eksak": 7686,
      "comune": 7687,
      "spes": 7688,
      "ahensiya": 7689,
      "gawad": 7690,
      "materyales": 7691,
      "ramon": 7692,
      "pundamental": 7693,
      "village": 7694,
      "global": 7695,
      "demokratikong": 7696,
      "59": 7697,
      "bughaw": 7698,
      "damb": 7699,
      "kid": 7700,
      "rna": 7701,
      "seb": 7702,
      "##hu": 7703,
      "##hy": 7704,
      "##tw": 7705,
      "##alaysay": 7706,
      "atbp": 7707,
      "##ikos": 7708,
      "alas": 7709,
      "lupang": 7710,
      "##grap": 7711,
      "sampagu": 7712,
      "bilyon": 7713,
      "kimika": 7714,
      "palatandaan": 7715,
      "federal": 7716,
      "asa": 7717,
      "cell": 7718,
      "mob": 7719,
      "sl": 7720,
      "tayo": 7721,
      "istor": 7722,
      "##eko": 7723,
      "maari": 7724,
      "##uhat": 7725,
      "ordin": 7726,
      "konstr": 7727,
      "kumakain": 7728,
      "andres": 7729,
      "konserb": 7730,
      "naghah": 7731,
      "imbestiga": 7732,
      "naiiba": 7733,
      "kotse": 7734,
      "earth": 7735,
      "##uv": 7736,
      "maganda": 7737,
      "pagkaraang": 7738,
      "manip": 7739,
      "manalo": 7740,
      "nagtagal": 7741,
      "pagkakaisa": 7742,
      "kawal": 7743,
      "1896": 7744,
      "isinasa": 7745,
      "suso": 7746,
      "katamtamang": 7747,
      "cotabato": 7748,
      "78": 7749,
      "##als": 7750,
      "##asim": 7751,
      "##ulus": 7752,
      "##umo": 7753,
      "##imar": 7754,
      "analisis": 7755,
      "ibong": 7756,
      "pagkapang": 7757,
      "##reg": 7758,
      "##uwang": 7759,
      "project": 7760,
      "gran": 7761,
      "papasok": 7762,
      "teles": 7763,
      "anth": 7764,
      "lima": 7765,
      "harry": 7766,
      "business": 7767,
      "personalidad": 7768,
      "lambak": 7769,
      "tanso": 7770,
      "manuskrito": 7771,
      "niy": 7772,
      "penn": 7773,
      "ranggo": 7774,
      "were": 7775,
      "##ied": 7776,
      "##ison": 7777,
      "alto": 7778,
      "kaagad": 7779,
      "istasyon": 7780,
      "##ultad": 7781,
      "transportasyon": 7782,
      "gaganapin": 7783,
      "uus": 7784,
      "##21": 7785,
      "##onekta": 7786,
      "##itiw": 7787,
      "##ible": 7788,
      "nir": 7789,
      "##ichi": 7790,
      "pagkam": 7791,
      "##anti": 7792,
      "mars": 7793,
      "nating": 7794,
      "awt": 7795,
      "eliz": 7796,
      "pagtatatag": 7797,
      "kanluranin": 7798,
      "nakapagt": 7799,
      "dokumento": 7800,
      "iwas": 7801,
      "entabl": 7802,
      "sukarno": 7803,
      "##likadong": 7804,
      "hotel": 7805,
      "kahalili": 7806,
      "golpo": 7807,
      "oksih": 7808,
      "##impluwensiyahan": 7809,
      "trapiko": 7810,
      "constantinople": 7811,
      "sampaguita": 7812,
      "98": 7813,
      "prize": 7814,
      "bumaba": 7815,
      "basil": 7816,
      "##ishna": 7817,
      "pinamamahalaan": 7818,
      "common": 7819,
      "idinagdag": 7820,
      "pagkakasunod": 7821,
      "jackson": 7822,
      "engineering": 7823,
      "pagkakakilanlan": 7824,
      "bantay": 7825,
      "fol": 7826,
      "jean": 7827,
      "olandes": 7828,
      "yards": 7829,
      "##cer": 7830,
      "##uig": 7831,
      "##tiko": 7832,
      "##isidad": 7833,
      "##ugol": 7834,
      "ali": 7835,
      "karn": 7836,
      "tinapay": 7837,
      "manonood": 7838,
      "kaz": 7839,
      "import": 7840,
      "indiyano": 7841,
      "paksang": 7842,
      "##order": 7843,
      "sound": 7844,
      "1938": 7845,
      "radi": 7846,
      "sangkatauhan": 7847,
      "kapistahan": 7848,
      "##apektuhan": 7849,
      "dv": 7850,
      "gi": 7851,
      "keso": 7852,
      "rub": 7853,
      "rank": 7854,
      "##cr": 7855,
      "##yero": 7856,
      "##alsik": 7857,
      "##ats": 7858,
      "##asyunal": 7859,
      "##ayagang": 7860,
      "inalis": 7861,
      "makinang": 7862,
      "asidong": 7863,
      "orden": 7864,
      "nagsulat": 7865,
      "kron": 7866,
      "nagpat": 7867,
      "plant": 7868,
      "health": 7869,
      "kompl": 7870,
      "dalampas": 7871,
      "institusyong": 7872,
      "##ugad": 7873,
      "kulang": 7874,
      "light": 7875,
      "oly": 7876,
      "perm": 7877,
      "isdang": 7878,
      "##enang": 7879,
      "##idental": 7880,
      "pintor": 7881,
      "kapak": 7882,
      "trento": 7883,
      "tumatakbo": 7884,
      "mahistrado": 7885,
      "pinakamataong": 7886,
      "pagpapakita": 7887,
      "pasko": 7888,
      "probabilidad": 7889,
      "katolikong": 7890,
      "##lines": 7891,
      "materya": 7892,
      "lehislat": 7893,
      "maharlika": 7894,
      "77": 7895,
      "korpor": 7896,
      "##uio": 7897,
      "##aril": 7898,
      "##enz": 7899,
      "##idel": 7900,
      "##row": 7901,
      "paunang": 7902,
      "sinakop": 7903,
      "daungan": 7904,
      "##uez": 7905,
      "##umpirma": 7906,
      "sulu": 7907,
      "##ference": 7908,
      "ov": 7909,
      "plas": 7910,
      "sero": 7911,
      "sanga": 7912,
      "##roses": 7913,
      "##uya": 7914,
      "##yenteng": 7915,
      "##arch": 7916,
      "##ukaw": 7917,
      "panalo": 7918,
      "##opter": 7919,
      "rebol": 7920,
      "kapar": 7921,
      "prin": 7922,
      "asido": 7923,
      "pagpapalit": 7924,
      "awtoridad": 7925,
      "madla": 7926,
      "pagtatangka": 7927,
      "communi": 7928,
      "arabe": 7929,
      "dibisyon": 7930,
      "##hou": 7931,
      "beaut": 7932,
      "##bayan": 7933,
      "##welt": 7934,
      "##akbay": 7935,
      "##igla": 7936,
      "##uwi": 7937,
      "palagi": 7938,
      "##ense": 7939,
      "umiral": 7940,
      "inilimbag": 7941,
      "lega": 7942,
      "pananalita": 7943,
      "lupaing": 7944,
      "commerc": 7945,
      "public": 7946,
      "doktrina": 7947,
      "##roheno": 7948,
      "komonwelt": 7949,
      "pagkapangulo": 7950,
      "69": 7951,
      "68": 7952,
      "gag": 7953,
      "kud": 7954,
      "##tel": 7955,
      "##ams": 7956,
      "##enyong": 7957,
      "inir": 7958,
      "##utasyon": 7959,
      "katinig": 7960,
      "##uhayan": 7961,
      "##cher": 7962,
      "bataan": 7963,
      "kinak": 7964,
      "add": 7965,
      "espasyong": 7966,
      "sabi": 7967,
      "##ological": 7968,
      "##iji": 7969,
      "tagapam": 7970,
      "kasangkapang": 7971,
      "briton": 7972,
      "sahod": 7973,
      "nakaugaliang": 7974,
      "73": 7975,
      "balik": 7976,
      "duk": 7977,
      "fak": 7978,
      "kit": 7979,
      "pip": 7980,
      "ya": 7981,
      "##nes": 7982,
      "katapat": 7983,
      "##entro": 7984,
      "taguig": 7985,
      "dinad": 7986,
      "namuhay": 7987,
      "pagbib": 7988,
      "ens": 7989,
      "kampanya": 7990,
      "henetiko": 7991,
      "larangang": 7992,
      "1937": 7993,
      "butil": 7994,
      "army": 7995,
      "dimensiyon": 7996,
      "pariralang": 7997,
      "bautista": 7998,
      "olymp": 7999,
      "commercial": 8000,
      "tangk": 8001,
      "wall": 8002,
      "##ky": 8003,
      "saser": 8004,
      "mayaman": 8005,
      "iniwan": 8006,
      "pint": 8007,
      "##oko": 8008,
      "kabund": 8009,
      "pangkab": 8010,
      "kamal": 8011,
      "1936": 8012,
      "harv": 8013,
      "##atanyag": 8014,
      "budismo": 8015,
      "##empor": 8016,
      "alexandria": 8017,
      "nakasalalay": 8018,
      "lopez": 8019,
      "boses": 8020,
      "card": 8021,
      "##amaan": 8022,
      "##ips": 8023,
      "1900": 8024,
      "##ihing": 8025,
      "##andro": 8026,
      "baguio": 8027,
      "ther": 8028,
      "pangkultura": 8029,
      "pangkalakalan": 8030,
      "labindalawang": 8031,
      "puntong": 8032,
      "pakpak": 8033,
      "subst": 8034,
      "nilabas": 8035,
      "tagapagl": 8036,
      "peter": 8037,
      "himpapawid": 8038,
      "problemang": 8039,
      "pagsisikap": 8040,
      "constantino": 8041,
      "bikol": 8042,
      "binibigkas": 8043,
      "##unggali": 8044,
      "responsable": 8045,
      "ere": 8046,
      "town": 8047,
      "yum": 8048,
      "##ker": 8049,
      "##angat": 8050,
      "pangd": 8051,
      "karbon": 8052,
      "nanging": 8053,
      "halim": 8054,
      "apol": 8055,
      "##ohan": 8056,
      "pagpapas": 8057,
      "pambaba": 8058,
      "##impluwensiya": 8059,
      "##agdaan": 8060,
      "nagdala": 8061,
      "depression": 8062,
      "solong": 8063,
      "commission": 8064,
      "silver": 8065,
      "pumapayag": 8066,
      "heometr": 8067,
      "tuktok": 8068,
      "saserd": 8069,
      "aab": 8070,
      "sep": 8071,
      "sektor": 8072,
      "##edic": 8073,
      "ayos": 8074,
      "##ahon": 8075,
      "##ikita": 8076,
      "##anggihan": 8077,
      "##ebes": 8078,
      "patong": 8079,
      "stev": 8080,
      "nagtala": 8081,
      "pampag": 8082,
      "paghahati": 8083,
      "transp": 8084,
      "clark": 8085,
      "pred": 8086,
      "dako": 8087,
      "pagsisimula": 8088,
      "venez": 8089,
      "pacific": 8090,
      "kosm": 8091,
      "awtonom": 8092,
      "aud": 8093,
      "cm": 8094,
      "dur": 8095,
      "gagaw": 8096,
      "pont": 8097,
      "##ger": 8098,
      "##imen": 8099,
      "karga": 8100,
      "mahinang": 8101,
      "##hai": 8102,
      "napagk": 8103,
      "nasug": 8104,
      "kultural": 8105,
      "albert": 8106,
      "presidente": 8107,
      "bola": 8108,
      "player": 8109,
      "alternatibong": 8110,
      "parlamento": 8111,
      "alej": 8112,
      "seoul": 8113,
      "entablado": 8114,
      "61": 8115,
      "gawang": 8116,
      "uug": 8117,
      "##eas": 8118,
      "##hon": 8119,
      "##led": 8120,
      "##deng": 8121,
      "kana": 8122,
      "katar": 8123,
      "prom": 8124,
      "tagahanga": 8125,
      "sumailalim": 8126,
      "##alagaan": 8127,
      "pagkakal": 8128,
      "nagbub": 8129,
      "nagpapat": 8130,
      "pampubliko": 8131,
      "##osauro": 8132,
      "holly": 8133,
      "pagsasanib": 8134,
      "londres": 8135,
      "buntot": 8136,
      "gonz": 8137,
      "67": 8138,
      "99": 8139,
      "##rato": 8140,
      "##agitan": 8141,
      "##aglat": 8142,
      "##ipo": 8143,
      "##ukay": 8144,
      "nakaligtas": 8145,
      "##antiya": 8146,
      "baguhin": 8147,
      "kayang": 8148,
      "sint": 8149,
      "kinok": 8150,
      "##riev": 8151,
      "umunlad": 8152,
      "opera": 8153,
      "##ious": 8154,
      "pasay": 8155,
      "##insunod": 8156,
      "koleksiyon": 8157,
      "##erte": 8158,
      "##eau": 8159,
      "pagkabuhay": 8160,
      "angkan": 8161,
      "katayuang": 8162,
      "memorial": 8163,
      "aaralan": 8164,
      "hibla": 8165,
      "umpisa": 8166,
      "##relihiyon": 8167,
      "elizabeth": 8168,
      "##sc": 8169,
      "##uce": 8170,
      "##olution": 8171,
      "##etika": 8172,
      "##istikong": 8173,
      "##amana": 8174,
      "##iva": 8175,
      "tatl": 8176,
      "indibiduwal": 8177,
      "kinikilalang": 8178,
      "after": 8179,
      "sumasakop": 8180,
      "portugal": 8181,
      "magkatulad": 8182,
      "service": 8183,
      "fakultad": 8184,
      "equ": 8185,
      "mundong": 8186,
      "ri": 8187,
      "##hra": 8188,
      "kaib": 8189,
      "aso": 8190,
      "binigyang": 8191,
      "patungkol": 8192,
      "nagsus": 8193,
      "pumalit": 8194,
      "aprikano": 8195,
      "dayuhan": 8196,
      "ecija": 8197,
      "texas": 8198,
      "western": 8199,
      "ipinagdiriwang": 8200,
      "dalampasigan": 8201,
      "71": 8202,
      "hita": 8203,
      "zeal": 8204,
      "##yg": 8205,
      "##ayuhan": 8206,
      "##abayan": 8207,
      "##olis": 8208,
      "trentino": 8209,
      "sinag": 8210,
      "aplikasyon": 8211,
      "paglitaw": 8212,
      "lev": 8213,
      "adige": 8214,
      "conf": 8215,
      "spe": 8216,
      "genus": 8217,
      "hukom": 8218,
      "ekonomika": 8219,
      "naghahanap": 8220,
      "mamamahayag": 8221,
      "##encia": 8222,
      "degree": 8223,
      "eksaktong": 8224,
      "lahing": 8225,
      "lasa": 8226,
      "mans": 8227,
      "ud": 8228,
      "##cus": 8229,
      "##yth": 8230,
      "##anim": 8231,
      "karugtong": 8232,
      "nanguna": 8233,
      "lumaon": 8234,
      "disney": 8235,
      "dios": 8236,
      "##umpati": 8237,
      "rept": 8238,
      "konsiy": 8239,
      "1933": 8240,
      "sandata": 8241,
      "katauhan": 8242,
      "bariab": 8243,
      "pampanitikan": 8244,
      "karunungan": 8245,
      "tapat": 8246,
      "##kus": 8247,
      "##com": 8248,
      "##ways": 8249,
      "##alye": 8250,
      "##esp": 8251,
      "##organ": 8252,
      "##opot": 8253,
      "patn": 8254,
      "##rio": 8255,
      "##alimuot": 8256,
      "telep": 8257,
      "romanong": 8258,
      "##ektahan": 8259,
      "1943": 8260,
      "177": 8261,
      "120": 8262,
      "solar": 8263,
      "homoseksuwal": 8264,
      "pagtitipon": 8265,
      "dutch": 8266,
      "ebolb": 8267,
      "##rieved": 8268,
      "hung": 8269,
      "tens": 8270,
      "##ric": 8271,
      "##ps": 8272,
      "pagkah": 8273,
      "ikas": 8274,
      "kabut": 8275,
      "asir": 8276,
      "##acea": 8277,
      "sumasal": 8278,
      "nasira": 8279,
      "pagpop": 8280,
      "##verage": 8281,
      "magsis": 8282,
      "week": 8283,
      "retrieved": 8284,
      "##ospital": 8285,
      "merkado": 8286,
      "mexico": 8287,
      "occidental": 8288,
      "aalis": 8289,
      "fort": 8290,
      "lob": 8291,
      "##ten": 8292,
      "##anak": 8293,
      "##arat": 8294,
      "##aksiyong": 8295,
      "##isadong": 8296,
      "##ipik": 8297,
      "##ipunang": 8298,
      "inhen": 8299,
      "##etz": 8300,
      "##ists": 8301,
      "##upit": 8302,
      "makagawa": 8303,
      "theod": 8304,
      "sumis": 8305,
      "mabuhay": 8306,
      "pagkakap": 8307,
      "phase": 8308,
      "carm": 8309,
      "bulkan": 8310,
      "##ather": 8311,
      "seguridad": 8312,
      "florida": 8313,
      "signal": 8314,
      "lady": 8315,
      "dc": 8316,
      "gdp": 8317,
      "hawa": 8318,
      "kagamit": 8319,
      "sn": 8320,
      "tad": 8321,
      "yah": 8322,
      "##cle": 8323,
      "atm": 8324,
      "##aku": 8325,
      "unawa": 8326,
      "paliwanag": 8327,
      "pagsulong": 8328,
      "pinakamaraming": 8329,
      "buen": 8330,
      "antib": 8331,
      "rehistr": 8332,
      "ugali": 8333,
      "tuld": 8334,
      "pilosopiyang": 8335,
      "design": 8336,
      "pinangang": 8337,
      "films": 8338,
      "##ahimik": 8339,
      "sandatahang": 8340,
      "virginia": 8341,
      "##opotam": 8342,
      "have": 8343,
      "ligtas": 8344,
      "mant": 8345,
      "most": 8346,
      "roc": 8347,
      "sha": 8348,
      "##alunan": 8349,
      "##alisa": 8350,
      "##ature": 8351,
      "##oman": 8352,
      "nakatag": 8353,
      "matibay": 8354,
      "dinam": 8355,
      "kinat": 8356,
      "austral": 8357,
      "etika": 8358,
      "ramos": 8359,
      "know": 8360,
      "sudtir": 8361,
      "parokya": 8362,
      "##intulutan": 8363,
      "metropolitan": 8364,
      "zealand": 8365,
      "kagamitang": 8366,
      "sudtirol": 8367,
      "700": 8368,
      "coc": 8369,
      "ron": 8370,
      "##agda": 8371,
      "##gawa": 8372,
      "##iting": 8373,
      "##oku": 8374,
      "##cho": 8375,
      "##ahilig": 8376,
      "salaping": 8377,
      "itinanghal": 8378,
      "eksk": 8379,
      "reporm": 8380,
      "##asailalim": 8381,
      "conn": 8382,
      "sports": 8383,
      "talata": 8384,
      "acco": 8385,
      "tisyu": 8386,
      "inggles": 8387,
      "bigas": 8388,
      "##60": 8389,
      "nazi": 8390,
      "##init": 8391,
      "##ilian": 8392,
      "##onic": 8393,
      "##ogn": 8394,
      "pinakah": 8395,
      "tumataas": 8396,
      "nananatili": 8397,
      "nagbalik": 8398,
      "relat": 8399,
      "madali": 8400,
      "force": 8401,
      "blue": 8402,
      "tipikal": 8403,
      "1917": 8404,
      "utang": 8405,
      "nalalaman": 8406,
      "storm": 8407,
      "palakasan": 8408,
      "##aginip": 8409,
      "dalawampu": 8410,
      "touchdown": 8411,
      "gun": 8412,
      "if": 8413,
      "porma": 8414,
      "##dal": 8415,
      "pagnan": 8416,
      "##cha": 8417,
      "ginaganap": 8418,
      "halo": 8419,
      "salmon": 8420,
      "pinakamaliit": 8421,
      "phys": 8422,
      "antrop": 8423,
      "moises": 8424,
      "queen": 8425,
      "##quez": 8426,
      "integral": 8427,
      "nararapat": 8428,
      "##roseso": 8429,
      "gor": 8430,
      "kir": 8431,
      "our": 8432,
      "##rich": 8433,
      "##isd": 8434,
      "##abor": 8435,
      "##olar": 8436,
      "katedral": 8437,
      "##anse": 8438,
      "lumago": 8439,
      "indo": 8440,
      "paghinga": 8441,
      "1925": 8442,
      "highway": 8443,
      "swed": 8444,
      "sugat": 8445,
      "states": 8446,
      "atlantiko": 8447,
      "independiyenteng": 8448,
      "##twc": 8449,
      "rebolusyong": 8450,
      "eas": 8451,
      "jtwc": 8452,
      "liv": 8453,
      "mec": 8454,
      "nit": 8455,
      "pier": 8456,
      "##anon": 8457,
      "##alon": 8458,
      "##ulto": 8459,
      "kapis": 8460,
      "kayarian": 8461,
      "kaaway": 8462,
      "sind": 8463,
      "pagsamba": 8464,
      "depin": 8465,
      "##angking": 8466,
      "imperyal": 8467,
      "bigyan": 8468,
      "inihah": 8469,
      "africa": 8470,
      "ritwal": 8471,
      "alaala": 8472,
      "74": 8473,
      "72": 8474,
      "bomb": 8475,
      "eth": 8476,
      "ihi": 8477,
      "##atasan": 8478,
      "##elle": 8479,
      "kani": 8480,
      "malal": 8481,
      "pinakad": 8482,
      "palapag": 8483,
      "ipinat": 8484,
      "tra": 8485,
      "binib": 8486,
      "##ude": 8487,
      "larawang": 8488,
      "tumutulong": 8489,
      "kuwadrado": 8490,
      "screen": 8491,
      "buwis": 8492,
      "ibinalik": 8493,
      "lipunang": 8494,
      "felipe": 8495,
      "gabri": 8496,
      "golden": 8497,
      "football": 8498,
      "praktikal": 8499,
      "dvd": 8500,
      "rural": 8501,
      "##hika": 8502,
      "##yas": 8503,
      "##atil": 8504,
      "##arn": 8505,
      "##osyo": 8506,
      "into": 8507,
      "panrelihiyon": 8508,
      "##reto": 8509,
      "masama": 8510,
      "sala": 8511,
      "andhra": 8512,
      "antio": 8513,
      "kagustuhan": 8514,
      "mapan": 8515,
      "##iff": 8516,
      "nether": 8517,
      "transm": 8518,
      "1919": 8519,
      "puwang": 8520,
      "parisukat": 8521,
      "krusada": 8522,
      "##iliman": 8523,
      "ginagamitan": 8524,
      "champions": 8525,
      "kabaligtaran": 8526,
      "88": 8527,
      "jun": 8528,
      "luna": 8529,
      "pent": 8530,
      "zeus": 8531,
      "##esyon": 8532,
      "##usbong": 8533,
      "##yok": 8534,
      "maih": 8535,
      "mari": 8536,
      "kalk": 8537,
      "manok": 8538,
      "pinakamal": 8539,
      "nagpadala": 8540,
      "medal": 8541,
      "gampan": 8542,
      "strat": 8543,
      "kampo": 8544,
      "pwersang": 8545,
      "konteksto": 8546,
      "water": 8547,
      "stock": 8548,
      "kahalintulad": 8549,
      "abogado": 8550,
      "sumusuporta": 8551,
      "draft": 8552,
      "jma": 8553,
      "kalang": 8554,
      "riv": 8555,
      "##sen": 8556,
      "##siya": 8557,
      "##atic": 8558,
      "##enna": 8559,
      "param": 8560,
      "kals": 8561,
      "makilala": 8562,
      "nex": 8563,
      "inilal": 8564,
      "residente": 8565,
      "dumadaloy": 8566,
      "mamamayang": 8567,
      "paanong": 8568,
      "two": 8569,
      "pangkasalukuyang": 8570,
      "bow": 8571,
      "dj": 8572,
      "mm": 8573,
      "palaw": 8574,
      "yug": 8575,
      "##gy": 8576,
      "##wat": 8577,
      "##iyam": 8578,
      "##ett": 8579,
      "##edes": 8580,
      "bagkus": 8581,
      "namamahala": 8582,
      "##ampung": 8583,
      "##angkat": 8584,
      "reporma": 8585,
      "diyosa": 8586,
      "round": 8587,
      "##atakda": 8588,
      "industriyal": 8589,
      "nawasak": 8590,
      "israelita": 8591,
      "kinakain": 8592,
      "pagkasira": 8593,
      "mutasyon": 8594,
      "inanuns": 8595,
      "bulubundukin": 8596,
      "kalooban": 8597,
      "konsehong": 8598,
      "cand": 8599,
      "##rt": 8600,
      "##lic": 8601,
      "katib": 8602,
      "##entaryo": 8603,
      "aristo": 8604,
      "ikatlo": 8605,
      "apo": 8606,
      "apely": 8607,
      "mineral": 8608,
      "krishna": 8609,
      "photo": 8610,
      "mamaya": 8611,
      "heograp": 8612,
      "turista": 8613,
      "what": 8614,
      "bangka": 8615,
      "sunog": 8616,
      "pagsisiyasat": 8617,
      "permanenteng": 8618,
      "istorya": 8619,
      "dz": 8620,
      "gall": 8621,
      "var": 8622,
      "##ping": 8623,
      "##cion": 8624,
      "##wer": 8625,
      "##aris": 8626,
      "pinar": 8627,
      "nakalagay": 8628,
      "kasaysayang": 8629,
      "alinsunod": 8630,
      "brand": 8631,
      "nations": 8632,
      "ste": 8633,
      "minor": 8634,
      "##intay": 8635,
      "pumayag": 8636,
      "colomb": 8637,
      "suport": 8638,
      "suplay": 8639,
      "surv": 8640,
      "bach": 8641,
      "nawalan": 8642,
      "panggagamot": 8643,
      "flight": 8644,
      "limitado": 8645,
      "tibet": 8646,
      "##ahanggang": 8647,
      "medical": 8648,
      "gagamitin": 8649,
      "83": 8650,
      "titan": 8651,
      "tondo": 8652,
      "vari": 8653,
      "##don": 8654,
      "##nat": 8655,
      "##inh": 8656,
      "##enda": 8657,
      "maaga": 8658,
      "##otiko": 8659,
      "kape": 8660,
      "salamin": 8661,
      "itinampok": 8662,
      "pagpapalabas": 8663,
      "interaksiyon": 8664,
      "pagdur": 8665,
      "madre": 8666,
      "bukid": 8667,
      "##ova": 8668,
      "kaganapang": 8669,
      "makapal": 8670,
      "pagsasaayos": 8671,
      "gubat": 8672,
      "fiber": 8673,
      "tapos": 8674,
      "##hay": 8675,
      "##dong": 8676,
      "##tat": 8677,
      "##vo": 8678,
      "magamit": 8679,
      "katany": 8680,
      "malayong": 8681,
      "matataas": 8682,
      "palest": 8683,
      "tagal": 8684,
      "##egal": 8685,
      "##atao": 8686,
      "humingi": 8687,
      "##untunan": 8688,
      "roon": 8689,
      "olimpikong": 8690,
      "hyp": 8691,
      "binibigyan": 8692,
      "ehers": 8693,
      "sanskr": 8694,
      "major": 8695,
      "interpretasyon": 8696,
      "arsob": 8697,
      "horm": 8698,
      "jon": 8699,
      "site": 8700,
      "##iny": 8701,
      "inumin": 8702,
      "##edo": 8703,
      "##angging": 8704,
      "mamimili": 8705,
      "langu": 8706,
      "board": 8707,
      "commun": 8708,
      "airlines": 8709,
      "mindoro": 8710,
      "pinagtibay": 8711,
      "panukala": 8712,
      "tagapagsalita": 8713,
      "representasyon": 8714,
      "bohol": 8715,
      "organisasyong": 8716,
      "dadaan": 8717,
      "##lon": 8718,
      "##onang": 8719,
      "##abong": 8720,
      "##estr": 8721,
      "kanang": 8722,
      "inawit": 8723,
      "##entang": 8724,
      "matigas": 8725,
      "kabuo": 8726,
      "masus": 8727,
      "gramm": 8728,
      "pakinabang": 8729,
      "estadistika": 8730,
      "nabigo": 8731,
      "posibilidad": 8732,
      "supling": 8733,
      "##luwensiyang": 8734,
      "associated": 8735,
      "konseptong": 8736,
      "potensiyal": 8737,
      "background": 8738,
      "gaano": 8739,
      "##ript": 8740,
      "kalinangan": 8741,
      "country": 8742,
      "ikapitong": 8743,
      "netherlands": 8744,
      "kob": 8745,
      "mesa": 8746,
      "pep": 8747,
      "##angal": 8748,
      "##die": 8749,
      "##rey": 8750,
      "matukoy": 8751,
      "kahawig": 8752,
      "station": 8753,
      "##ecut": 8754,
      "luis": 8755,
      "sapi": 8756,
      "1934": 8757,
      "##romagn": 8758,
      "1918": 8759,
      "italyanong": 8760,
      "halimaw": 8761,
      "capit": 8762,
      "moh": 8763,
      "nik": 8764,
      "nung": 8765,
      "rog": 8766,
      "sya": 8767,
      "##har": 8768,
      "##ws": 8769,
      "##ilig": 8770,
      "maib": 8771,
      "##ogon": 8772,
      "reaksiyon": 8773,
      "makukuha": 8774,
      "kaunl": 8775,
      "akit": 8776,
      "sinumang": 8777,
      "tumigil": 8778,
      "krip": 8779,
      "coach": 8780,
      "pagdid": 8781,
      "korean": 8782,
      "koreanong": 8783,
      "sabado": 8784,
      "hudyong": 8785,
      "1914": 8786,
      "##osaur": 8787,
      "koran": 8788,
      "maxim": 8789,
      "##agsikan": 8790,
      "krisis": 8791,
      "cod": 8792,
      "jim": 8793,
      "kyo": 8794,
      "libo": 8795,
      "##yahan": 8796,
      "##wirang": 8797,
      "##ench": 8798,
      "nagn": 8799,
      "##omon": 8800,
      "##ubig": 8801,
      "##tero": 8802,
      "name": 8803,
      "itinuro": 8804,
      "pagbigkas": 8805,
      "edward": 8806,
      "sambah": 8807,
      "poland": 8808,
      "prodyus": 8809,
      "tuluyang": 8810,
      "enerhiyang": 8811,
      "street": 8812,
      "musikero": 8813,
      "kaayusan": 8814,
      "93": 8815,
      "cort": 8816,
      "corp": 8817,
      "ngalan": 8818,
      "##gada": 8819,
      "##ahen": 8820,
      "##unud": 8821,
      "##usto": 8822,
      "##ures": 8823,
      "##ots": 8824,
      "pangkap": 8825,
      "paglilingkod": 8826,
      "abu": 8827,
      "abd": 8828,
      "pinakamalapit": 8829,
      "##ataang": 8830,
      "sana": 8831,
      "nabigyan": 8832,
      "level": 8833,
      "nasyonal": 8834,
      "nagpapatuloy": 8835,
      "conference": 8836,
      "176": 8837,
      "amerikanang": 8838,
      "daliri": 8839,
      "1922": 8840,
      "mesopotam": 8841,
      "integr": 8842,
      "story": 8843,
      "autonom": 8844,
      "rodrig": 8845,
      "rehistradong": 8846,
      "championship": 8847,
      "katanyagan": 8848,
      "ja": 8849,
      "juni": 8850,
      "kus": 8851,
      "more": 8852,
      "pondo": 8853,
      "##aang": 8854,
      "##get": 8855,
      "##igilan": 8856,
      "nom": 8857,
      "arh": 8858,
      "kapansin": 8859,
      "gintong": 8860,
      "start": 8861,
      "tats": 8862,
      "elias": 8863,
      "commit": 8864,
      "space": 8865,
      "dumaan": 8866,
      "naglaro": 8867,
      "pangkalusugan": 8868,
      "tanakh": 8869,
      "##onesyo": 8870,
      "ehips": 8871,
      "benedic": 8872,
      "kumpletong": 8873,
      "mandir": 8874,
      "dayuhang": 8875,
      "tagapamahala": 8876,
      "gang": 8877,
      "gano": 8878,
      "lal": 8879,
      "usa": 8880,
      "women": 8881,
      "yugtong": 8882,
      "##aru": 8883,
      "anal": 8884,
      "ibn": 8885,
      "##oper": 8886,
      "##oks": 8887,
      "also": 8888,
      "proton": 8889,
      "bahagdan": 8890,
      "barkong": 8891,
      "pass": 8892,
      "159": 8893,
      "bakuna": 8894,
      "program": 8895,
      "1907": 8896,
      "martir": 8897,
      "pangkasaysayan": 8898,
      "ginagampanan": 8899,
      "panukalang": 8900,
      "pagpapakamatay": 8901,
      "protestante": 8902,
      "800": 8903,
      "hugh": 8904,
      "ic": 8905,
      "khan": 8906,
      "laganap": 8907,
      "nig": 8908,
      "ub": 8909,
      "##itibo": 8910,
      "##isi": 8911,
      "pangng": 8912,
      "##irito": 8913,
      "kaparaan": 8914,
      "pagsalakay": 8915,
      "musikal": 8916,
      "universe": 8917,
      "dragon": 8918,
      "##ustin": 8919,
      "1932": 8920,
      "old": 8921,
      "akademikong": 8922,
      "diperensiyal": 8923,
      "magkakaibang": 8924,
      "victoria": 8925,
      "kaparehong": 8926,
      "droga": 8927,
      "inhenyer": 8928,
      "prodyuser": 8929,
      "96": 8930,
      "kenn": 8931,
      "patag": 8932,
      "##gio": 8933,
      "##uer": 8934,
      "##uugnay": 8935,
      "saudi": 8936,
      "##ines": 8937,
      "panulat": 8938,
      "##ubos": 8939,
      "kasarin": 8940,
      "malimit": 8941,
      "##upunta": 8942,
      "##aanim": 8943,
      "mananay": 8944,
      "itinuturo": 8945,
      "tumakas": 8946,
      "pagbaba": 8947,
      "pho": 8948,
      "nahati": 8949,
      "157": 8950,
      "170": 8951,
      "panlalaw": 8952,
      "tubong": 8953,
      "kabiserang": 8954,
      "nakapagp": 8955,
      "solo": 8956,
      "magpahanggang": 8957,
      "dakila": 8958,
      "##azz": 8959,
      "bisaya": 8960,
      "sandali": 8961,
      "eksped": 8962,
      "negosyante": 8963,
      "makabuo": 8964,
      "mike": 8965,
      "alexander": 8966,
      "hipot": 8967,
      "fore": 8968,
      "kipot": 8969,
      "ll": 8970,
      "lv": 8971,
      "moro": 8972,
      "sed": 8973,
      "##gi": 8974,
      "##its": 8975,
      "paga": 8976,
      "##ibusyon": 8977,
      "katuruan": 8978,
      "ipinak": 8979,
      "chan": 8980,
      "nagtagumpay": 8981,
      "subs": 8982,
      "organization": 8983,
      "tanawin": 8984,
      "1929": 8985,
      "##atake": 8986,
      "1910": 8987,
      "ugnay": 8988,
      "##uklok": 8989,
      "department": 8990,
      "##aytay": 8991,
      "gabin": 8992,
      "pinakamaagang": 8993,
      "plaza": 8994,
      "doctor": 8995,
      "gala": 8996,
      "gast": 8997,
      "tony": 8998,
      "##ness": 8999,
      "##isy": 9000,
      "##adya": 9001,
      "##osong": 9002,
      "katabi": 9003,
      "katawang": 9004,
      "##ihag": 9005,
      "ill": 9006,
      "prov": 9007,
      "pray": 9008,
      "leeg": 9009,
      "tsinong": 9010,
      "sentim": 9011,
      "internasyunal": 9012,
      "perform": 9013,
      "singaw": 9014,
      "your": 9015,
      "##pher": 9016,
      "calamba": 9017,
      "istruktura": 9018,
      "posible": 9019,
      "arthur": 9020,
      "kabundukan": 9021,
      "language": 9022,
      "mananayaw": 9023,
      "79": 9024,
      "97": 9025,
      "nh": 9026,
      "som": 9027,
      "tap": 9028,
      "vas": 9029,
      "##fl": 9030,
      "##angga": 9031,
      "##agana": 9032,
      "nick": 9033,
      "katiyak": 9034,
      "##ansiyang": 9035,
      "ikaanim": 9036,
      "prok": 9037,
      "proc": 9038,
      "palad": 9039,
      "pampam": 9040,
      "nilagdaan": 9041,
      "pananakit": 9042,
      "mounta": 9043,
      "##alisasyon": 9044,
      "quantum": 9045,
      "usapan": 9046,
      "caesar": 9047,
      "administratibo": 9048,
      "instrumentong": 9049,
      "russia": 9050,
      "demonyo": 9051,
      "aff": 9052,
      "kaan": 9053,
      "liwasan": 9054,
      "mu": 9055,
      "##oon": 9056,
      "##dor": 9057,
      "##bor": 9058,
      "##ikas": 9059,
      "abr": 9060,
      "##aniwala": 9061,
      "bayad": 9062,
      "box": 9063,
      "nalaman": 9064,
      "##yerto": 9065,
      "ninoy": 9066,
      "helen": 9067,
      "elementarya": 9068,
      "siyentipikong": 9069,
      "ungg": 9070,
      "patriarka": 9071,
      "pnr": 9072,
      "arsobispo": 9073,
      "bomba": 9074,
      "cord": 9075,
      "gur": 9076,
      "hero": 9077,
      "lir": 9078,
      "pba": 9079,
      "wood": 9080,
      "yung": 9081,
      "##11": 9082,
      "##alili": 9083,
      "##alastas": 9084,
      "##aganda": 9085,
      "##ulaklak": 9086,
      "##chu": 9087,
      "##itain": 9088,
      "chief": 9089,
      "binans": 9090,
      "##udo": 9091,
      "pagsunod": 9092,
      "nagsabi": 9093,
      "nagpa": 9094,
      "animation": 9095,
      "dumad": 9096,
      "talento": 9097,
      "madilim": 9098,
      "petsang": 9099,
      "himagsikan": 9100,
      "##atory": 9101,
      "christo": 9102,
      "rodriguez": 9103,
      "junior": 9104,
      "kasarinlan": 9105,
      "aids": 9106,
      "kg": 9107,
      "yu": 9108,
      "##au": 9109,
      "##imina": 9110,
      "##ipit": 9111,
      "alh": 9112,
      "malambot": 9113,
      "marka": 9114,
      "kapatagan": 9115,
      "kayum": 9116,
      "##oyd": 9117,
      "bron": 9118,
      "che": 9119,
      "kritikal": 9120,
      "##ernes": 9121,
      "nagpapatakbo": 9122,
      "ident": 9123,
      "pinakamahabang": 9124,
      "##alamig": 9125,
      "insidente": 9126,
      "##alooban": 9127,
      "debut": 9128,
      "menor": 9129,
      "kapasidad": 9130,
      "84": 9131,
      "cora": 9132,
      "wel": 9133,
      "ngayo": 9134,
      "##ilitar": 9135,
      "##ingo": 9136,
      "parana": 9137,
      "bras": 9138,
      "haligi": 9139,
      "tumatagal": 9140,
      "##ambang": 9141,
      "editor": 9142,
      "naglakbay": 9143,
      "##alabasan": 9144,
      "cris": 9145,
      "pagtatanggol": 9146,
      "embah": 9147,
      "pakikipags": 9148,
      "1908": 9149,
      "sandaling": 9150,
      "nakapaloob": 9151,
      "##akalat": 9152,
      "istilo": 9153,
      "eskos": 9154,
      "denom": 9155,
      "inhinyeriyang": 9156,
      "babilonya": 9157,
      "million": 9158,
      "pinapatakbo": 9159,
      "hitsura": 9160,
      "oksiheno": 9161,
      "katibayan": 9162,
      "colombia": 9163,
      "dos": 9164,
      "eat": 9165,
      "gul": 9166,
      "gri": 9167,
      "rab": 9168,
      "##yod": 9169,
      "##agis": 9170,
      "magaling": 9171,
      "##andog": 9172,
      "tela": 9173,
      "teolohiya": 9174,
      "nabibilang": 9175,
      "saksi": 9176,
      "##lyn": 9177,
      "allah": 9178,
      "umaayon": 9179,
      "bangkay": 9180,
      "armen": 9181,
      "##sky": 9182,
      "namumuno": 9183,
      "komposisyon": 9184,
      "website": 9185,
      "websayt": 9186,
      "kalangitan": 9187,
      "duke": 9188,
      "lig": 9189,
      "mort": 9190,
      "turing": 9191,
      "tower": 9192,
      "##rub": 9193,
      "naimpluwensiyahan": 9194,
      "along": 9195,
      "##edya": 9196,
      "kabite": 9197,
      "makal": 9198,
      "salv": 9199,
      "mahina": 9200,
      "pagpapah": 9201,
      "paktor": 9202,
      "158": 9203,
      "monte": 9204,
      "nakakalipas": 9205,
      "ipinagpatuloy": 9206,
      "##uchi": 9207,
      "detalye": 9208,
      "bihirang": 9209,
      "tagapagpaganap": 9210,
      "maharlikang": 9211,
      "gagawin": 9212,
      "##aceae": 9213,
      "ehipsiyo": 9214,
      "average": 9215,
      "bakas": 9216,
      "bacteria": 9217,
      "tsa": 9218,
      "##sr": 9219,
      "##his": 9220,
      "##rin": 9221,
      "##oo": 9222,
      "##ku": 9223,
      "##aslang": 9224,
      "##aming": 9225,
      "##eres": 9226,
      "##rep": 9227,
      "kinar": 9228,
      "##ambuhay": 9229,
      "reper": 9230,
      "nascar": 9231,
      "link": 9232,
      "nagpahayag": 9233,
      "harapan": 9234,
      "emilio": 9235,
      "merong": 9236,
      "gales": 9237,
      "russell": 9238,
      "##kripsiyon": 9239,
      "hydro": 9240,
      "aurora": 9241,
      "##ecutive": 9242,
      "gabinete": 9243,
      "gard": 9244,
      "lalam": 9245,
      "seksiyon": 9246,
      "##ique": 9247,
      "##agp": 9248,
      "##atra": 9249,
      "##akot": 9250,
      "##ipal": 9251,
      "karatig": 9252,
      "chic": 9253,
      "natatag": 9254,
      "pagsukat": 9255,
      "paglusob": 9256,
      "artipis": 9257,
      "karamihang": 9258,
      "burol": 9259,
      "sinusundan": 9260,
      "tagapangulo": 9261,
      "iwan": 9262,
      "##unction": 9263,
      "gradw": 9264,
      "psy": 9265,
      "simbolong": 9266,
      "saserdote": 9267,
      "eksklus": 9268,
      "dila": 9269,
      "lobo": 9270,
      "plast": 9271,
      "##ters": 9272,
      "##yak": 9273,
      "##olos": 9274,
      "kanan": 9275,
      "anibers": 9276,
      "marie": 9277,
      "kabataang": 9278,
      "lumaban": 9279,
      "tumira": 9280,
      "pagtingin": 9281,
      "##igao": 9282,
      "##anaig": 9283,
      "leo": 9284,
      "reprod": 9285,
      "imahen": 9286,
      "1931": 9287,
      "tulungan": 9288,
      "##ologong": 9289,
      "arabia": 9290,
      "pinangung": 9291,
      "sekund": 9292,
      "pagkatuto": 9293,
      "matatanda": 9294,
      "##agsikang": 9295,
      "kompleks": 9296,
      "artipisyal": 9297,
      "oro": 9298,
      "opin": 9299,
      "ti": 9300,
      "##yor": 9301,
      "##alibot": 9302,
      "##inam": 9303,
      "sic": 9304,
      "panib": 9305,
      "nakam": 9306,
      "##ihis": 9307,
      "malolos": 9308,
      "pangkomp": 9309,
      "mabagal": 9310,
      "nagtut": 9311,
      "##intahan": 9312,
      "##mann": 9313,
      "extr": 9314,
      "babala": 9315,
      "tuluyan": 9316,
      "1924": 9317,
      "region": 9318,
      "aktuwal": 9319,
      "pwesto": 9320,
      "paglilitis": 9321,
      "kakaiba": 9322,
      "simon": 9323,
      "spesipikong": 9324,
      "bariabulo": 9325,
      "82": 9326,
      "babas": 9327,
      "tir": 9328,
      "##me": 9329,
      "##lot": 9330,
      "##ayaran": 9331,
      "##ipa": 9332,
      "pangasiwaan": 9333,
      "input": 9334,
      "pinans": 9335,
      "algor": 9336,
      "##upin": 9337,
      "gram": 9338,
      "magkap": 9339,
      "humiwalay": 9340,
      "organismong": 9341,
      "depresyon": 9342,
      "naghari": 9343,
      "paghahambing": 9344,
      "moralidad": 9345,
      "kontempor": 9346,
      "##ridge": 9347,
      "aksidente": 9348,
      "columbia": 9349,
      "hollywood": 9350,
      "konsiyerto": 9351,
      "lolo": 9352,
      "##kon": 9353,
      "##cel": 9354,
      "##agutan": 9355,
      "##ilib": 9356,
      "##umen": 9357,
      "##esi": 9358,
      "panatil": 9359,
      "bilangg": 9360,
      "##anth": 9361,
      "##antino": 9362,
[...]
