[PAD]
[UNK]
[CLS]
[SEP]
[MASK]
!
"
#
$
%
&
'
(
)
*
+
,
-
.
/
0
1
2
3
4
5
6
7
8
9
:
;
<
=
>
?
@
[
\
]
^
_
`
a
b
c
d
e
f
g
h
i
j
k
l
m
n
o
p
q
r
s
t
u
v
w
x
y
z
{
|
}
~
¡
¢
£
¥
§
«
¬
®
°
±
²
³
´
µ
·
¹
º
»
½
¾
¿
×
ß
æ
ð
ø
þ
đ
ħ
ı
ł
ŋ
œ
ƒ
ƣ
ɐ
ɑ
ɒ
ɔ
ɕ
ə
ɛ
ɝ
ɡ
ɣ
ɤ
ɨ
ɪ
ɬ
ɯ
ɲ
ɵ
ɹ
ɾ
ʁ
ʂ
ʃ
ʊ
ʋ
ʌ
ʒ
ʔ
ʨ
ʰ
ʲ
ʷ
ʹ
ʻ
ʼ
ʾ
ʿ
ˁ
ˈ
ˌ
ː
˨
˩
΄
α
β
γ
δ
ε
ζ
η
θ
ι
κ
λ
μ
ν
ξ
ο
π
ρ
ς
σ
τ
υ
φ
χ
ψ
ω
а
б
в
г
д
е
ж
з
и
к
л
м
н
о
п
р
с
т
у
ф
х
ц
ч
ш
щ
ъ
ы
ь
э
ю
я
і
ј
љ
ћ
џ
ѡ
ғ
ҙ
қ
ҡ
ҫ
ү
һ
ӕ
ә
ө
ԁ
ԃ
ԅ
ԇ
ԉ
ԙ
ԛ
ԝ
ԟ
ա
ե
զ
ի
լ
կ
հ
մ
յ
ն
ո
ս
վ
տ
ր
ւ
־
א
ב
ג
ד
ה
ו
ז
ח
ט
י
ך
כ
ל
ם
מ
ן
נ
ס
ע
ף
פ
ץ
צ
ק
ר
ש
ת
ײ
״
ء
ا
ب
ة
ت
ث
ج
ح
خ
د
ذ
ر
ز
س
ش
ص
ض
ط
ظ
ع
غ
ـ
ف
ق
ك
ل
م
ن
ه
و
ى
ي
پ
چ
ڠ
ک
گ
ہ
ۇ
ی
ە
ܐ
ܓ
ܘ
ܡ
ܢ
क
ख
ग
ज
ट
ठ
ड
त
द
ध
न
प
ब
भ
म
य
र
ल
व
श
ष
स
ह
ा
ि
ी
ो
ং
ক
গ
দ
ন
ব
ম
র
ল
া
ে
ર
ા
ப
ು
ത
ാ
ය
ල
ව
ා
ෙ
ก
ข
ค
ง
จ
ช
ณ
ด
ต
ถ
ท
ธ
น
บ
ป
ผ
พ
ภ
ม
ย
ร
ล
ว
ศ
ษ
ส
ห
อ
ะ
า
ำ
เ
แ
โ
ใ
ไ
າ
་
ག
ད
ན
པ
བ
མ
འ
ར
ལ
ས
မ
သ
ာ
ა
ბ
დ
ე
ვ
ი
ნ
ო
რ
ს
ქ
ᄀ
ᄂ
ᄃ
ᄄ
ᄅ
ᄆ
ᄇ
ᄉ
ᄊ
ᄋ
ᄌ
ᄎ
ᄏ
ᄐ
ᄑ
ᄒ
ᅡ
ᅢ
ᅣ
ᅥ
ᅦ
ᅧ
ᅨ
ᅩ
ᅪ
ᅬ
ᅭ
ᅮ
ᅯ
ᅱ
ᅲ
ᅳ
ᅴ
ᅵ
ᆨ
ᆫ
ᆯ
ᆷ
ᆸ
ᆺ
ᆼ
ሕ
ን
ᜀ
ᜁ
ᜂ
ᜃ
ᜄ
ᜅ
ᜆ
ᜇ
ᜈ
ᜉ
ᜊ
ᜋ
ᜌ
ᜍ
ᜎ
ᜏ
ᜐ
ᜑ
᜵
᜶
ក
ព
ា
‐
–
—
‘
’
“
”
†
•
…
‧
′
″
‹
›
⁄
ⁿ
₨
₩
€
₱
ℓ
℟
℣
⅓
→
↔
∂
∅
∇
∈
−
√
∞
∧
∴
≈
≤
≥
☆
♠
♥
⟨
⟩
ⲟ
ⴻ
ⵏ
ⵓ
ⵔ
ⵜ
。
「
」
〜
ぁ
あ
ぃ
い
う
ぇ
え
お
か
き
く
け
こ
さ
し
す
せ
そ
た
ち
っ
つ
て
と
な
に
の
は
ひ
ふ
へ
ほ
ま
み
む
め
も
ゃ
や
ゅ
ゆ
よ
ら
り
る
れ
ろ
わ
を
ん
゜
ァ
ア
ィ
イ
ゥ
ウ
ェ
エ
ォ
オ
カ
キ
ク
ケ
コ
サ
シ
ス
セ
タ
チ
ッ
ツ
テ
ト
ナ
ニ
ネ
ハ
ヒ
フ
ヘ
ホ
マ
ミ
ム
メ
モ
ャ
ヤ
ュ
ョ
ラ
リ
ル
レ
ロ
ワ
ン
・
ー
一
万
三
上
不
与
世
东
中
主
乃
之
九
事
二
亚
交
京
人
仁
他
仙
代
以
们
仮
伊
会
伝
作
使
俊
保
信
儿
元
先
光
克
全
八
公
六
共
内
军
出
別
利
到
制
前
功
勝
化
北
區
十
千
南
原
叉
口
古
台
史
号
司
吉
同
名
后
君
周
呼
命
和
品
哈
商
四
国
國
園
在
地
城
基
堂
場
士
多
夜
夢
大
天
太
奇
奈
女
好
如
始
娘
子
字
孝
学
學
宇
安
宋
宏
宗
宮
家
富
寺
寿
尊
小
少
尔
尹
屋
山
岐
岡
岩
島
崎
川
州
工
市
帝
師
平
年
幻
府
建
式
後
御
心
忍
志
思
恋
想
愛
慶
成
我
戦
戯
戸
所
抄
拳
摩
放
政
文
斗
新
方
日
早
明
易
星
時
普
智
書
最
會
月
有
朝
木
本
朴
杉
李
村
条
来
東
松
林
校
株
桜
森
業
橋
歌
正
武
民
気
水
永
汉
江
沙
沢
河
治
泉
法
流
浩
海
清
港
漢
澳
濟
熊
牛
物
特
犬
獣
玉
王
珠
球
理
琉
瓊
生
田
界
白
百
的
皇
省
真
督
石
社
神
福
秀
秋
科
空
立
第
等
精
紀
紅
線
羅
羊
美
義
羽
者
聖
能
臣
舞
航
花
英
茶
草
華
葉
藤
蘭
行
術
衛
西
見
角
記
話
語
論
语
貴
賞
身
軍
送
通
遊
道
那
邪
郎
部
郷
都
酒
里
野
金
録
長
門
開
阪
阿
陈
院
陸
陽
隊
際
集
雪
霊
青
韓
音
香
馬
高
魔
鹿
麗
龍
ꜣ
ꦗ
ꦱ
！
（
）
，
－
：
ｍ
～
𐎗
𐎘
𐎚
𐐯
##e
##m
##a
##s
##h
##i
##r
##o
##k
##g
##p
##l
##c
##q
##u
##d
##n
##t
##y
##z
##b
##w
##v
##о
##ר
##ד
##כ
##י
##f
##j
##x
##4
##3
##6
##9
##8
##7
##ע
##צ
##מ
##א
##ו
##ת
##ᅡ
##ᆸ
##5
##ᜄ
##ᜉ
##ᜎ
##ᜌ
##ᜈ
##ק
##ל
##ʻ
##0
##ᅩ
##ᆼ
##ᄆ
##ᅧ
##ᄋ
##ᅪ
##ᄅ
##ᅳ
##ן
##2
##1
##ב
##נ
##פ
##ש
##ษ
##ณ
##โ
##ล
##ก
##ℓ
##а
##н
##ж
##ι
##ν
##ε
##α
##ς
##ł
##и
##к
##л
##θ
##æ
##τ
##ρ
##π
##ο
##δ
##η
##у
##ा
##ह
##р
##д
##з
##ا
##ز
##ق
##ل
##ف
##ج
##ر
##ン
##ナ
##キ
##モ
##チ
##ω
##γ
##φ
##タ
##ー
##ᅮ
##ᄑ
##ᅵ
##ᅦ
##ᆷ
##ح
##с
##т
##е
##ч
##±
##°
##μ
##σ
##κ
##λ
##б
##ј
##ה
##ъ
##ם
##ш
##ф
##в
##ь
##я
##ᜃ
##ᜆ
##ᜅ
##ག
##ᅥ
##ع
##ي
##ة
##ħ
##ц
##ल
##ی
##خ
##س
##و
##υ
##م
##♠
##ك
##ء
##г
##ख
##ᄌ
##ว
##ต
##п
##і
##ه
##χ
##ץ
##ب
##ہ
##ы
##ᅬ
##ᆫ
##ᄉ
##ᆯ
##ठ
##न
##м
##ƣ
##ə
##ɪ
##ˈ
##ɛ
##ᅢ
##ن
##ː
##ラ
##コ
##³
##د
##ᅲ
##ᜁ
##ᜋ
##×
##ᜀ
##ᄒ
##ᆨ
##ᄀ
##ᅭ
##พ
##ช
##ร
##บ
##ᆺ
##ᄃ
##ت
##ɹ
##щ
##ᅣ
##ɔ
##ɑ
##х
##ᜍ
##ס
##ڠ
##く
##れ
##𐎚
##ـ
##ص
##ᅴ
##ミ
##ッ
##ク
##า
##จ
##ง
##ห
##ด
##ß
##ە
##ى
##ش
##ז
##ᜐ
##เ
##ท
##ม
##น
##ค
##ۇ
##ა
##ბ
##ξ
##ถ
##ย
##ח
##か
##り
##ふ
##る
##ᄇ
##ᄐ
##ʰ
##ᅨ
##ไ
##қ
##າ
##ա
##տ
##ր
##º
##テ
##ィ
##ı
##ט
##ɡ
##ɵ
##ɯ
##ʋ
##ի
##ե
##ト
##ワ
##ケ
##ウ
##ォ
##э
##ᜇ
##đ
##ث
##ɣ
##お
##ち
##て
##ᅯ
##ʁ
##ظ
##ײ
##ম
##ব
##গ
##イ
##カ
##フ
##ェ
##ү
##ø
##ʃ
##あ
##は
##～
##−
##ˌ
##ʂ
##ル
##な
##し
##シ
##½
##ใ
##ར
##マ
##ャ
##ʒ
##ɨ
##ط
##ⁿ
##ᄏ
##ᄂ
##と
##す
##み
##☆
##ᄄ
##ᄎ
##ʊ
##ð
##レ
##ʌ
##ニ
##メ
##ア
##ス
##ホ
##オ
##र
##त
##ぁ
##っ
##श
##स
##ะ
##ส
##อ
##け
##ɝ
##ˁ
##つ
##ら
##き
##ܘ
##ܐ
##া
##ল
##ন
##ⵔ
##ⵜ
##ⴻ
##ⵏ
##ា
##ក
##ព
##β
##ک
##˨
##˩
##も
##の
##ན
##ሕ
##リ
##ロ
##ذ
##う
##そ
##ད
##ા
##ᄊ
##œ
##ɾ
##म
##エ
##ᜊ
##ネ
##ो
##ट
##ी
##ツ
##ን
##ћ
##た
##め
##に
##ष
##ि
##چ
##い
##ん
##ろ
##བ
##ム
##ᜑ
##®
##ŋ
##む
##ɒ
##भ
##ʼ
##²
##¾
##ܢ
##よ
##ⵓ
##ハ
##サ
##ꜣ
##མ
##ས
##ᅱ
##さ
##द
##ო
##დ
##ნ
##ᜂ
##ภ
##گ
##ʾ
##မ
##ာ
##သ
##ョ
##ʷ
##ζ
##غ
##ক
##র
##ज
##ю
##լ
##ս
##क
##ま
##や
##व
##ァ
##प
##ュ
##΄
##ව
##ය
##ා
##ල
##ग
##¢
##ෙ
##ड
##ܡ
##ર
##پ
##ג
##ธ
##ქ
##ი
##ാ
##ɕ
##ᜏ
##ำ
##པ
##འ
##ヘ
##ض
##ข
##ヒ
##ལ
##を
##ത
##ป
##य
##ғ
##ә
##´
##љ
##մ
##կ
##𐐯
##え
##ʲ
##ʹ
##ף
##ध
##せ
##յ
##ն
##こ
##ｍ
##զ
##ꦗ
##ɐ
##ひ
##ө
##∞
##ꦱ
##ո
##ւ
##µ
##ψ
##ʿ
##দ
##џ
##ศ
##ე
##ს
##რ
##ং
##ে
##ɬ
##ผ
##แ
##¹
##ぃ
##→
##ぇ
##վ
##հ
##わ
##ゆ
##þ
##𐎘
##𐎗
##ɲ
##ப
##⁄
##ゃ
##ゥ
##¥
##ほ
##ゅ
##ʔ
##ვ
##ך
##₱
##¬
##ब
##ҡ
##ܓ
##セ
##ヤ
##ⲟ
##ು
##ng
##ang
##an
na
sa
ng
##al
##in
##ag
ang
##at
##ga
##as
##il
mga
##ar
##ay
##on
##am
ay
##it
##ong
at
##ak
##ul
##er
##ah
##ing
##is
##ap
is
##ab
##ik
##iy
pag
##aw
##to
##un
##ad
##en
isang
##um
##es
##or
##os
nag
##ig
##im
##ilang
##ip
##us
##ol
##el
pang
no
ito
##iya
##ur
##id
##ib
kan
##ung
##yon
##ro
noong
si
may
in
##ula
par
##om
pin
##uk
pam
ni
##ala
##ut
##et
##em
##od
pan
##ub
##ir
19
un
bilang
##yang
##ya
an
##di
mag
nak
ib
##ist
kat
kas
##ic
##yo
##ek
ta
20
hin
##ito
pagk
##ent
##op
##ans
##alaw
##ih
##ug
##st
##re
##ayan
para
##ok
ma
##and
##ot
siya
al
mula
ar
##iw
mal
##uh
##asyon
mat
##ant
kanyang
##ilip
it
hindi
##og
##awa
##ed
mar
##inas
##ers
##alang
kar
##up
##ila
##angg
il
##itan
re
##ina
kap
##ia
##ion
ik
kab
kung
bag
##aan
##iyang
##yong
th
pilip
##uw
nang
##le
##ob
##ahan
kal
nito
##pin
tin
##amit
##ika
mak
mas
##ian
##ch
##pang
##iko
pa
gin
##pap
##uan
##alan
##ita
##tr
pro
##eb
##ahil
##atag
pr
##ama
##abas
##alak
##sa
pinak
200
##und
upang
pilipinas
kay
man
est
##oy
isa
ka
##ter
pal
##amang
tag
##ens
br
##ta
##ano
dahil
##idad
##ahat
ipin
hal
ak
##aman
tr
am
the
sin
bah
##aro
din
as
iba
bat
##alawang
ch
##iyon
or
##ari
rin
hangg
pamam
nat
##apos
nam
##ac
bin
##sod
unang
##isyon
##ilala
##ud
lum
pags
##les
pat
##mp
##ungsod
de
##lo
of
##agi
lungsod
##eh
sal
##aba
##imb
##eng
kin
sum
##aring
##iv
201
##ado
##awan
##eg
##ulad
nags
ika
naging
kah
maa
##awag
hanggang
kon
bans
##ri
kanilang
##ili
panah
itin
ap
tum
tao
##oh
pagt
##alag
ibang
##ero
##ulang
##ino
pangk
##ma
niya
##ulat
##aka
##emb
##iga
mah
pagl
kom
gr
ab
ing
##angan
##pan
saan
##atay
pamamag
##abang
bayan
##ha
##asan
##tor
##00
##da
##ism
lo
pagb
##igan
pamamagitan
##ihan
##apag
##agamit
bahagi
##ikong
##uo
pinakam
st
##ulo
##unit
##ata
##ikang
18
lamang
maram
es
nasa
ayon
maaaring
ingles
##anap
san
##alo
ilang
pagpap
gay
##apon
##alik
ag
en
##amp
##ikal
ngunit
lab
##ep
##angk
mab
##amb
##ort
dalawang
##ating
##lal
min
##unod
ser
##ista
panahon
tinat
pagkak
##yal
kum
taong
##tur
##unan
hapon
##ation
##uhay
gum
kr
##aniw
##la
##est
da
##ilangan
##ahing
##ec
sh
##orm
ek
##agang
taon
##puan
##lat
##ali
bar
##ento
nap
lu
##yemb
##atapos
pinag
##apat
##yembre
tim
##yan
##las
kasama
and
##ulong
imp
##ra
nan
##ard
lahat
##ismo
##eks
pap
um
hul
mil
bu
lalaw
##alim
op
##oc
##unang
mayro
pangun
pamb
nagt
##ays
##igay
pel
lalawigan
##ce
pun
ind
##long
##ern
##imula
bansa
##ahang
kilala
##io
maraming
araw
##ungk
walang
tat
##era
##ibers
ed
tinatawag
matatag
pelik
pangunahing
##ue
pak
199
##ity
pop
##atang
magk
dis
nagb
##adal
##ahala
##iyos
##ada
##aga
hil
##agawa
art
tel
##igit
sila
karaniw
amer
pagkatapos
part
##ana
unibers
loob
pas
##oloh
aw
el
te
##ow
ginagamit
##aas
matatagpuan
kam
##imp
kabilang
com
estad
##ubl
##itong
##alit
##res
##ayag
ne
ph
sina
tulad
uri
nab
##gar
inil
nagk
sub
di
##ine
sar
pamp
##anganak
itong
malak
##uku
nil
naman
mus
timog
unibersidad
mang
##ago
##aroon
wikang
popul
##iling
##ain
le
##ore
ant
pagh
rom
panan
bagong
habang
##itang
kasal
anak
198
##ump
##na
inter
kaniyang
bum
rep
dito
sam
hum
##ara
buong
sak
##undo
##unt
diyos
##inal
##aran
##anda
##int
##uno
##iging
mul
##eo
baba
##anan
##end
nah
nas
##asa
pagga
##hi
ts
lin
siyang
to
##bol
##agat
ad
##erm
karaniwang
##ador
##apit
unid
##istr
kil
##ulug
pangalan
nagp
##asang
estados
##lur
##uhan
unidos
nagpap
kasaluku
con
##ubuo
##ayang
bas
pagitan
kag
simb
##eral
ipinanganak
##ansang
##th
reh
##abi
##so
##aling
##agd
##uha
##wa
##ate
##una
##ugn
##aral
##ukoy
bago
##ey
##asyong
pl
##dig
##alaking
sp
pol
##ebisyon
kaya
##ins
sist
##awat
##ast
##ikha
197
##ord
gawa
mundo
##anong
##iz
karam
katulad
kanlur
##arawan
15
##ye
buhay
populasyon
##akas
lup
##siyon
##ork
res
##iyong
silang
kul
##ayo
##ivers
##ekt
sistem
##uc
isin
lugar
dating
bal
bansang
palabas
##adong
nob
map
##aya
##igdig
maging
ilalim
tatlong
##sik
##onom
pum
##bay
univers
mam
##ibong
##lalaro
10
telebisyon
aaral
bawat
##isa
##uto
pelikula
dig
##angay
kapag
rel
##uring
##ao
pos
##ayon
##igh
pagp
kol
pambansang
##ipag
anim
##yar
##if
pamahala
esp
itinatag
##ente
estado
mod
##ahati
##gap
##ill
196
##ie
im
##iwan
batas
##bo
sig
##uloy
##agan
##gr
tungk
194
tang
17
##ular
se
pareh
mayroong
pamil
nagm
he
panl
000
car
nila
##ibo
##ustr
##av
##api
##tura
eur
##ran
id
12
col
co
16
##ida
kons
sup
##alaki
##ly
pagd
##usyon
dum
##mit
halimb
##abing
##asal
##apan
tub
##ura
ip
ok
##art
apat
hen
halimbawa
karamihan
##alawak
nagl
##ulan
tagapag
mon
babae
aklat
##alay
prod
##uang
sinas
##qu
opis
##nila
nakak
##andang
##ert
malaking
me
##co
klas
##anta
paar
##ond
pagbab
so
alb
on
##ensiya
lar
##iniw
##hang
##ish
##ira
met
##awang
maynila
195
pangkat
po
gamit
##ibigay
tal
##ess
##panya
higit
##alabas
ep
##uri
##osto
##ell
wika
##ahayag
europ
##gan
salitang
nakat
##man
hilagang
##alaga
##tong
kasalukuyang
parehong
##uro
lim
amerik
##ati
mo
##olohiya
##san
dr
bagay
##ido
##akita
##land
##iba
binubuo
new
gaya
kore
##zon
##arian
git
ikalawang
ex
##ilan
##isip
##umb
la
##ungan
pamahalaan
11
##all
laban
##ugnay
krist
university
tumut
komp
##ril
niyang
panahong
##ingg
sap
awit
opisyal
##ham
distr
##rop
ac
##ial
##ebr
mataas
14
mayroon
bul
bak
##alagang
##ite
pil
lib
prans
gen
tit
subalit
##apang
ngayon
manlalaro
##ies
ug
ban
ring
##ge
katawan
kak
grup
huling
##ack
be
pinam
##ante
pab
##ust
nina
##aysayan
pagiging
ina
##oto
dir
inst
set
ob
##araan
##alis
pakik
barangay
##atawan
13
tun
bagaman
##lad
##iran
lang
##sak
mad
sens
##ekto
##wal
pant
silangang
naglal
sent
##eman
##ind
kuw
##asak
nangang
##sp
##dia
##ver
panda
sc
matapos
med
sel
pamant
huk
##usunod
##te
paaralan
siglo
kalak
##iit
rehiyon
ginawa
kadal
tungkol
kop
193
##ath
cr
lik
intern
kristiy
madal
silangan
##po
kast
pagtat
kanluran
##iniwala
##isang
##ipunan
kahit
buk
##lam
imper
buw
dagat
har
nagd
album
##ungo
##ose
kasaysayan
##alya
del
pis
republ
net
paggamit
disyembre
##uturing
##rom
##ulot
##ich
##abaw
pilipino
partik
nahahati
##irang
##ena
##ulugan
##ark
tubig
##ubre
nagsimula
malapit
organ
2000
##alig
aleman
qu
ama
mayo
dal
enero
pandaigdig
nakik
us
for
trans
##hip
##aryo
katang
##uwal
katao
sab
naka
gam
griy
bib
eb
muling
iyon
##tos
##ive
##abah
produk
griyeg
##utbol
punong
per
##hal
sy
philip
emp
##ato
daan
##iwanag
sch
halos
ding
pangkal
abril
hun
##nang
dek
marso
pangulo
okt
ul
neg
tem
##aganap
lat
kanya
##tion
##ical
siy
##umang
ekonom
agham
bl
bay
agosto
oktubre
pangang
##ton
lit
##utan
pinakamalaking
hay
##angalan
hud
##oses
sing
2010
artista
sinaunang
tan
##esus
maliit
lalaki
##aban
##iwalay
dep
ur
ibin
paraan
##ilb
##isyong
pres
pelikulang
pers
##han
25
##asok
##awit
##eta
hulyo
##yay
ro
##way
##eksiyon
##ment
##ne
##atid
hang
##ihang
pamilya
##ral
ilog
##usan
kabis
##ones
##ff
nagkaroon
##inong
##uth
teor
##ami
##ukat
pinaka
bab
nobyembre
philippin
sik
##ebrero
ii
nagh
hunyo
kur
simula
pebrero
dapat
prop
##iwa
##work
papa
romano
prob
progr
setyembre
##ight
##ck
##atili
gayun
##ov
nakapag
grupo
tip
ilan
##angyar
trad
malawak
##ela
hapones
##onan
##alawa
sining
kasapi
orih
anyo
big
gus
##ling
30
##erb
sarili
senso
orihinal
##ilis
katol
##omet
kapangyar
##iyo
namatay
cl
##elo
tul
maaari
##ice
sol
##umpay
192
lok
##aliksik
term
rus
network
tsina
##ement
##awak
##kol
daang
##atak
##orn
sistemang
pagsas
2007
##abot
ginamit
##anggap
int
tur
ol
##olog
mags
##ataas
gre
buwan
cent
##abag
kastila
fran
##ary
gu
nagmula
##ez
sistema
rad
sumusunod
itinuturing
##unta
##str
pangkalahat
pagkaka
bro
oras
simbahan
##ius
##aryong
##ons
kabu
##agk
##ost
lupa
korea
sakit
kaw
bo
##lim
##ev
kabah
do
##ko
asya
kinab
##ors
##ry
##ulugang
hilaga
##ono
pagg
191
##abaho
relih
##maang
hom
hari
##per
instit
##inang
europa
##orp
pinuno
ter
hesus
nar
em
milyong
##ional
dekada
hayop
##utub
##along
yo
kontr
##atan
21
sur
gitnang
gan
pans
##oro
que
sen
wh
digmaang
una
miy
pook
pangalang
can
pul
kapatid
kabisera
nitong
##itaw
##alita
##alidad
##enta
kadalasang
emper
form
austr
bit
##ulta
tak
magp
lag
##enyo
##ket
##itor
##ahi
anumang
partikular
pakikipag
ba
bahay
##ith
reg
ass
sul
##ide
puw
comm
manun
batang
##do
##ica
##ahin
##paman
##istang
serb
##ft
2011
juan
pagm
##irahan
##aki
2008
24
##iral
pre
tumutukoy
komun
gayunpaman
##itika
##atlong
##adala
##son
salita
madalas
ko
marami
her
##syon
pagsus
##unin
bata
tala
##ihin
##age
##iang
marc
##kas
##iyak
kala
##ayong
##alog
linya
kinabib
##lor
##ikasyon
kapul
espes
##usay
##unuan
tek
samant
pulo
##nan
##iss
alam
rec
koleh
##ba
nangangah
##hel
##ormal
futbol
##uns
##ea
mer
##ka
bers
limang
kilalang
##uti
##uy
##ugo
kapangyarihan
nagbibigay
##maan
prot
23
##kr
griyego
ig
miyemb
kinabibilangan
pamum
##agal
##olo
gumagamit
tuw
##itar
ah
sob
##anay
kanlurang
##iyal
serye
apr
##ona
kabahayan
22
##hin
kulay
##alaman
kaharian
##ve
batay
joh
nagsis
nort
et
ehip
##osop
antas
##agdag
all
laro
klaseng
##leng
##tin
##luw
##ipas
##yayari
pet
dak
##atayan
pinap
emperador
kong
uma
air
jose
miyembro
##onya
pand
##az
##ear
inilabas
##esa
ugn
bibl
digmaan
nal
pagkain
gaw
##arap
##bong
##ektor
asawa
aawit
##ail
##uter
dem
##arang
##iwang
pagbabago
modern
simbahang
katangian
ir
##ool
##der
makik
papel
ce
eduk
koponan
##ca
pati
##erh
estasyon
industr
wala
2006
2009
##ress
##enida
umi
mamam
daigdig
larangan
naglalaman
##ler
##ipe
kamatayan
##ibil
str
##iks
##ental
##ld
katoliko
seks
##yer
##ason
##eno
sil
sanhi
isinulat
ibig
##esis
paggawa
190
pus
##ibid
##ence
##ema
pinakamah
up
pangalawang
tunay
lay
26
pangh
##ipat
kaysa
bis
noon
##emat
##uhang
katutub
lalo
##imulang
muli
##pany
amerika
colle
republika
ark
pagkakaroon
##aysay
maria
##ti
##ph
##yag
##yano
##isto
napak
pranses
##rap
##atuloy
inih
##enc
gumawa
27
ped
##alagay
abenida
titik
189
nagsas
biy
##sang
##ij
kasalukuyan
##ahe
##tas
##oci
##orld
kahulugan
but
##isyo
kamp
##lang
proses
pilosop
labas
italya
minist
gob
samp
28
char
##min
##ismong
espanya
ben
tanging
lingg
manunulat
##de
##atas
pampubl
##anggit
##ick
mun
school
paglal
bil
sariling
akt
kakay
##udi
nin
##ayos
ari
amerikano
award
nakab
kristiyano
latin
##ere
kump
##iano
##akop
##ash
ini
##kod
city
karagd
tinawag
amerikanong
##uel
go
sand
fo
##ibig
##irap
world
##yeng
##alam
##one
##inig
lokal
er
##unlad
##ukl
##aging
##awid
philippine
pangkalahatang
##ihim
taga
eksp
##araang
magb
##ex
##tan
##iel
tagalog
##abay
100
##ann
##ugto
##osa
his
john
pangm
##lin
mater
rey
ut
##agam
halaga
gawain
quezon
indones
##ure
ehipto
dok
##ser
nakap
##enteng
abs
##akal
lumang
dam
sinabi
paghah
##ektr
2005
sumunod
kond
kim
publ
des
gma
tinut
nanalo
mor
pinan
militar
pananaliksik
##que
arab
rito
him
tawag
##rat
akda
kilomet
distrito
bce
##va
##no
kuwento
##itiko
lupain
bol
naga
nakal
york
##mas
nais
national
gulang
##entong
##ugnayan
##amin
##ukan
##undin
ge
##dang
naw
##ugan
minsan
##ium
##ley
##akatawan
##ora
kalag
bangk
dalawa
anime
##ilo
cb
kanila
natur
mahalagang
##uting
nangangahulugang
##esto
##igo
##alin
##umbas
##isasyon
##iban
##uman
modernong
##akilala
##ator
mababang
south
##ii
manan
edad
formula
bud
dom
##uin
fr
##amm
unit
2012
high
##lan
edukasyon
##oss
##ational
sukat
##erasyon
os
mahigit
##vel
##ital
##igil
pad
kor
cal
##eho
ho
##adem
##aso
tekn
partido
##olohiyang
pinagm
ikatlong
##atayo
kabuuang
##asin
##old
babaeng
##anga
manga
hit
##agay
palig
##ect
##inggil
samantalang
isra
##ima
roma
##idong
29
##lay
2013
##ys
isinas
##ese
##alitan
college
halip
pagka
pagkab
karapat
bibliya
israel
##enn
dav
mapag
##za
natatang
bur
##ile
negos
##ros
mac
manila
dugo
##ach
huli
##ace
##yun
rob
##hen
pah
##let
sapagk
makikita
sw
ibabaw
##ics
##ugh
atom
##ipiko
comp
heneral
bel
##pe
pagkakata
pampublikong
##atibong
pransiya
kalakhang
marcos
lumabas
ministro
##ikan
dip
##inast
spec
val
tv
kilometro
##ayaan
patuloy
basket
wik
panit
labanan
prins
star
nakilala
ekonomiya
bir
##amatay
##atayang
pinang
##ican
##rong
kaugnayan
ipinag
chr
indibid
##omb
##ahanap
31
##atanggap
japan
matemat
##undok
##ias
islam
pamayan
##eth
dahilan
karaniwan
nilikha
ganitong
##arin
##uran
##anghel
elektr
mol
napap
musika
2004
alemanya
jo
kw
##ailangan
##ahok
dinast
kababa
##own
angk
##anang
##alal
##ibigan
nakas
sapagkat
eng
riz
##ibang
cbn
hangganan
pinamum
nagbigay
filip
nilang
##iro
##usang
seryeng
linyang
aprika
tok
##agatang
gas
hinggil
paan
##araniw
##ake
muslim
50
my
sus
patak
gayundin
fre
##anao
sentro
mit
##yn
imb
ca
##ier
britan
pw
tradisyon
##ograp
magkak
mic
##erg
gamitin
##se
kaso
arm
bukod
##ual
##uot
are
##orta
hudyo
rizal
##yu
sek
##igang
pinamumunuan
sag
##are
umiiral
natit
##athala
##anggol
makak
makapag
pampol
banal
international
gusali
isip
##port
##ugang
##abagong
##ene
##agumpay
kinaka
##uz
##ugis
ebanghel
##ilangang
mand
##yl
##ase
##asiwa
mangg
sir
tar
imperyo
likas
propes
olimp
##yari
tuwing
main
ist
##antaon
lub
sasak
halaman
sinasabing
programa
will
##yente
parang
sulat
sunod
pandaigdigang
magt
selula
bus
baybay
magm
associ
santa
##uon
nau
bumubuo
##atig
north
nait
##ulin
##igyan
##alakbay
linggo
gl
gil
relihiyon
fil
idin
santo
pinaniniwala
ide
katumbas
maliban
##tern
kultura
munisip
bundok
sinus
kompanya
imperyong
##sk
pinags
puno
##able
don
resulta
record
kinik
port
enerh
##alat
pilipinong
2014
##ilbi
pagmam
day
##awaran
##ispo
mind
nagtatag
##bolusyon
##yet
##ako
##akan
franc
by
ra
##uga
naglalaro
bato
pagkakataon
##undan
##iliit
pampolitika
sm
##ball
##antong
##ensiyang
proseso
##ee
##law
dan
##isan
##ipon
dumating
pampang
##ormasyon
luzon
##ungkahi
center
layunin
katutubong
##uch
kapan
##ahanan
ipinap
init
malakas
exp
##uni
pablo
king
##ampok
kapwa
2015
##sh
##anismo
dib
proy
kaugnay
sangay
indonesia
rehiyong
##ean
##asyo
kumulang
probl
sangk
war
##gor
kasunod
##ikling
af
##ret
##tod
##amahala
pahayag
##yante
patungo
tipan
tug
##asya
kamay
pananaw
##orpor
##akter
we
##siyong
kont
##illa
lakas
##ute
hy
km
lipunan
pitong
##nam
##kolar
##ont
ins
katim
milyon
magkaroon
sun
##atiling
pinangalan
hukbong
##anib
gal
india
hel
metro
lumitaw
##uli
##ampal
##ated
##papawid
##ipin
mabilis
nad
##stant
modelo
ros
magiging
nobel
nagpapakita
hangin
lumil
nai
##uta
##ode
ele
##go
kailangan
aqu
karakter
nagiging
aral
himp
##ult
pero
season
produkto
pagkakaiba
labis
dulo
##li
av
gro
vir
##amo
##ansa
tinatayang
materyal
vi
maliliit
naganap
##eses
##ire
nagtat
pamantasan
jr
##emento
nagkaka
tauhan
kalye
pinakamataas
nagtapos
serbisyo
##ando
##aram
##use
##alian
##alakay
kinatawan
pangkaraniw
##ting
##orya
##ibay
2003
##turang
pamagat
kasund
talaan
##ekta
pagsis
trop
pagkakat
mamamayan
##alia
kauna
##igas
trabaho
##ataya
##anatili
plan
hanay
##oma
inc
##erno
##olohikal
##ilya
##ote
sikat
##aligiran
##ho
temp
ugnayan
with
##ektong
galing
ram
sk
##alarawan
##upad
##ock
indibidwal
##uyod
haring
##imbag
gayon
industriya
##uklasan
##yunal
pangulong
ekw
humigit
##ola
##atura
##wang
pe
##agsak
##atandang
##aloob
##lak
pagkaraan
2001
tom
##ign
nanin
magmula
banda
konsep
dat
sibil
##akda
ebanghelyo
tahanan
##atibo
##itis
kolehiyo
hugis
lip
ukol
188
aga
ec
sang
##ix
##idente
palip
seg
##akit
##erman
sund
##ai
##imulan
seksuwal
pagtut
artik
##aganak
tiyak
##agpuan
bandang
wat
##her
tsino
40
##unga
was
##ilipat
##ensiyon
tanyag
kad
web
pangg
paris
sant
super
paul
ipinaganak
hol
##yuter
park
##ugtong
malalaking
2002
gitna
istr
##stem
prib
##ua
##ron
##amat
magulang
ibinigay
##iriwang
doon
##din
pamamaraan
luc
##yat
maaring
##panan
posisyon
teritor
kalaunan
sapat
tunog
sit
gamot
tinutukoy
ga
dakilang
##luwensiya
##irit
##asyonal
tagap
tagapagt
epekto
teoriya
ano
2016
pamantasang
united
dna
##inc
##ilidad
kanta
pisikal
ber
gabi
jos
##rer
alk
gawaing
natatanging
ulo
##usyong
##istan
elemento
munisipalidad
##su
alp
balat
bon
##dic
panlipunan
pinagmulan
kapanah
kun
makabagong
geor
plat
##yr
##ions
##unting
nakuha
admin
katimugang
##iam
##agong
##mo
##log
##esh
bi
##unsad
beses
##arya
pangyayari
kalayaan
makab
deb
uk
##uklas
person
vic
##chn
##low
malaki
system
gobern
##isenyo
paksa
ceb
sem
##aliwanag
makat
kaibigan
pagsasan
paglil
1990
administr
fl
kaka
##unayan
##ise
esk
mik
sabihin
base
cam
obispo
histor
ginagawa
tungkulin
num
186
bumalik
kasangk
namum
##uhit
aktor
ulit
##ilbing
land
##unong
madaling
##bon
##rob
literal
enerhiya
lalak
##ahal
##amba
ev
##arong
##awala
##ukas
##angkin
impormasyon
urb
##eon
haba
##anteng
paniniwala
espany
sci
sobyet
francis
##ambing
espesyal
krom
##andaan
pamamahala
wikipe
espanyol
##loob
pagpapat
pamumuno
filipino
film
leg
##alipas
larawan
##urg
iii
gobernador
year
pinat
pir
tab
tulong
##adaan
matagumpay
canada
##alok
ital
itaas
##eph
##ungat
pic
##aharap
element
nasabing
cap
tokyo
mong
##ome
##ersa
kaganap
##rod
##etiko
simp
wind
##iwatig
kakayahan
##ner
##inaw
pedro
association
angel
187
philippines
rek
nagw
##yum
##inasyon
##agad
katawag
##ico
itinayo
tangga
top
music
nagsimulang
sakop
##une
##reo
unahang
negosyo
##ubh
maagang
dar
##ahagi
magd
prim
##ria
natural
liwanag
bang
ganap
##uwag
pagbibigay
##ept
nabuo
turk
gregor
labing
posib
mek
inaas
siyent
gant
mid
kabila
kailan
pumasok
kababaihan
##usugan
karera
##atakbo
kalend
natuklasan
kolehiyong
broad
##ony
##ultura
kabat
institusyon
britanya
katay
##tain
##panyang
pamahalaang
direktor
paano
ha
##ikat
tagapang
mel
##trol
pamayanan
naninirahan
iisang
nangung
natagpuan
mem
##ansin
popular
##latera
dah
pormal
walong
##erto
##uksan
mata
binuo
constant
puso
##song
malays
makas
brit
##ampas
out
west
off
agr
##akbo
##igtas
katoto
tulay
bersyon
sim
##umento
unyong
##ield
that
olimpiko
kalaunang
##si
##yonal
daanan
reyna
say
amb
kristiyanismo
kontrol
##ampalataya
bik
guro
ret
##ayat
60
mart
awitin
gumagawa
1980
##agamot
kromos
miss
##awi
nangyari
##asalita
zamb
lumikha
wal
##ct
tagumpay
jam
##inga
nakita
##ology
iw
show
##alif
sec
malayang
maka
halalan
nagmum
##50
##ulog
play
ginanap
studi
##osp
siyam
nagkakaisang
##ingan
fer
##iki
##unawa
kalik
termino
karagdagang
yugto
##uwa
ipinalabas
resp
american
##ubuhay
unlad
##uhin
kampus
baybayin
##ahim
1970
dati
##ektang
gar
muk
##utang
one
##aysayang
temper
pinakamahusay
tor
##isk
eks
pagkakas
##aksiyon
##ubok
pinagb
nagbab
christ
32
lond
##ungong
maikling
bahaging
rusya
lalaking
##ts
##akat
inhin
kapulungan
sto
gene
##wn
lumipat
leb
##iwasan
itim
you
anyong
rev
akadem
limit
griyegong
men
##ango
##ass
paglikha
##eksto
list
krus
##red
alex
gumag
mindanao
fel
##ibot
gumanap
klase
##utas
##acter
paglalakbay
los
##ario
mahusay
ugat
##ingkod
pagkat
europeo
distritong
aquino
##car
##uj
##urang
kaalaman
gantimp
vid
problema
east
meh
konseho
taas
programang
single
kumakatawan
napag
toto
##ektura
pamilyang
kinikilala
pribadong
500
##ition
##iyan
sampung
william
cat
##usa
bakter
artikulo
kapanahunan
fern
##osis
basketball
##ansiya
umabot
nagkak
grupong
species
det
isk
##usal
1998
internet
pen
##ulungan
mai
reb
##iyahan
##orma
##ander
##taas
##mon
##hanan
##ision
pinalitan
paghih
1986
kagawaran
calif
##atanghal
putbol
##ild
naniniwala
##he
##pak
##ney
nail
##ingin
disenyo
pumap
cav
##ilos
##ilim
##iter
pagbub
isla
##uko
company
nakikilala
kalikasan
californ
flor
##unc
##iwaan
pagpapa
kina
produc
buh
panloob
##fer
sumali
state
pangkaraniwang
hip
lans
##ilalang
##etnam
milya
##ris
metal
kawalan
pari
nakikita
ebid
##udad
drama
california
nakaraang
2017
karagdagan
malaysia
law
mahabang
pinaniniwalaang
cebu
cor
pot
sari
##ahiwatig
pictur
mait
ikin
mababa
paligid
##iyano
##ukuha
panlabas
##aklak
ent
##ink
##ings
panganib
mahalaga
leon
pagganap
mig
muh
red
##mot
##asiwaan
inglatera
punto
pilosopiya
fir
kinuha
ipinangalan
sumasak
jer
##ood
##abit
##upa
love
##ople
malawakang
kabuuan
band
##ew
##tang
##ete
##unti
##ammad
hitler
normal
suk
larong
kh
##abasa
namang
saligang
pinagt
portug
konsepto
video
dami
fa
pay
##dom
##ets
binigyan
papunta
kasunduan
best
##oll
paaralang
kompyuter
iv
##lik
##vi
##amento
##ster
##tra
prinsip
astr
app
organisasyon
bih
ortod
pansin
heb
##cc
real
proyekto
ating
techn
espirit
lansangan
aktr
humantong
himpilan
lalake
cy
hot
##cast
##akt
pinas
komed
##ows
lap
mes
##antay
stre
enter
probins
kongres
naip
##ini
lou
gumamit
1997
##iniwalang
karapatan
hong
not
salin
minsang
##utol
carl
tw
##form
estr
politiko
naunang
aposto
pinagk
oper
1960
##line
##unahan
2018
70
bk
sah
nangyayari
##alakal
##daman
magn
patungong
pagsusuri
kakayahang
ortodok
back
sos
binuksan
mahah
kadalasan
depart
patakaran
kalendaryong
aari
arkit
##ugtog
sug
##ota
ako
##epend
##resyon
interes
posit
pagdating
teritoryo
pur
##lano
##act
binibig
##sala
nakatanggap
##tural
##can
##bah
##areh
##esya
##ella
masa
trono
1992
sinasalita
##ondo
hukbo
##ayap
##usap
kabataan
pagkas
natapos
1999
ruta
##anggal
kateg
##ree
kaban
pakikipagt
prep
express
##usalem
apostol
##agaw
##oph
bagyo
1995
pund
##etong
##emon
time
bituin
bill
kada
##iyas
pagtaas
pinamagatang
##uyan
salaysay
mahirap
nagsisimula
dalaw
han
##ras
tu
sumas
matematika
kaniya
palarong
radyo
yunit
pangino
patay
impluwensiya
elektron
boy
sib
kahal
##ale
##amant
katagang
##ict
kapaligiran
aktres
35
##anghal
##ibidad
nakipag
espesye
utak
hur
tula
##aping
##asaad
instr
paliparan
lun
##inis
tagas
relasyon
dinastiyang
group
##rang
##emang
edisyon
katotohanan
sinimulan
kalagayan
##unog
##eter
1984
kopya
##eus
santos
nabubuhay
dalubh
pangangailangan
igles
pictures
##oso
##ific
organismo
rich
nanan
model
1945
80
ih
##tomas
##che
##aliang
##eksyon
##omp
makap
konst
ideya
hak
##itn
pagtit
stat
naglingkod
david
had
sintomas
max
inilarawan
area
##iago
##oth
ginto
bumuo
gawin
panitikan
camp
##ayaw
isina
##ille
##ikano
operasyon
temperatura
iran
ulat
tren
demok
james
muhammad
mi
su
##ayt
kundi
dantaon
lansang
rock
ten
##we
##tom
abo
magl
##into
isda
##ensiyal
series
saring
pagsasanay
sama
##ider
kompanyang
##ower
media
kaganapan
##agaling
malamang
kinakatawan
kamaka
pagpup
33
##tim
pangung
gab
##dam
##agsik
##ilyo
##lass
hiv
hiwalay
ty
nga
##ulay
##rot
pina
pisika
siyudad
kanser
nobela
awiting
general
nagawa
##abilang
australia
nauugnay
##ily
maip
kalihim
ipag
gaan
lamb
kahoy
epis
integ
jul
##uka
ipinakilala
##apangyar
institute
blo
##ikayat
pangkalahatan
posibleng
jud
tungo
##yerno
##tok
alang
##anggi
sinasabi
molek
alpab
broadcast
lansangang
diy
##ipl
##irapan
##upan
teoriyang
publiko
corpor
gir
timb
ngayong
malay
imin
mut
##agn
##ubog
bakterya
host
##tle
##utong
dim
##onia
laguna
natitira
kod
estud
halamang
mis
##ulasyon
estasyong
inilalarawan
nakatuon
windows
tanggapan
##apo
indi
end
partidong
isinilang
mont
awards
mekan
##rid
##angka
terminong
damit
hid
sinundan
buto
##ucle
russ
gilid
song
##aguyod
##omang
sentral
etn
ebolusyon
##atong
##isag
punsiyon
blg
tradisyonal
mos
##omen
kasarian
1989
sasakyang
den
lawa
##alaan
##alakas
uring
norte
kinas
pig
rod
vol
##zo
##abaan
##ikit
tex
##lab
nalal
##ontrol
##uma
##acio
estadong
produksiyon
robert
kesa
ven
kalusugan
##abase
##inding
36
##col
##ales
##erim
tipo
fe
##adr
magh
##ersang
siyentipiko
##ja
##iver
impeksiyon
nabanggit
eksperim
##ym
nakaka
ibon
kasulat
magka
francisco
##ulit
##uluhan
##ugon
##alanan
pagsasal
katangiang
kondisyon
diper
##arl
##orte
sign
hukuman
pulis
field
##bang
atake
##urn
##antad
1994
1950
homo
teknolohiya
kand
##uck
nor
##ahulugan
kanon
ikaapat
pinakamatandang
##utok
ninuno
300
skolar
##jo
nagaganap
##els
##uho
##eda
samahan
kompos
##ank
##ame
185
susunod
tila
nakar
##idae
entertain
##den
##ze
karan
##uporta
joseph
pangs
tumat
simbolo
bangko
elec
gold
liga
palat
1991
45
mismo
##ty
##ikap
##lex
natut
nakatira
cast
sumus
##ein
##amas
38
stor
##alala
lih
##rip
##anggo
1987
post
lumilitaw
mc
corporation
##ipikong
##etikong
panun
katap
bukas
ham
sat
##ingnan
##abog
kalim
sangg
##ni
nilal
adv
koreano
katayuan
inhinyer
hap
atl
##ety
taiwan
##ards
paligs
mismong
##aon
##arami
##obo
tatak
##tog
presyo
komunidad
kinakailangan
agad
vill
##iram
##yanong
independ
suporta
##ologo
eh
god
##wiran
##agon
##uling
academ
magandang
bahag
krim
magkaka
first
nucle
panig
aks
barko
umaabot
rem
##sing
##yte
kailangang
road
george
black
##ior
##pas
##alapit
nilalang
fernando
let
##ani
##ative
##arra
anton
santiago
##riya
##urch
matagal
mangang
district
ginawang
nagsasalita
apoy
pagdiriwang
central
nangungunang
##aph
##ely
matat
kapanganak
paa
ipinahayag
##ego
umu
artistang
1978
padre
37
kem
##imo
chann
pagtatayo
##ations
entertainment
##ortahan
anti
##ife
##arka
game
##luwens
34
cong
from
##anc
pantel
nagdulot
dol
##aly
##asama
1993
##intulot
nangangailangan
likod
fac
##aktura
inf
pagkamatay
##gen
##du
##ingi
agu
##ambal
##ther
kolon
##landes
science
zambo
tamang
tuloy
now
tatlo
budd
bok
iyong
kn
put
suw
malinaw
##trabaho
umalis
conc
count
##velop
numero
soc
##men
##ber
##uksiyon
##ubo
##ariang
##lav
1996
palak
mabil
##ilingkod
lind
klim
alagad
pasipiko
kapuluan
tig
palaro
kapanganakan
karagatang
kalahati
dag
tre
##mar
##uso
naglalarawan
kongreso
bub
kita
porm
nasasak
nuk
gobyerno
wikipedia
mehiko
sud
mais
ori
daantaon
##agatan
bersiyon
pors
paraang
prem
tagagamit
sanggun
cir
jack
##erc
##ids
union
kalapit
parte
hard
##ungg
pinili
##uke
direktang
kuryente
intsik
katutubo
##ency
sangkap
##ayapaan
iisip
pok
##apa
##ungang
pinah
kasan
ikal
binab
184
plano
dumadaan
pera
##ef
##20
##aks
island
thail
internasyonal
simpleng
thailand
mr
##uyo
mateo
makita
tumukoy
##itnaan
teksto
anat
##leto
church
kristo
paglalarawan
##araming
lut
unti
arg
kahabaan
disipl
suliran
dinastiya
parangal
liham
kasamang
kinilala
mov
charles
hebreo
bid
##ilaw
mabuting
kumb
babil
personal
90
bunga
naa
pinsala
makapangyar
kaut
manggagawa
class
van
##ania
##uki
##last
tour
paghahari
isinasagawa
tro
##ls
##ole
grad
pananakop
singap
inihayag
mitolohiyang
dulot
puting
##ux
##ny
sinulat
nagpatuloy
kalakalan
relihiyos
bitco
herusalem
pagmamay
agrik
cavite
mabilisang
bos
##amitan
##ture
sundalo
son
##ance
isyu
karne
##aliit
lee
pananampalataya
cruz
miguel
##alapi
martin
rebolusyon
kapitan
pamilihan
nagwagi
louis
channel
zamboanga
##lac
##angkop
pantay
ugnayang
##awal
nakikipag
pinangalanan
angeles
jav
##eksuwal
respons
ebidensiya
kategorya
fin
uugnay
##ipp
bakal
datos
##gas
##ery
bababa
basketbol
panginoon
balang
hinango
makipag
order
##ardo
bulaklak
harap
mot
##ilit
##arth
##amahan
##irma
palitan
direksiyon
##yayaring
##eryo
develop
grand
##ueva
kalagitnaan
kingdom
mukha
diwa
leh
##akh
##ulok
##eso
pagkal
##tao
##ival
paggamot
london
jan
##rabaho
##cl
##win
nakah
##ekl
matinding
diin
found
gol
##damin
##inst
mark
pangkas
##ograpiya
##ning
##yin
##isita
##ungkulan
team
batangas
lebel
##ji
##amig
aug
down
laman
##isina
baga
sumulat
sentrong
green
mamb
pala
##cia
##berg
##agu
##ahero
kontin
1975
panghim
az
##agawang
##ull
##etro
ibarra
tinag
magkat
bun
sanggol
##fa
##iyento
nakabase
kilusang
1972
##peto
183
kagand
templo
victor
misyon
ray
tam
##mer
##alth
##tol
##ipikasyon
##uwid
tinanggap
org
republikang
magbigay
##ren
##akain
samar
tagapagp
langit
naturang
tagapagtatag
bula
tay
##kop
##iwala
braz
cop
lawak
##angalang
panin
pinakama
lumaki
human
##aranas
##akasal
puwesto
petsa
pula
##pit
##gam
katam
libong
tut
##ien
##dib
##omba
kataas
##anggaling
proto
pinakas
##udulot
##hael
look
##ende
lokasyon
makasaysayang
las
long
lak
##ibilang
pagbagsak
edsa
humah
bac
mala
##ory
under
##alawakan
##isipan
karapatang
fed
##atlo
##ington
##awalang
##ayagan
komunista
##ibilidad
pagtuturo
kromosomang
hep
vo
##ke
isinal
arch
maharl
nanatili
estudyante
singapore
wakas
balita
senador
nakabatay
pantelebisyon
##ford
##osh
1988
##untang
afr
listahan
baka
##kong
##ware
##agin
##iles
insp
ginagam
natin
dinala
bakit
produktong
senado
legal
italyano
karanasan
ung
##likasyon
##indi
##igat
panuk
anong
itlog
pagtatapos
##ektibong
sr
saint
##ikot
##ury
pagkilala
richard
magpap
heomet
ruso
sayaw
boto
estilo
salapi
nagsilbi
mahal
paglul
isinagawa
pamantayang
bonif
39
foss
mist
##yus
##amis
masas
kaug
##ection
##aligt
mahahalagang
rh
##put
##burg
##ipis
aking
nilalaman
langis
sasakyan
pit
marahil
nagpas
polit
panitikang
brazil
nayon
##isp
##uktura
##atagan
binago
papuntang
##intulad
##ave
act
samantala
sirk
astronom
line
##rel
##zi
namuno
1946
domin
hor
##iksiyon
pinal
##entr
kalaban
komisyon
pansamant
##krip
planeta
ger
##eria
##umentong
##ukunan
ulan
dagdag
galaw
lahi
##ags
manl
karamdaman
michael
natitirang
mainit
00
ot
##ulak
pangyayaring
##iana
asia
pinakamab
nahalal
pamumuhay
prosesong
damdamin
hon
##itusyon
##emp
syn
kursong
nawala
hawak
pulang
rit
inilipat
##anais
##resent
payak
##patuloy
karagatan
news
transport
alkal
lindol
bern
div
##hat
##lus
##laban
inu
mail
gregorian
county
bonifacio
cre
der
##ilalim
##ising
##ume
pinakak
komiks
bigkas
jac
ke
##uning
pares
kasing
ikalim
##alagahan
##impalak
acc
maliwanag
sino
1985
tagapangasiwa
kabanata
korte
##uluwa
##tot
makati
pac
ginam
gresya
##toridad
artist
politika
studio
bre
od
##ange
##ater
isp
##abl
arian
pagsubok
1981
tagapags
glob
##atiko
##ilikha
##entino
pagtatag
##ambakal
represent
academy
42
laki
##elt
ref
sho
partikulo
##ailalim
katawagan
electr
fossil
dist
wil
aten
##urt
##istika
katipunan
alin
kamag
bitcoin
far
loh
tib
nagrer
patimpalak
kulturang
pinamunuan
huda
angkop
rekord
nagmumula
##awig
##ution
espasyo
##iew
ipinagb
##ahad
daambakal
hango
micros
carlos
bisa
roy
##alawig
##agdagan
engine
sagisag
lubos
production
##ague
##unay
nakamit
serv
kris
##unawaan
log
##itz
isab
soft
kos
lad
sta
##iri
pasig
naglabas
##uriang
kagandahan
sept
##ural
pambansa
pagpatay
1969
tangway
davao
400
##ilin
matandang
nagsasaad
kagamitan
nagsisilbing
lucas
dahon
##chi
kahulugang
labi
pananalapi
gusto
regular
british
dalubhasa
soci
##yp
sabay
##igi
##upo
tumaas
##alikha
##grad
kuwentong
webs
hakbang
je
tirahan
##kan
##anaw
##agas
nakad
kata
ash
##turo
presyon
pagsusulat
dalawamp
48
cla
##ject
malaman
kapayapaan
kaunting
pagtatanghal
klasikong
sultan
expressway
mens
##any
##erong
##igpit
hinih
hinaharap
dinisenyo
1973
tema
propesor
pinangalanang
broadcasting
##adrado
boh
dy
##alas
##aha
pangl
##etr
##odes
kapalit
kalin
##ahating
##ehan
interp
1940
kasulatan
agrikultura
##ae
##akaw
##isyunal
iskolar
##awas
##reh
ikaw
pasahero
inilagay
mult
kakulang
daloy
katapusan
sis
##atal
##ahalaga
kahirapan
1983
medisina
komunikasyon
doktr
kandid
41
##uong
##ime
manuel
##alagyan
nagpapahiwatig
alamat
##erang
##usulat
##uturo
nakakuha
kapangyarihang
urbano
piraso
portuges
alpabetong
hus
##arter
alis
##ize
##board
pamayanang
##amahalaan
vietnam
##uruan
apar
barb
oks
kemikal
sip
tamb
##aster
##akay
##urong
aly
bayani
gayong
1948
nananatiling
43
cab
just
rate
tampok
sex
pareho
pagtatalik
pinaniniwalaan
espiritu
oriental
night
##ities
##usahan
pangt
panging
parir
prepektura
tuk
##ahangg
##apekto
natalo
pagsulat
##raft
puntos
##utos
1930
antonio
les
##bal
##urs
ann
kasabay
##ilio
kastilang
tekst
nangangahulugan
tugon
sumasaklaw
sans
##serb
##inabang
##ede
komb
##uther
final
hes
##awasan
pagkawala
halagang
asawang
pagtanggap
pagbabalik
iminungkahi
panghimpapawid
##asangk
hinirang
arro
kapital
diyosesis
arke
technology
lis
lor
lalong
mom
vis
##ayad
##olf
ibaba
kaluluwa
palaging
tumanggap
##ector
motor
solusyon
butas
ferdin
glor
jesus
##oft
nagng
##igma
malaya
america
1976
lupon
pamantayan
terminal
camb
tingnan
##ident
champ
gawing
pagpapaunlad
sosyal
demokrat
kakulangan
bot
##oob
##wil
kapit
tradisyunal
memor
aalok
talagang
##yle
sas
kalidad
pagpapak
medic
inaasahang
test
wash
##etang
tind
1979
henry
nobelang
departamento
ferdinand
work
nav
##abatang
##ensya
kilos
people
nueva
##ook
##dan
##irasyon
taunang
she
virg
katawagang
nukle
##ariling
##igt
##ope
pamamaraang
namam
inilunsad
##inaldo
dipl
kasangkapan
##eklara
microsoft
aar
tans
##ram
##wood
##atupad
inilathala
paghahanap
mamatay
puwersa
nakasulat
##robers
iglesia
46
yari
##gaw
pagn
##ukin
mary
china
tumagal
1982
persian
atomo
katamt
alkalde
gon
##ward
##ates
##aho
kasalanan
malalim
##antum
mahih
bibig
gantimpalang
pansamantalang
tis
##vin
##iso
##apal
##ents
amp
dec
selulang
cel
oh
utos
##ars
##esta
magagamit
gumaganap
alexand
paligsahan
##usob
ala
##iwas
opt
##impluwens
code
##ville
##ilong
pinatay
magasin
kapareh
palasyo
pagbuo
pagkakab
mapa
radio
records
hudaismo
47
cro
du
##urian
##ott
musikang
organis
63
hib
ver
##ikli
##imog
inan
katunayan
alak
mabuti
museo
saklaw
silid
doktor
##iyasat
modelong
##umi
##ush
##erson
telev
games
timbang
ginampanan
44
kot
##uela
##ilik
##ering
##apay
##abol
taasang
181
ekst
aguinaldo
live
win
yaman
##anes
##ahas
pagkuk
malub
180
kumik
sitw
totoo
bahagyang
klima
75
ku
ox
##atikong
##ebar
##ebenta
kumpanya
party
1965
pagsasama
nagsisilbi
pampanga
gaanong
bulacan
##tima
##away
pantao
alon
altern
deg
1964
house
propesyonal
buhok
bari
piling
##abuti
parok
##atagal
manus
paglipas
arts
1941
libro
nakapagpap
frank
takot
patakarang
ipinapakita
ambag
pagsasalin
dut
lam
ren
kard
magkakas
1947
pagkaing
circ
bilis
layo
##istiko
itinalaga
##orts
nanatiling
##ungkahing
liberal
magsas
kontrata
demon
kababaihang
ekwasyong
tagasunod
mir
power
##gado
##round
pambatas
150
pagbabagong
distrib
pabalik
serbisyong
sekswal
kontrobers
elementong
nagbabago
probinsiya
suliranin
##air
##kul
##ining
def
low
pinakamalaki
leap
libingan
kimikal
proyektong
tropical
inv
chin
##imbento
##resulta
pederal
##kis
##itud
##akip
##etisyon
andre
depende
pahayagan
nowiki
disiplina
washington
##amam
##ukol
##ugin
napili
##apatid
1949
kanluraning
usap
tomas
fri
##usin
parlam
paniniwalang
##uba
thom
makuha
ingg
cath
ling
##unl
##ody
paglago
minuto
pagkakak
kawalang
pandagat
pokemon
cer
ps
##iti
pangalawa
lumal
nakaug
home
pinangunahan
cas
##anas
##adang
trib
##ember
bea
kapuluang
kasanayan
august
liw
mur
muna
pon
##hala
##yd
##esar
##igong
##uportahan
bagyong
umaga
bumagsak
1963
titulo
beij
quir
liter
##onood
bilog
social
cur
por
pla
ton
##aham
##ababa
##abalik
##oles
bagamat
hall
aspeto
patr
pagpasok
1961
##arines
kadahil
urban
buddha
balak
cag
ht
##atro
maj
binanggit
pagsasa
mapap
1967
1957
merk
mandal
osp
##ced
##abilidad
##ender
pangangasiwa
beijing
doc
##eal
##cy
##antiko
princ
conv
coun
ikalimang
ast
gatas
##ares
##ayanan
##alangin
makata
182
antip
1971
kalakal
prinsipe
bad
##by
maiwasan
akdang
talamp
pinakaunang
66
dilaw
hand
puti
##lish
##bp
pampan
##irm
nakasal
##entina
alt
maling
its
makina
masel
##ebra
trin
trap
online
##ban
##oseksuwal
batayan
napaka
##endo
pumunta
irl
aktibong
biktima
pangungusap
kalimitang
royal
erop
ken
over
##umin
##osyon
##ides
asp
diego
1974
pagpili
tagapagb
bany
camarines
campus
society
lil
##ks
##ipad
##emonya
##oka
kalahating
tinit
cho
phil
humih
simbol
sev
virus
ospital
digit
numb
pu
##aheng
kalalak
kahalagahan
labor
neur
##insan
reyes
isipan
guhit
squ
tanda
mall
neut
cons
kristiyanong
republic
1920
nagngangalang
gov
ال
##arating
##ester
##ibutan
##alakad
mamalya
bulebar
club
##ission
georg
pagpupulong
##dp
##yos
##bi
##uts
ipinakita
sumikat
educ
1939
##erba
protest
foot
domest
##ahimpapawid
software
##akdang
##awin
##ige
aralan
ipinas
who
irlanda
##rus
inang
##etic
aksiyon
kumuha
nakakat
titulong
medikal
teknikal
mapagk
lumilikha
prinsipyo
development
huwag
kalawakan
pi
paminsan
batong
nanirahan
leyte
1977
1968
birhen
manggagamot
ortodokso
aal
aangkin
##uss
##ibing
ana
##undong
ipinadala
##astas
kurso
gusaling
pilosopo
sandat
inspirasyon
49
dest
##gang
##back
##angang
##diang
kasong
pagtukoy
mahigpit
paglabas
carbon
ekonomiko
baboy
hyd
##bs
##olyo
amang
binabay
lumahok
mill
##ustuhan
raj
block
hab
##ki
napan
##ahintulot
nov
kalahok
prutas
2019
paglipat
imahe
nagdudulot
relihiyong
pwersa
gantimpala
sanggunian
interpret
55
cot
##eto
##bakal
pangasin
kathang
##estiga
##ief
quark
kinasasangk
kup
oc
ath
paraon
##oke
##uda
seremonya
rox
great
white
kinakailangang
independiy
anatom
nanggaling
##pa
##oli
kinalaman
itinakda
polonya
bigat
wikipediang
cd
##uate
##ahambing
##apt
kalam
natanggap
##alaganap
##angkang
isinama
tubo
sobrang
naitala
balangkas
nagreres
manuskr
ebol
##ios
##illo
##ahiwalay
##ade
##ulaan
##ubund
matut
ilarawan
##ukuyin
##mith
1959
laur
negatibong
##atoryo
natatangi
lubhang
makapangyarihang
kautusan
talampakan
53
cup
##ease
##unaw
##utin
ale
##anganib
young
television
cos
rail
von
##ipot
pinagsama
bh
iisa
mich
pulong
run
sor
##uing
hindu
this
press
##lov
kahariang
opisina
kakaibang
constantin
porsiyento
iral
piy
pista
tama
##kl
##aria
##awad
pagsabog
pamamaga
nagkamit
populasyong
bulubund
daangbakal
aktibidad
christian
positibong
51
fam
hanap
kl
##bc
##enue
mayor
panay
hinati
malab
prad
kaunti
palay
komers
pangunahin
lead
##umpleto
nagpakita
##ektibo
medyo
tawagin
himpilang
tropikal
pakikipagtalik
konstitusyon
girl
arroyo
bayang
wo
kantang
malayo
##ilipas
##alakalan
kain
chart
child
kritiko
indiya
puwersang
bilyong
daniel
dibdib
paulit
bektor
herm
##kad
##ci
##abal
##ori
pinunong
maayos
ars
##edy
kayaman
shin
kaguluhan
1966
thomas
mito
rat
##uyang
##eration
magaz
##oton
araling
iloc
bagama
manag
stand
meron
bolyum
japanese
aur
got
##aksyon
##eran
##iman
alf
magkas
pilak
pagkakatuklas
landas
how
ipap
key
wr
##pl
##yadong
##amay
##igyang
pagkap
##uhunan
kaisipan
##aligtas
layuning
english
au
kawan
##mang
##ahay
##isda
pangatlong
unting
##eksiyong
disk
##ordin
sea
mex
1953
gawi
watawat
totoong
java
cagayan
pangasinan
54
beng
born
dro
gn
gaganap
luther
##atwiran
##ape
##osisyon
##ibal
ikot
trip
sinis
kagub
1954
baut
tuwirang
iniulat
free
pradesh
aut
hig
vers
##ument
##eland
nic
pana
alitan
##ants
kabayo
patimog
nagsilbing
pasyente
roman
columb
bank
brown
##ibidahan
pinakamahalagang
kampeon
mananaliksik
kailanman
rodr
nasasakupan
kinasasangkutan
hati
li
tabi
yelo
##uf
##down
pinapat
pagkuha
ikalawa
igin
tarlac
naitatag
gumagalaw
eksperimento
56
52
65
occ
simulang
##dy
##nap
##amental
##olitan
kataga
patri
kumalat
1962
medalya
gastos
history
##uridad
##reen
kaligt
itinuring
pagpapanatili
nabuhay
samakat
1958
bantog
likido
persa
teorya
roxas
auto
gub
norm
tukuyin
nagtrabaho
##olina
kaloob
masamang
lumalabas
mabigat
samahang
konseh
titi
pabor
tradisyong
##ences
good
econom
inaasahan
isinalin
tindahan
quirino
bc
buo
kahil
riles
##ring
ngipin
##ugot
malamig
makalipas
head
##alisis
ekwasyon
paghihiwalay
kaugalian
dala
hat
tiyan
wa
wes
pinalabas
katulong
##edeng
times
obserb
bidyo
relihiyoso
hem
##ele
inak
kabaligt
palibot
hangganang
pagsapit
pakistan
uniberso
heart
color
ipakita
airport
gloria
magazine
dob
yam
##pi
##uyong
##wika
##arta
##ette
##uparan
tumulong
tinatanggap
##ektado
nakapagb
pagsasagawa
protina
tugt
istraktura
pagbubukas
etniko
kalalakihan
bic
daw
german
##ui
##isismo
pagw
##imili
##ihas
##anood
baha
pasilidad
tangh
##ression
##ija
kumpara
tekstong
600
eg
fest
has
vel
##wan
##ule
##ukal
itinat
##ataong
##ahanga
179
henerasyon
paggalaw
kondado
nakalilipas
##iii
rebel
kamakailan
non
##tv
##ος
##iness
kapal
dev
stud
##lands
##lamig
kontinente
virgin
pagkakakilan
govern
##sil
##itin
##ugong
alm
market
kapist
makamit
##loh
pinakamat
1952
arabo
berlin
mongol
kamakailang
hub
ly
om
rosa
smith
orig
posisyong
nagsasabing
isinaad
kolonyal
##ei
##af
nakagawa
karangalan
tumakbo
pagpapahayag
baryo
mangyari
##umpa
ibinibigay
propeta
##instein
diplom
kaligtasan
perman
##abago
##ukod
ilo
tinuturing
##alitang
billboard
kodigo
number
ever
sop
##alaya
##ukt
tinukoy
##ahatid
mapang
perp
character
desisyon
pader
##acteria
estrada
arkitektura
molekula
pampanit
64
bor
fib
gulay
##ilia
##abato
##ibabaw
master
esc
second
digital
samakatuwid
bec
likha
##ous
anghel
##islat
##roh
##odo
pagkalipas
##try
nagsagawa
pinagh
##untunin
linyar
##indalawang
mediter
nagsasagawa
aktibo
birus
ikalabing
##tir
##ises
##igkas
pinakap
open
nagtatapos
newton
nagsasabi
mainam
avenue
komedya
kompositor
malubhang
pn
ump
##eong
##alungat
##inta
##akitang
##awasak
##eme
alipin
paglalagay
league
monark
ganito
biyetnam
pinagsamang
nagkakaroon
lihim
lider
##uit
##ding
pangp
nomin
hinah
##ugma
cross
##letong
garcia
text
62
data
tulang
##bas
##bit
##ayas
##amali
magas
##ogle
prof
##ensis
paghuh
##intul
##ization
resear
counc
nagdadala
negros
president
hits
computer
tinaguriang
research
##ingat
##abeth
tinig
patinig
salungat
teatro
pagpip
kolonya
ebreo
kandidato
sitwasyon
58
57
bet
cul
dre
nep
tiy
upuan
##my
##zar
##ilahok
##ird
nakaraan
mali
kapas
kilusan
pagsasaliksik
google
special
pinagbibidahan
education
memb
pahil
##rad
##ald
kabihas
palayaw
##angkilik
narar
foundation
binabaybay
kagubatan
tol
##con
##ces
sad
##awalan
##edral
##ertebr
point
1935
intel
##relih
magsasaka
council
76
kred
tanong
talaga
##buhay
##10
nakatayo
taglamig
napat
##untis
book
moral
krimen
iloilo
##uag
##inom
##agot
##akyat
##top
##awaan
##angkot
bask
##arte
libre
inaalok
nagtataglay
ilocos
life
nba
##rian
nauna
##uluhang
noo
intr
pagkilos
track
tumatanggap
pangkasal
pinagd
1951
produksyon
1898
kasunduang
nagreresulta
einstein
huw
##ground
##ues
##gasyon
##ilitang
mass
tribo
##ungkol
pangangalaga
publish
ach
gagamit
rand
##lit
##aybay
##apekt
##abatas
matanda
ginawaran
asian
chal
tumungo
mahaba
step
##lathala
aklatan
medi
nakatala
piso
##ughaw
matematikal
sundalong
dolyar
mensahe
kardinal
kayamanan
festival
ple
isahang
##ikanong
##ukang
karun
chi
kinal
tumpak
nagbago
1942
##abawal
australya
pusa
paliparang
segundo
office
85
95
aasal
bida
galit
kub
lan
sust
##heng
##itikal
##akwil
##uld
##erya
##oda
nagsasan
##atauhan
##ahinga
punsiyong
musik
160
syria
##ihimagsik
pahina
nagtatrabaho
sky
turkiya
mahihirap
cin
hir
right
##agandang
angg
##igr
##ibol
paring
##etikal
##iction
ilong
ikap
masyadong
ipinagd
asukal
##apagal
##ambot
cont
##agdan
1956
1955
##awakan
austria
nakalipas
macapagal
makakuha
##hing
##arno
pinoy
##ubukan
##diwang
kasuot
##chus
asin
paglaki
##adaloy
imm
european
naghih
laging
ahas
sekw
rosario
pangkaraniwan
darwin
mangangalakal
bob
dula
gh
seo
nagresulta
kant
loc
##ukuyang
touch
##istrado
kagaya
1944
idol
quarter
gayunman
episode
eroplano
cle
rap
way
kalipunan
abala
elekt
178
supr
naglilingkod
paghahanda
sangandaan
kromosoma
pundasyon
chinese
ef
fuj
lop
sung
naib
##arili
##aragdag
ilaw
grap
style
naniniwalang
arth
metrop
##umbalik
direksyon
magkakaroon
congo
lac
##eer
##yung
##br
##48
##ikt
##imit
pinip
prakt
kaay
ipinagk
komon
eksak
comune
spes
ahensiya
gawad
materyales
ramon
pundamental
village
global
demokratikong
59
bughaw
damb
kid
rna
seb
##hu
##hy
##tw
##alaysay
atbp
##ikos
alas
lupang
##grap
sampagu
bilyon
kimika
palatandaan
federal
asa
cell
mob
sl
tayo
istor
##eko
maari
##uhat
ordin
konstr
kumakain
andres
konserb
naghah
imbestiga
naiiba
kotse
earth
##uv
maganda
pagkaraang
manip
manalo
nagtagal
pagkakaisa
kawal
1896
isinasa
suso
katamtamang
cotabato
78
##als
##asim
##ulus
##umo
##imar
analisis
ibong
pagkapang
##reg
##uwang
project
gran
papasok
teles
anth
lima
harry
business
personalidad
lambak
tanso
manuskrito
niy
penn
ranggo
were
##ied
##ison
alto
kaagad
istasyon
##ultad
transportasyon
gaganapin
uus
##21
##onekta
##itiw
##ible
nir
##ichi
pagkam
##anti
mars
nating
awt
eliz
pagtatatag
kanluranin
nakapagt
dokumento
iwas
entabl
sukarno
##likadong
hotel
kahalili
golpo
oksih
##impluwensiyahan
trapiko
constantinople
sampaguita
98
prize
bumaba
basil
##ishna
pinamamahalaan
common
idinagdag
pagkakasunod
jackson
engineering
pagkakakilanlan
bantay
fol
jean
olandes
yards
##cer
##uig
##tiko
##isidad
##ugol
ali
karn
tinapay
manonood
kaz
import
indiyano
paksang
##order
sound
1938
radi
sangkatauhan
kapistahan
##apektuhan
dv
gi
keso
rub
rank
##cr
##yero
##alsik
##ats
##asyunal
##ayagang
inalis
makinang
asidong
orden
nagsulat
kron
nagpat
plant
health
kompl
dalampas
institusyong
##ugad
kulang
light
oly
perm
isdang
##enang
##idental
pintor
kapak
trento
tumatakbo
mahistrado
pinakamataong
pagpapakita
pasko
probabilidad
katolikong
##lines
materya
lehislat
maharlika
77
korpor
##uio
##aril
##enz
##idel
##row
paunang
sinakop
daungan
##uez
##umpirma
sulu
##ference
ov
plas
sero
sanga
##roses
##uya
##yenteng
##arch
##ukaw
panalo
##opter
rebol
kapar
prin
asido
pagpapalit
awtoridad
madla
pagtatangka
communi
arabe
dibisyon
##hou
beaut
##bayan
##welt
##akbay
##igla
##uwi
palagi
##ense
umiral
inilimbag
lega
pananalita
lupaing
commerc
public
doktrina
##roheno
komonwelt
pagkapangulo
69
68
gag
kud
##tel
##ams
##enyong
inir
##utasyon
katinig
##uhayan
##cher
bataan
kinak
add
espasyong
sabi
##ological
##iji
tagapam
kasangkapang
briton
sahod
nakaugaliang
73
balik
duk
fak
kit
pip
ya
##nes
katapat
##entro
taguig
dinad
namuhay
pagbib
ens
kampanya
henetiko
larangang
1937
butil
army
dimensiyon
pariralang
bautista
olymp
commercial
tangk
wall
##ky
saser
mayaman
iniwan
pint
##oko
kabund
pangkab
kamal
1936
harv
##atanyag
budismo
##empor
alexandria
nakasalalay
lopez
boses
card
##amaan
##ips
1900
##ihing
##andro
baguio
ther
pangkultura
pangkalakalan
labindalawang
puntong
pakpak
subst
nilabas
tagapagl
peter
himpapawid
problemang
pagsisikap
constantino
bikol
binibigkas
##unggali
responsable
ere
town
yum
##ker
##angat
pangd
karbon
nanging
halim
apol
##ohan
pagpapas
pambaba
##impluwensiya
##agdaan
nagdala
depression
solong
commission
silver
pumapayag
heometr
tuktok
saserd
aab
sep
sektor
##edic
ayos
##ahon
##ikita
##anggihan
##ebes
patong
stev
nagtala
pampag
paghahati
transp
clark
pred
dako
pagsisimula
venez
pacific
kosm
awtonom
aud
cm
dur
gagaw
pont
##ger
##imen
karga
mahinang
##hai
napagk
nasug
kultural
albert
presidente
bola
player
alternatibong
parlamento
alej
seoul
entablado
61
gawang
uug
##eas
##hon
##led
##deng
kana
katar
prom
tagahanga
sumailalim
##alagaan
pagkakal
nagbub
nagpapat
pampubliko
##osauro
holly
pagsasanib
londres
buntot
gonz
67
99
##rato
##agitan
##aglat
##ipo
##ukay
nakaligtas
##antiya
baguhin
kayang
sint
kinok
##riev
umunlad
opera
##ious
pasay
##insunod
koleksiyon
##erte
##eau
pagkabuhay
angkan
katayuang
memorial
aaralan
hibla
umpisa
##relihiyon
elizabeth
##sc
##uce
##olution
##etika
##istikong
##amana
##iva
tatl
indibiduwal
kinikilalang
after
sumasakop
portugal
magkatulad
service
fakultad
equ
mundong
ri
##hra
kaib
aso
binigyang
patungkol
nagsus
pumalit
aprikano
dayuhan
ecija
texas
western
ipinagdiriwang
dalampasigan
71
hita
zeal
##yg
##ayuhan
##abayan
##olis
trentino
sinag
aplikasyon
paglitaw
lev
adige
conf
spe
genus
hukom
ekonomika
naghahanap
mamamahayag
##encia
degree
eksaktong
lahing
lasa
mans
ud
##cus
##yth
##anim
karugtong
nanguna
lumaon
disney
dios
##umpati
rept
konsiy
1933
sandata
katauhan
bariab
pampanitikan
karunungan
tapat
##kus
##com
##ways
##alye
##esp
##organ
##opot
patn
##rio
##alimuot
telep
romanong
##ektahan
1943
177
120
solar
homoseksuwal
pagtitipon
dutch
ebolb
##rieved
hung
tens
##ric
##ps
pagkah
ikas
kabut
asir
##acea
sumasal
nasira
pagpop
##verage
magsis
week
retrieved
##ospital
merkado
mexico
occidental
aalis
fort
lob
##ten
##anak
##arat
##aksiyong
##isadong
##ipik
##ipunang
inhen
##etz
##ists
##upit
makagawa
theod
sumis
mabuhay
pagkakap
phase
carm
bulkan
##ather
seguridad
florida
signal
lady
dc
gdp
hawa
kagamit
sn
tad
yah
##cle
atm
##aku
unawa
paliwanag
pagsulong
pinakamaraming
buen
antib
rehistr
ugali
tuld
pilosopiyang
design
pinangang
films
##ahimik
sandatahang
virginia
##opotam
have
ligtas
mant
most
roc
sha
##alunan
##alisa
##ature
##oman
nakatag
matibay
dinam
kinat
austral
etika
ramos
know
sudtir
parokya
##intulutan
metropolitan
zealand
kagamitang
sudtirol
700
coc
ron
##agda
##gawa
##iting
##oku
##cho
##ahilig
salaping
itinanghal
eksk
reporm
##asailalim
conn
sports
talata
acco
tisyu
inggles
bigas
##60
nazi
##init
##ilian
##onic
##ogn
pinakah
tumataas
nananatili
nagbalik
relat
madali
force
blue
tipikal
1917
utang
nalalaman
storm
palakasan
##aginip
dalawampu
touchdown
gun
if
porma
##dal
pagnan
##cha
ginaganap
halo
salmon
pinakamaliit
phys
antrop
moises
queen
##quez
integral
nararapat
##roseso
gor
kir
our
##rich
##isd
##abor
##olar
katedral
##anse
lumago
indo
paghinga
1925
highway
swed
sugat
states
atlantiko
independiyenteng
##twc
rebolusyong
eas
jtwc
liv
mec
nit
pier
##anon
##alon
##ulto
kapis
kayarian
kaaway
sind
pagsamba
depin
##angking
imperyal
bigyan
inihah
africa
ritwal
alaala
74
72
bomb
eth
ihi
##atasan
##elle
kani
malal
pinakad
palapag
ipinat
tra
binib
##ude
larawang
tumutulong
kuwadrado
screen
buwis
ibinalik
lipunang
felipe
gabri
golden
football
praktikal
dvd
rural
##hika
##yas
##atil
##arn
##osyo
into
panrelihiyon
##reto
masama
sala
andhra
antio
kagustuhan
mapan
##iff
nether
transm
1919
puwang
parisukat
krusada
##iliman
ginagamitan
champions
kabaligtaran
88
jun
luna
pent
zeus
##esyon
##usbong
##yok
maih
mari
kalk
manok
pinakamal
nagpadala
medal
gampan
strat
kampo
pwersang
konteksto
water
stock
kahalintulad
abogado
sumusuporta
draft
jma
kalang
riv
##sen
##siya
##atic
##enna
param
kals
makilala
nex
inilal
residente
dumadaloy
mamamayang
paanong
two
pangkasalukuyang
bow
dj
mm
palaw
yug
##gy
##wat
##iyam
##ett
##edes
bagkus
namamahala
##ampung
##angkat
reporma
diyosa
round
##atakda
industriyal
nawasak
israelita
kinakain
pagkasira
mutasyon
inanuns
bulubundukin
kalooban
konsehong
cand
##rt
##lic
katib
##entaryo
aristo
ikatlo
apo
apely
mineral
krishna
photo
mamaya
heograp
turista
what
bangka
sunog
pagsisiyasat
permanenteng
istorya
dz
gall
var
##ping
##cion
##wer
##aris
pinar
nakalagay
kasaysayang
alinsunod
brand
nations
ste
minor
##intay
pumayag
colomb
suport
suplay
surv
bach
nawalan
panggagamot
flight
limitado
tibet
##ahanggang
medical
gagamitin
83
titan
tondo
vari
##don
##nat
##inh
##enda
maaga
##otiko
kape
salamin
itinampok
pagpapalabas
interaksiyon
pagdur
madre
bukid
##ova
kaganapang
makapal
pagsasaayos
gubat
fiber
tapos
##hay
##dong
##tat
##vo
magamit
katany
malayong
matataas
palest
tagal
##egal
##atao
humingi
##untunan
roon
olimpikong
hyp
binibigyan
ehers
sanskr
major
interpretasyon
arsob
horm
jon
site
##iny
inumin
##edo
##angging
mamimili
langu
board
commun
airlines
mindoro
pinagtibay
panukala
tagapagsalita
representasyon
bohol
organisasyong
dadaan
##lon
##onang
##abong
##estr
kanang
inawit
##entang
matigas
kabuo
masus
gramm
pakinabang
estadistika
nabigo
posibilidad
supling
##luwensiyang
associated
konseptong
potensiyal
background
gaano
##ript
kalinangan
country
ikapitong
netherlands
kob
mesa
pep
##angal
##die
##rey
matukoy
kahawig
station
##ecut
luis
sapi
1934
##romagn
1918
italyanong
halimaw
capit
moh
nik
nung
rog
sya
##har
##ws
##ilig
maib
##ogon
reaksiyon
makukuha
kaunl
akit
sinumang
tumigil
krip
coach
pagdid
korean
koreanong
sabado
hudyong
1914
##osaur
koran
maxim
##agsikan
krisis
cod
jim
kyo
libo
##yahan
##wirang
##ench
nagn
##omon
##ubig
##tero
name
itinuro
pagbigkas
edward
sambah
poland
prodyus
tuluyang
enerhiyang
street
musikero
kaayusan
93
cort
corp
ngalan
##gada
##ahen
##unud
##usto
##ures
##ots
pangkap
paglilingkod
abu
abd
pinakamalapit
##ataang
sana
nabigyan
level
nasyonal
nagpapatuloy
conference
176
amerikanang
daliri
1922
mesopotam
integr
story
autonom
rodrig
rehistradong
championship
katanyagan
ja
juni
kus
more
pondo
##aang
##get
##igilan
nom
arh
kapansin
gintong
start
tats
elias
commit
space
dumaan
naglaro
pangkalusugan
tanakh
##onesyo
ehips
benedic
kumpletong
mandir
dayuhang
tagapamahala
gang
gano
lal
usa
women
yugtong
##aru
anal
ibn
##oper
##oks
also
proton
bahagdan
barkong
pass
159
bakuna
program
1907
martir
pangkasaysayan
ginagampanan
panukalang
pagpapakamatay
protestante
800
hugh
ic
khan
laganap
nig
ub
##itibo
##isi
pangng
##irito
kaparaan
pagsalakay
musikal
universe
dragon
##ustin
1932
old
akademikong
diperensiyal
magkakaibang
victoria
kaparehong
droga
inhenyer
prodyuser
96
kenn
patag
##gio
##uer
##uugnay
saudi
##ines
panulat
##ubos
kasarin
malimit
##upunta
##aanim
mananay
itinuturo
tumakas
pagbaba
pho
nahati
157
170
panlalaw
tubong
kabiserang
nakapagp
solo
magpahanggang
dakila
##azz
bisaya
sandali
eksped
negosyante
makabuo
mike
alexander
hipot
fore
kipot
ll
lv
moro
sed
##gi
##its
paga
##ibusyon
katuruan
ipinak
chan
nagtagumpay
subs
organization
tanawin
1929
##atake
1910
ugnay
##uklok
department
##aytay
gabin
pinakamaagang
plaza
doctor
gala
gast
tony
##ness
##isy
##adya
##osong
katabi
katawang
##ihag
ill
prov
pray
leeg
tsinong
sentim
internasyunal
perform
singaw
your
##pher
calamba
istruktura
posible
arthur
kabundukan
language
mananayaw
79
97
nh
som
tap
vas
##fl
##angga
##agana
nick
katiyak
##ansiyang
ikaanim
prok
proc
palad
pampam
nilagdaan
pananakit
mounta
##alisasyon
quantum
usapan
caesar
administratibo
instrumentong
russia
demonyo
aff
kaan
liwasan
mu
##oon
##dor
##bor
##ikas
abr
##aniwala
bayad
box
nalaman
##yerto
ninoy
helen
elementarya
siyentipikong
ungg
patriarka
pnr
arsobispo
bomba
cord
gur
hero
lir
pba
wood
yung
##11
##alili
##alastas
##aganda
##ulaklak
##chu
##itain
chief
binans
##udo
pagsunod
nagsabi
nagpa
animation
dumad
talento
madilim
petsang
himagsikan
##atory
christo
rodriguez
junior
kasarinlan
aids
kg
yu
##au
##imina
##ipit
alh
malambot
marka
kapatagan
kayum
##oyd
bron
che
kritikal
##ernes
nagpapatakbo
ident
pinakamahabang
##alamig
insidente
##alooban
debut
menor
kapasidad
84
cora
wel
ngayo
##ilitar
##ingo
parana
bras
haligi
tumatagal
##ambang
editor
naglakbay
##alabasan
cris
pagtatanggol
embah
pakikipags
1908
sandaling
nakapaloob
##akalat
istilo
eskos
denom
inhinyeriyang
babilonya
million
pinapatakbo
hitsura
oksiheno
katibayan
colombia
dos
eat
gul
gri
rab
##yod
##agis
magaling
##andog
tela
teolohiya
nabibilang
saksi
##lyn
allah
umaayon
bangkay
armen
##sky
namumuno
komposisyon
website
websayt
kalangitan
duke
lig
mort
turing
tower
##rub
naimpluwensiyahan
along
##edya
kabite
makal
salv
mahina
pagpapah
paktor
158
monte
nakakalipas
ipinagpatuloy
##uchi
detalye
bihirang
tagapagpaganap
maharlikang
gagawin
##aceae
ehipsiyo
average
bakas
bacteria
tsa
##sr
##his
##rin
##oo
##ku
##aslang
##aming
##eres
##rep
kinar
##ambuhay
reper
nascar
link
nagpahayag
harapan
emilio
merong
gales
russell
##kripsiyon
hydro
aurora
##ecutive
gabinete
gard
lalam
seksiyon
##ique
##agp
##atra
##akot
##ipal
karatig
chic
natatag
pagsukat
paglusob
artipis
karamihang
burol
sinusundan
tagapangulo
iwan
##unction
gradw
psy
simbolong
saserdote
eksklus
dila
lobo
plast
##ters
##yak
##olos
kanan
anibers
marie
kabataang
lumaban
tumira
pagtingin
##igao
##anaig
leo
reprod
imahen
1931
tulungan
##ologong
arabia
pinangung
sekund
pagkatuto
matatanda
##agsikang
kompleks
artipisyal
oro
opin
ti
##yor
##alibot
##inam
sic
panib
nakam
##ihis
malolos
pangkomp
mabagal
nagtut
##intahan
##mann
extr
babala
tuluyan
1924
region
aktuwal
pwesto
paglilitis
kakaiba
simon
spesipikong
bariabulo
82
babas
tir
##me
##lot
##ayaran
##ipa
pangasiwaan
input
pinans
algor
##upin
gram
magkap
humiwalay
organismong
depresyon
naghari
paghahambing
moralidad
kontempor
##ridge
aksidente
columbia
hollywood
konsiyerto
lolo
##kon
##cel
##agutan
##ilib
##umen
##esi
panatil
bilangg
##anth
##antino
binti
konstant
napatay
nagtulak
##ahangad
arte
pampal
##alingan
##aligid
pandar
irlandes
edukasyong
umiikot
aktib
southern
##ylv
fair
heometriya
pagluluto
jacob
corazon
ion
munt
##mal
##ahasan
##umulan
##elor
pinup
alok
kalup
sumapit
##ohen
paglilipat
enc
##thal
mapanatili
release
pababa
sikolohiya
trade
turismo
1916
merc
maituturing
hurado
movement
nukleyar
ekstink
tuldok
eastern
fund
gland
pse
##kins
##lement
##yento
##yanteng
##ves
##ilyong
##aps
##ikl
##entor
manlal
##ensidad
asyano
kinala
kami
phen
##ordan
epektong
ext
madrid
magsimula
umaasa
biyernes
budista
magkakat
pagmamahal
debate
nangunguna
gumagana
komedyante
lutuing
liwasang
bicol
korporasyon
lvn
eskosya
daga
hop
hospital
jones
##iere
##non
ayaw
##odia
panaginip
sanaysay
##aliz
##ocan
##hanang
napapaligiran
gregorio
offic
mekanikal
nakarating
konstruksiyon
calo
dor
eus
ich
##bos
##oshi
pagkag
arius
thai
chem
itinala
pinagl
pastor
nabubuo
nagpasya
const
digri
kolomb
naglalakbay
epektibong
director
france
nawawala
angkin
nauukol
panggit
##urnal
undergrad
##indihan
htt
pinakadak
bell
fu
lanao
misa
tore
##rasya
##kh
##kin
##kar
saang
isama
nagturo
##uros
unyon
arr
kaliwa
pinakatanyag
their
abstr
maramihang
espan
impiy
polo
nagmungkahi
genesis
little
clara
magsaysay
which
pulgada
biyolohiya
naisulat
french
pwedeng
pigura
septuag
uugali
anibersaryo
pinangungunahan
92
rud
river
sektang
tenn
##ges
##ble
##weh
##atr
##onimo
##ulum
##ahulugang
##enh
kanal
##ogen
##ebe
deuter
paghihimagsik
pagtatakda
1928
1927
magsagawa
pangmus
himagsikang
namumuhay
midya
review
kriminal
islands
quarterback
salmonella
septuagint
dub
jin
kre
##neg
##via
##ilyang
##unyag
##iping
nicol
magu
align
alemang
marik
##ersey
there
kaliwang
agusan
pagkakah
##estih
relatibong
monaster
genome
dela
250
surigao
1901
napakalaking
nagsasariling
benep
paglalaro
ukra
makatulong
sciences
pagkakasunud
downey
tugtugin
account
81
fat
hold
nerb
pio
well
##rano
ayala
pandig
katihan
##entasyon
##andez
armas
##antes
##lee
palagay
chair
nagtayo
hudas
1912
teror
kontra
talaang
arabiko
korona
wiki
dance
administrasyon
historikal
pagpapatupad
inhinyero
akademiko
laurel
management
kasuotan
imbestigasyon
hawaii
paranaque
cit
dalaga
euk
fish
gm
iiba
lalim
lrt
wang
##sylv
##cp
##aker
##esco
pangako
pars
##emo
panalangin
ibat
tho
tinanggihan
##eba
pale
halong
sumama
pagpapatuloy
shang
milit
##ocrat
nasus
poly
balah
carri
transaksyon
ekonomiyang
bigla
1899
bolt
pagkakatatag
semi
output
pinagkukunan
concep
mambabasa
antipolo
kabihasnan
committe
87
ai
dalis
fun
jess
kang
rot
##our
paningin
nakukuha
mach
three
pagsasalita
deng
pambata
pasc
romant
adan
basehan
##isipang
pakikit
kontribusyon
four
makabuluhang
derib
ateneo
napanalunan
pennsylv
katiyakan
pangkompyuter
86
beh
sid
talak
##yasyon
##erre
##iklab
pagrer
inis
nakaranas
maunlad
kaarawan
maramihan
##ampa
nana
klasikal
poe
executive
##lingkod
front
macarth
pahintulot
susp
wars
##ampalatayang
pagkatalo
jerem
type
##hattan
banyagang
railway
kamalayan
chicago
caloocan
jersey
lola
ner
row
suz
tet
tob
zoro
##lar
##tar
##angel
##inum
panghal
##icia
pagkalat
tagagawa
hanggan
paglabag
##inea
nagpunta
panlungsod
##rilyo
pangangalakal
pagsasaka
##oroonan
nagtatampok
alpha
eksena
probinsya
purong
kadahilanan
family
tatlump
maguind
macarthur
fem
galak
morp
##alista
alit
karahasan
ikinas
massa
ginint
tribong
stan
##eck
shar
nagbukas
report
control
##ized
konsentr
metr
nakatulong
kompetisyon
nakikitang
sabihing
lagnat
ahente
nagawang
pagkakataong
limitadong
##omenda
mediteran
anggulo
grammy
arhentina
panibagong
marikina
auth
ira
jazz
kel
rol
°c
##iod
##fo
##adyang
##ensa
##icle
##ekomenda
prus
sumeryo
##ohol
kumok
dumalo
ipa
nakakapag
empley
kabisayaan
doub
pagmaman
nakababatang
mapagm
pulisya
organo
humahantong
pangingisda
gampanin
palawan
civ
hika
nya
##risto
##eros
##inger
##iyente
##town
##eneg
##elasyon
panganay
pinalawak
##ukit
magall
##ugunan
akkad
sinamahan
##laon
muse
planong
bulw
narito
johnson
##roskop
england
sosy
pagkasunog
movie
##itzer
aparatong
standard
kahilingan
lehislatura
yugos
94
eff
heter
lus
lant
morn
tahimik
##lob
##langan
##asag
pandi
katan
##ekw
tauhang
maunawaan
##ilaan
masalimuot
estilong
mabuo
##ormasyong
pambih
comics
nasyon
##ondena
cristo
1921
boa
ign
atomikong
magkakapatid
mukhang
positibo
pakikipagtulungan
alejandro
kripto
algorit
committee
empleyado
magallanes
gib
hok
##tis
##asaan
##awakas
kasik
##ilipad
kapans
ginagawang
asul
sher
napalitan
##lash
nagtamo
##umpara
##istry
nagpapahintulot
ipaliwanag
ireland
1905
km²
teritoryong
kasangkot
hardin
electric
pagnanais
nepal
dinadaglat
sanskrit
beg
gulong
jak
nut
ric
##rito
##var
##atin
##amahagi
katub
kasiyahan
##ekn
pagkad
##ention
ilagay
kabab
patalastas
##ehiya
tumit
pagkakamali
estadist
neander
mangh
##uction
konsilyo
only
actor
pilar
pantalan
youtub
johann
damaso
sinusuportahan
rafa
volume
sangguniang
dalawampung
pahilaga
katarungan
lalamunan
bant
fire
lep
last
layong
mp
mendo
##rol
##bu
napang
##atikos
##akang
##akto
isulat
##abad
pagasa
##igd
##iganti
##entil
arter
they
ort
konkl
tanggap
##asalin
temang
turko
pangmilitar
pagkabulok
islamiko
sagot
##ipinta
akademya
georgia
anatomiya
##silyer
kantidad
kabutihan
pinangangasiwaan
neanderthal
900
call
full
gom
haw
rum
rest
tah
toh
ve
vow
villa
##lip
##akuha
mayamang
prog
halalang
paglaon
serif
baril
disenyong
##untahan
panlipunang
tagapagm
bulaga
1923
1926
kontrab
pansariling
biswal
pagkakatulad
inhinyeriya
relihiyosong
honor
lohika
kumikilos
kapalaran
magasing
dambana
nasugatan
mendoza
dion
dikt
hu
kunin
va
##lanong
##cio
##ilitan
atta
##ike
kanin
ibabang
##ekut
##entum
##uhod
##inaas
##tress
lumalaki
samuel
universities
panlaban
obh
##ithec
nalikha
erm
journal
baybaying
tabla
trinidad
nominasyon
sweden
hughes
cant
##rino
##oor
##zilla
##jan
##alot
##apor
##ikula
##urh
pamim
nietz
anne
##istro
maabot
ilok
amoy
lumalag
pagpapakilala
pagpapahalaga
disc
##intang
##thers
suportahan
pagdad
beat
partikulong
bersiyong
proteksiyon
aprikanong
segment
magkaibang
ehekut
audi
pek
##ror
##pen
##lu
##ashi
##ikulo
inangkin
##odelo
##eki
##oty
alc
malikha
prag
akyat
patron
##estong
nahih
151
pumip
##asakit
silanganing
bituka
ahm
##ysis
matematiko
nakasama
ihahambing
umuunlad
voice
isabela
renasim
kinalalagyan
christopher
impiyerno
youtube
89
dong
jeh
mahilig
oce
taba
page
##estra
maya
pinsan
anna
maur
aleh
##chan
pros
asal
pamamahagi
pataas
saling
tumanggi
pangkom
enri
shah
pakiram
##insala
##uct
universal
##ified
henetikong
monop
epektibo
oblast
130
kalakip
hangang
gustong
##atakot
dakong
datu
tanggapin
darating
mekanismo
##rastr
girls
makapangyarihan
mambabatas
alinman
##apalaran
yahweh
apelyido
09
cu
gabay
iyo
slov
yang
##inl
##asawa
##illes
##amuros
##itibong
##erkul
##abihan
##ores
##ipi
##rog
##ential
##ianismo
##ebal
pinakakilala
manipis
batman
salik
contin
mapanganib
##ift
talent
tumutugon
seleksiyon
daluyan
1913
ahed
buhat
entidad
lunas
pormula
kadahilanang
mapagkukunan
palagiang
pinakadakilang
ginintuang
buhang
cub
diyal
kis
lot
rose
won
##mm
##hati
##of
##kuran
naabot
##astr
##oni
##onen
##itt
##abe
##oleon
pangarap
##roid
paras
anuman
nakasaad
katas
maalam
maikli
kapat
lumisan
##imbang
pangka
disp
inilalagay
adapt
pagdaka
nakatatandang
naglalayong
##rome
pakikipaglaban
tarangk
istrak
dahilang
##iskubre
arkitekto
binibigyang
##bahay
lunes
masasabing
productions
aparato
kalsada
##tatalik
kabuoan
undergraduate
maguindanao
morning
rafael
guang
rating
voc
##sche
##well
sagr
##abangan
##olia
##ibili
##etta
##emen
pagkatao
trias
napunta
qui
latino
singsing
homin
senior
protesta
labasan
osm
teknolohiyang
mitolohiya
idineklara
lalakeng
mosc
paligsahang
pinakakilalang
kalamnan
sadyang
mobile
ordinaryong
kolombiya
alehand
ahedres
aabot
mess
pob
sot
tot
##och
##ayway
##isha
##awn
##unita
##idge
##rogr
##andar
aran
arko
itinaas
kahus
##eptor
kumain
kritis
napansin
inilibing
samb
animasyon
tungkuling
pagdaan
pagdaragdag
##alayong
peryod
nakapags
brother
pangmatag
##serv
korup
pinagmumulan
pahayagang
birheng
freder
makapagb
pampangasiwaan
##wealth
binabanggit
rebolusyonaryo
isabel
loren
square
libreng
commonwealth
tatsulok
mandirigma
##igdigan
bungo
diliman
raw
rio
sors
yosh
##sin
##oe
##asia
##isya
nagagamit
##imika
##olekta
##idis
##ibat
sira
pinayagan
pampanan
##ubong
##ices
##ekord
malinis
tinanggal
ginag
palik
kinuk
kahon
minam
napoleon
pampul
heograpiya
##alayas
bible
guinea
pagmimina
koordin
1906
pilosopong
koron
felix
tuyong
patayin
instrumento
pinakasalan
pagkakabuo
obserbasyon
tanghalan
pambabae
kaibahan
mountain
abraham
unggoy
brasil
nietzsche
balag
hula
lg
myan
tb
tangg
##itch
atr
atay
##isand
##iseo
##uny
##olin
##olic
##ibe
ibalik
kart
kaal
tagpuan
chap
pagtulong
label
##ambag
minim
pampas
pumili
pagbabawal
##abagsak
##onsumo
pinapayagan
##cau
atomic
fred
britaniko
saging
makapagp
planetang
##ahalintulad
pinagtatal
mekaniks
diperensiyang
ligaw
##gamesh
kuponan
autoridad
dream
intramuros
nagsasanhi
speed
kinaroroonan
euseb
concepcion
moscow
dw
##rika
##uet
##des
##field
isahan
##unayang
##adali
##osc
pinanganak
##inasyong
ilegal
binata
stew
mabab
##ungkot
##atangi
pampa
##andaang
nasakop
mode
exc
##uston
nangangasiwa
when
assemb
sekta
operasyong
indian
kombinasyon
magkakasunod
original
patnugot
telepono
opinyon
bilangguan
dulang
ear
nes
vac
xx
##oa
##das
##zpi
##anhi
##ayaman
##erra
##ension
train
orb
natukoy
pagsakop
impos
magkahiwalay
sakupin
##utom
##apanalo
##essor
sapilitang
##ilbihan
nagsasama
nagwakas
streisand
estruktura
hurisd
pagmamayari
hesuk
borneo
perpektong
panatilihin
panggitnang
kasikatan
myanmar
bertebr
corn
flow
ms
tandang
wast
##dle
##wis
##30
##asid
##arus
##ultural
panga
ani
##ayana
##upang
##uwas
chile
pagtanggi
pagbasa
pagpapalawak
magkapatid
pask
reputasyon
based
156
court
168
naglunsad
intens
1911
food
pinagmulang
rosas
lapad
kategor
episod
pangkasarian
african
ohio
government
aabuso
pennsylvania
pakiramdam
lord
spin
suc
##mi
##ship
##face
##igno
##idi
##rov
##opya
matit
tinipon
masb
manch
estim
kaiba
tags
##ulation
paglaban
shop
shonen
##iyosesis
manging
kagaw
##erald
##ayaang
heav
carolina
nakakabit
pagbabawas
sovi
like
hudyat
panitik
imbentor
northern
gilgamesh
artikulong
pumapasok
ebidensiyang
##ification
kasulatang
panunungkulan
division
jeff
pinakamatanda
elektromagn
prince
iraq
tagapagmana
did
lisa
##abo
inimbento
##ugu
arc
third
##uano
##ebisyong
manhattan
sinubukan
natamo
##imbak
sumuko
##igarilyo
pagpapaliwanag
edu
magkabilang
samang
polako
pagpasa
teoretikal
katolika
napakah
inihalal
kumpetisyon
complex
prinsesa
elektrikal
joe
kwadrado
sapatos
platap
limitasyon
pangunguna
molekular
dyip
multip
visayas
apollo
cus
cens
das
jordan
ki
kambal
other
pp
ran
tuntunin
##pong
naisip
##arawang
##iket
##ilanggo
inom
##uge
##change
pagtugon
pinakamagaling
agency
agustin
pinagp
154
##yeong
pumatay
komplikadong
title
sulok
pagsusulit
dokument
domingo
oscar
calle
pagkabalisa
numer
even
williams
babilonia
nagpasimula
pinakamababang
alisin
oxford
hanapin
panayam
legazpi
ekspedisyon
buhangin
06
ax
biz
fall
herb
jay
munting
pyr
tupa
viii
xi
##eet
##py
##akamatay
isagawa
##uktot
matalo
makit
pinakal
manin
natat
lalawigang
nagtatanghal
comic
pananim
tangi
direction
pakikib
likuran
doug
iron
1909
butong
lingguw
kondisyong
houston
ideyang
turkmen
nagmumungkahi
nailathala
alpabeto
misamis
advent
kautusang
jane
tonel
mandaluyong
contest
next
salvador
balahibo
author
korupsiyon
hash
payo
ral
toll
##ور
napin
##asiya
##akibat
##urulot
pagkawasak
mau
##uwesto
masang
mani
estat
chim
binili
summer
grab
pagbili
stad
nagbunga
pasukan
isinusulat
klasiko
inaangkin
pisikang
biglang
instituto
fox
ern
platinum
turkey
jerusalem
russian
nakakaapekto
logo
laboratoryo
kapakanan
konklusyon
kahusayan
hesukristo
05
hag
iilang
##mark
##rar
##damang
##tes
##je
##igl
##igen
##iment
##ubay
unahan
kasintahan
##ekturang
taft
kapam
chang
lumagda
##lock
pagtakbo
mabawasan
impormal
build
##ques
nakakita
dramang
scott
##tions
dokumentong
higher
panginoong
##zech
godzilla
suwesya
responsibilidad
ipinagbabawal
pangmusika
dog
kura
lunt
ming
nlex
tong
teng
##kha
##kahulugan
##dala
##tad
##bes
##areho
atas
##abilis
##iyanong
kasaping
##ekom
ilipat
kayo
barya
saka
resist
##iform
##avel
meth
nakatakdang
140
user
bloke
##helm
airline
indonesian
administration
##akatuparan
about
factor
pagtataguyod
banyaga
kredong
##enzuela
katapatan
gabriel
pandigma
ikinasal
tagsibol
agar
bug
diwang
densidad
fal
fash
gat
iingat
jenn
kund
rib
wag
##tanggol
##be
##bus
##ful
##alagi
##isap
##ikadong
##imi
##ipika
pangw
ink
inapo
##ukha
##inaos
##iao
##ahanay
kaag
palam
trabah
sinabing
cha
ork
lumaganap
napa
milyang
awstr
php
##inson
155
##bour
175
monumento
soul
epiko
149
##abawas
1897
burg
valenzuela
kwantum
tagapagtaguyod
zambales
secret
nailabas
ortodoksong
demokrasya
putik
sipi
puerto
nakakatulong
ukraine
soviet
fashion
benta
hik
late
mapat
woman
##east
##mond
##hm
##hib
##daan
nazar
##onian
##ahalang
##elang
##omi
bilanggo
tax
alum
abc
pagpapal
sergio
magkasama
nagpapakitang
##iev
##aganang
europeong
moon
##landiya
been
depos
clem
brook
kinabuk
paggalang
regional
##araniwang
eskw
mikroskop
studios
break
##vince
bhutan
baskagan
##grapiya
inirer
rivera
sapiens
nhk
pascual
deribatibo
pandiwa
pambihirang
bung
banta
czech
fur
flav
mend
nur
qing
rain
tend
tono
viral
##len
##bre
##wh
sav
##amon
##isc
##imok
##idigma
##etts
pagkok
##okus
##antala
##upil
##anggagaling
##iaz
thr
sinuportahan
kumukuha
disorder
metabol
bakuran
137
pisiko
litrato
stress
ekspresyon
damo
robin
mikrob
memorya
wales
nagmumungkahing
hongkong
statist
satell
##rehens
catholic
kanais
relatibidad
kaparaanan
alhebra
##estihiyos
bod
dugong
fres
hans
pc
sut
##apresyon
##uming
##elda
marx
mariano
##alangkas
thalia
province
manatili
ipinaliwanag
aksyon
amors
seroton
##estro
##ekswal
diff
adb
adam
pagpipinta
animated
dumi
iginaw
1903
1902
1000
atomiko
##shire
watch
organong
doktrinang
altapresyon
higanteng
sustansiya
depinisyon
mediteraneo
museum
pampulitika
assembly
masbate
iginawad
cuba
eug
fm
nint
nipp
vinc
yak
##mong
##mento
##span
##gol
##day
##bt
##bat
##burn
naapektuhan
##agisag
##itim
##unas
inab
##etas
magtrabaho
nakag
katwiran
##okol
matamis
##aano
braso
brune
##acion
tumor
graph
napoles
optim
tsun
nagpapa
planta
universidad
klasipikasyon
##elli
action
actress
crit
johnny
semin
evangel
typh
boston
alyansa
invest
ipinasa
aalsa
uusig
kontemporaryong
nicolas
shanghai
yugoslav
osmena
alehandriya
03
donya
jor
ker
kev
lud
nis
ss
side
##eor
##yla
nac
##alibutan
##agip
##aten
att
##unidad
##olusyon
##urok
inn
##ukturang
##etes
##ician
##ihiwalay
malap
matal
##eder
##anggalang
akin
trah
sumang
nagtuturo
tatum
nilalarawan
colspan
okasyon
genre
later
1915
benj
padilla
nakasentro
sekular
peace
alkohol
studies
bihira
isinaayos
argumento
kumbento
ikawalong
friend
monasteryo
satellite
ey
piano
ryan
##hana
##tana
##band
##west
satur
##arto
##aprub
##oral
inp
##emin
maganap
hiniling
##ops
##oteo
albay
arn
##edyer
marahas
taglay
##ives
pagbubuo
pagbebenta
stone
pagpaplano
umano
musical
bumili
cond
##ektadong
pumirma
esperan
pangkatawan
dalhin
nalilikha
##retiro
naiulat
plato
penins
hipp
##agawad
otto
liwayway
malabon
dobleng
sekwensiya
atmosp
communic
kinalaunan
http
double
sorsogon
brunei
aer
fiba
galang
ice
vil
vul
##ming
##hem
##kang
##yc
##zhou
##bing
##anlur
saw
pinapan
##uktor
##odigo
##irekta
katunggali
kasamahan
hinahati
##ugod
than
tinatag
pinakab
tagaytay
sinimulang
##acy
##igaw
mabigyan
hill
kamalian
pananampalatayang
174
nagmam
idinaos
naglaho
##onder
made
pantig
peru
hangga
radyal
communit
tuwid
bisita
arkid
benigno
kumpol
##ibigang
susi
kapanahunang
kakaunti
revolution
nucleus
pinakasikat
humahawak
parirala
distribusyon
kontrobersiya
kawani
economic
cinema
##chusetts
kapisanan
chairman
aster
flo
klin
len
plur
pert
##fe
##atuan
##aturang
##onso
##rough
##uking
nakasak
alice
malalang
ituring
marsh
pinakabatang
##unds
kaakibat
cher
namamatay
##less
pagpaparami
pagpapabuti
edition
##olohiko
pananagutan
nagpapanatili
152
pumanaw
105
money
librong
obl
pandaigdigan
buwang
##abahagi
presensiya
hangul
baby
kawayan
bersyong
bibliyang
bangkok
makakat
namumulaklak
prime
maiikling
producer
operating
sudan
momentum
ipinagkaloob
teleser
substansiya
tensor
bachelor
muntinl
dalisay
massachusetts
muntinlupa
91
fab
glee
ioc
pili
##araw
##arista
##amina
##iyet
##osph
##iris
katungkulan
kasalan
hinikayat
pagkontrol
##ensiyong
kahanga
konb
##iligaw
sanl
ensik
nananaig
milag
##ernong
nasusulat
##ulugod
talumpati
110
perez
ekonomiks
##neum
kawing
industriyang
belhika
chris
lipi
mikro
sukd
##time
sonang
access
atenas
komersyal
nangingibabaw
touchdowns
benedicto
attack
araneta
serotonin
##aprubahan
ensikl
cable
jur
kamang
sura
yel
##rine
##xide
##ility
##isay
##igur
pinto
##irhan
##obomba
tinapos
makalikha
kaisipang
amor
konektado
pagtuklas
##asanib
pagbalik
kumuk
kumilos
diam
multi
##ermo
kulisap
laure
##ilisasyon
1904
##phy
domain
napapabilang
propesyunal
sulatin
##lakbay
pribado
tagapayo
alkim
historyan
magdulot
kalendaryo
broadway
lapu
premiere
mrt
astronomiya
celebr
fried
intelekt
isinasaalang
anthony
pinakahuling
pinansiyal
kinabukasan
amorsolo
cet
core
dil
kuta
lathala
nk
pick
rac
tingin
zone
##kob
##ghan
##atis
##ilog
##itus
##itikong
pagawaan
nagsa
pinab
##emia
magaang
ibigay
##anding
kabig
mask
estrat
sinehan
dinosauro
battle
namin
pagsasak
itinakwil
tumama
grant
stage
impluwens
imprastr
diskr
pampalak
##umpaman
imigr
siglong
carmen
libing
pabrika
siklo
kabahagi
espesyeng
nakapaligid
migr
espiritwal
hidroheno
congress
mother
distansiya
handog
##lohiya
stephen
pierre
ilokano
lorenzo
bunt
cesar
lic
ru
tod
viz
##ega
##xy
##alahan
##unsod
##urb
six
panimula
##icon
pagkapanalo
tinalo
akb
aming
amino
saligan
konp
itinaguyod
pagtutol
mababaw
shot
shia
shell
impr
nahulog
##iza
karamdamang
##ucl
isinus
panlahat
164
165
henus
mew
dramat
acid
beach
schol
ulap
negatibo
##ically
sikolohiyang
nakapagl
##limang
teresa
queens
puwit
protista
sobiyet
##house
agric
detaly
##rison
kodigong
kalimitan
kasanayang
disiplinang
electron
##rehiyon
augustus
neuron
destinasyon
benguet
version
repormang
kaunlaran
pangngalan
katubigan
file
hih
jung
jason
jets
kuk
kend
ting
word
wild
##ax
##rh
##kal
naro
##agalang
##atnan
pangatlo
pinanggaling
nakumpleto
marunong
##chen
koneksiyon
gayumpaman
##ecture
napiling
teod
nabab
mangyayari
leop
diyosang
libr
naglalabas
scot
clipp
pagguhit
pref
munic
munisipyo
makaag
husto
justin
optical
michigan
hipotesis
gradwado
konsentrasyon
kapansanan
arkidiyosesis
beta
dahan
hating
lav
mt
puk
pear
roh
tabing
vin
##yut
naik
##onto
##iton
ish
##awing
##adan
inb
##eton
panand
alabang
kabuhayan
makin
makuk
##ensyon
papaano
umakyat
oposisyon
hilaw
##garya
sariwang
imelda
parehas
161
ipalabas
transmit
soberan
bise
magbibigay
islamikong
magtatag
cebuano
secur
boys
wilhelm
eksklusibong
biglaang
ortigas
wastong
bayag
dulong
function
n1
rutang
sri
naia
##akia
##ulas
##isor
##ikhang
##adagdag
##imal
parusa
kasamaan
##ansya
##anggong
pack
prost
##aca
lumipas
itinakdang
kampan
##ainam
rehim
153
relasyong
nagmamay
167
##quin
bakla
self
kalakhan
lagusan
protinang
pandama
calc
byz
galil
middle
paghihirap
prinsipyong
graduate
kaugaliang
kontrobersiyal
##yosong
bantayog
pintuan
knowles
pampalasa
makaagham
bawal
ford
horn
ji
span
tandaan
zh
##king
##agalaw
##itas
##ites
##orsiyon
##ipan
any
##sta
karen
##angguni
tinulungan
tinangka
makah
lumilipad
##oca
teen
contr
163
talon
##uriin
exchange
paglalapat
sibilyan
lipad
christmas
stop
manlalakbay
justice
hinduismo
beauty
sentimetro
sekundarya
eukaryo
makitid
clippers
02
beter
cec
fiction
luk
leng
misyong
##agos
##aton
##elikula
##uksyon
magaan
##eke
##stein
##regasyon
##iwalag
margar
karl
kargang
isaac
##aco
salamang
komite
lov
tinatalakay
edisyong
malakihang
multo
drive
laz
145
obisp
mananakop
valley
##aramdaman
1870
nagkakahalaga
kanonikal
castro
tinagurian
staff
sungay
nakatagpo
manlalarong
stewart
kategoryang
clemente
nintendo
typhoon
08
aangkop
bip
bulat
dad
hiwa
kama
kawang
kubo
pawang
pneum
tas
tart
wolf
##ians
##oid
##wenta
##ια
##aym
##idor
pinta
magagandang
taun
##entista
##opithec
##uging
promin
ipinang
asos
pagsilang
##load
apok
paglampas
pagbisita
pastol
antig
##umpong
nasawi
nagpakasal
baly
sequ
ipina
apatnap
talambuhay
##riliko
libangan
libert
franco
marcelo
pamumuhunan
pinapalabas
upgrad
pwede
afghan
elect
##ultang
flu
nakipagt
suliraning
hesw
cosm
kainin
napatunayan
kidlat
steve
capital
ipinakikita
natatagpuan
gomez
frederick
07
binas
dante
gad
lama
lao
neb
ost
uuri
ww
##ailangang
##uod
##ju
##ان
##inus
##arga
##ised
nich
alaga
matapang
kabayanan
kaurian
trat
trak
binub
bintana
kretas
ekstr
ekumen
impeksiyong
milenyo
##olohista
humalili
166
superh
pagbabayad
118
##osevel
roosevel
programm
franch
radikal
##orough
recto
ninanais
kamaynila
nadagdagan
parke
vicente
darna
treng
bubong
malac
historyador
niyog
basilika
venezuela
inanunsiyo
kyoto
pangmatagalang
roosevelt
fan
fidel
kent
pito
sement
tes
tud
tayong
yok
##aong
##rero
##zu
nalathala
nguni
##aloy
##inda
angat
##asis
ate
##akin
##aklaw
##apy
magagawa
taal
alim
##ahanayan
trig
trangk
amin
ord
salle
tumugon
pagbaha
env
##epsiyon
##orth
##resenta
neo
nagkok
##intindihan
baseng
125
nakakalat
taluk
ninais
obando
democrat
ninyo
mandar
administratibong
potter
bandila
julian
magkaiba
protocol
cambridge
franklin
address
pinarangalan
embahador
pakikipagsapalaran
benepisyo
alituntunin
kontrabida
istrakturang
kevin
kamaynilaan
bala
cn
dp
dio
eucl
flash
ix
mtv
naniwala
qur
tabang
uw
wonder
##pat
##pur
##uary
##atitis
##isika
##isado
##apitan
##adian
##roup
pinyin
pamas
pamunuan
nica
##utulong
katalik
katabing
katatak
kasags
##icus
tainga
##ugt
##stan
aling
ilabas
##track
##ebook
tagat
batsilyer
dead
pagpapadala
labint
mabub
papal
bumoto
##iful
meteor
tumutugma
pakikidigma
medina
likhang
litid
homer
austronesyo
regalo
kilometrong
kalagayang
##ski
kabatiran
tumatalakay
klimang
pakikitungo
jakarta
authority
byzant
01
jew
mey
mahanap
roll
role
tree
tuhod
yas
##pik
##ds
##dr
##zee
##aralan
##aresto
##amer
##apong
##unikasyon
nagpan
unesco
##otep
matiyak
mario
##upe
amen
lumawak
pagbabasa
##ampu
comedy
pampook
paghahatid
nahuli
espirito
173
pamilihang
cook
gitara
pantubig
pisikong
##rates
mananalita
makabayan
monggol
banglad
maitim
tuyo
eksperimentong
##amasid
satel
masasamang
harvard
inhenyeriya
phoen
tsaa
zoroastr
a3
cad
mangk
mawala
ow
porn
tog
vat
vamp
##sw
##iop
##yant
##agyan
angola
##inggan
##abanan
##olitiko
##urgo
parad
##ukala
##irin
magic
ibayong
##ister
mao
##oter
marian
read
reaksiyong
kalinga
sumatra
##hain
##ampo
pagkakamit
kumita
nagtanghal
nagtatakda
index
nagkas
sakr
tsokol
nagpapaliwanag
rehyon
##insalang
mapup
pumup
solido
##onsor
takip
1890
tinutulan
sinusukat
recording
platform
hanja
molekulang
diperensiya
atleta
magkakaiba
tamil
misteryo
cambodia
distribusyong
cultural
beautiful
carmona
kayumanggi
##otype
stadium
inirerekomenda
##anluran
kasagsagan
bond
cp
gem
kusang
lalagyan
mn
pika
rp
vii
yun
##ead
##ms
##view
##for
##angh
##atris
##itasyon
##akulo
##abular
##awesi
##umer
##usog
##identeng
##omena
##real
maipag
alab
##uhos
math
march
iligtas
##anov
sinuman
##alagak
paglaganap
kumatawan
nagtungo
disease
nagbuhat
##eous
nagpapahayag
##eyt
balar
pagpigil
naglalagay
pantas
katangi
blan
singles
persona
naghiwalay
terap
sulawesi
iniisip
iniutos
joey
kwento
istilong
insekto
walter
ikinatwiran
lambat
hatiin
germany
student
nagnanais
effect
kababalag
obispong
04
fut
fame
hell
hust
lamp
rice
rene
susan
sony
uc
uusap
##sel
##brid
##vada
##alyang
##atar
##ataan
atin
##adel
##imer
maglal
##otr
##uhing
matagpuan
tinanong
##ries
paglisan
abot
pagpapatakbo
hulihan
nabawasan
nilul
coast
script
blog
nakapagd
terr
emb
australian
napakaraming
pagkabata
angkang
smart
judah
etnikong
hamon
inhinyerong
rebolusyonaryong
samaritan
copd
hepburn
sebast
mecca
pinagtatalunan
plataporma
body
dih
gug
mck
ptol
tatay
##mes
##rib
##kreto
##gs
##lah
##cent
##tu
##bn
##agh
##atulan
##aryang
##akong
##osius
pinalaki
##irus
maingat
matatandang
##alanin
prote
pinakat
theory
nation
death
##iliga
grabit
barcel
napabilang
umusbong
pasta
nabub
106
coll
mean
talud
##manuel
kristal
syd
uling
malawakan
brothers
##eva
pagguho
##alogo
1892
iniuugnay
absol
himn
pinangasiwaan
idinir
sangkot
martial
interesado
maghanap
norway
nilalaro
nilalapat
lutuin
children
ikasiyam
pagnanakaw
palestina
enrique
early
chimpan
ferm
lt
lyn
suot
some
##anumbalik
##alisyon
##inator
##ayamang
##iser
##usong
inut
##ukob
pamangkin
katalin
katambal
##redo
maz
##andong
masaya
ginugol
kaisa
amo
ory
lumul
away
##umpis
spirit
reseptor
kulto
colon
europe
laura
##alisadong
crist
##arkahan
pangangaral
liturh
proporsiyon
katolisismo
marcion
##iksing
charter
bureau
naitalang
##ugas
years
simple
##ctus
pagbubuntis
magkakaugnay
finland
tutuloy
lesb
andrew
presidential
soundtrack
yaong
romantikong
community
ekumenikal
cay
diction
erot
five
glas
hah
mcc
rama
tito
viva
yan
yog
##zy
##atwirang
##onstr
atensiyon
##umar
nagg
##ungga
inj
inilaan
hinuh
##uhol
rece
makatang
##cht
ginug
pinakabagong
##unduan
sinap
asean
pagsalungat
nagsanhi
sanch
pagpapalawig
##ampi
impormasyong
miller
##impluwensiyang
never
subic
dioc
balint
koleksyon
sever
search
supp
##asalamat
nakakah
##ondohan
epid
direkta
dele
kurba
narinig
surat
whit
magpat
serbia
alamin
pusod
paglalayag
ebanghelyong
lipa
katotohanang
purp
naaangkop
taylor
astronomo
usapin
tagapagbalita
pressure
hanapbuhay
rebelde
pagkakalantad
weekly
australopithec
autonomous
episodyo
##estihiyosong
bangladesh
chimpanzee
bert
fi
guti
handa
hey
lul
og
torn
vert
walo
سور
##eing
saloob
##agen
##ayunan
##umn
##roc
##omer
pinalawig
##edad
rebo
##papalagay
bran
orth
##action
patas
patunay
itinut
tumb
##asanhi
##amble
##rail
bumisita
##eyoso
polar
henesis
##ertong
##sanib
obra
pagtatalaga
lith
bigyang
solid
aires
stra
nakapirm
armadong
1880
fernandez
kinailangan
##etsahan
makapasok
pinaunlad
diyam
nuclear
synd
katamtaman
circle
##edyul
rights
antioch
mesopotamia
panlalawigan
gmina
hurisdiksiyon
tonelada
pangwakas
fresh
nacional
pinanggalingan
municipal
sydney
سورة
aak
aalaga
ded
ft
job
mungkahi
pup
quran
ras
sod
##kw
##lie
##itahan
##ahalan
##ungad
siriliko
inatasan
##ukot
nakaharap
ilustr
makarating
kaakit
bansag
ingat
oport
hills
phon
phyl
dial
plac
mamum
162
support
ont
talampas
rehiyonal
##lamasyon
##aligirang
hangarin
solomon
kabahaging
takbo
petr
##iksi
sampu
switzer
belg
imbakan
bush
1889
monghe
##formation
monteneg
nalalabing
pormulang
anatolia
sosyalistang
domestic
rankings
binibining
pagdidisenyo
civil
algoritmo
restaw
ermita
total
douglas
naroon
nicaea
satelayt
switzerland
histo
talang
vice
yuan
yerba
##sam
##out
##ilay
iso
##imento
##utian
##ihi
##antas
marvel
kapap
##pinta
ginang
##tav
akto
chav
nagsabing
paglipad
grado
grav
aber
pagbawas
ess
minahan
short
papuri
disyerto
come
subt
##ilingkuran
humawak
adap
panlalaki
##ellan
##abawasan
nakaayos
negative
guard
emir
panghuk
colleges
##tier
nakapasok
osaka
robot
tv5
nadiskubre
seksuwalidad
fellow
applic
dalubhasaan
dagupan
argentina
babilon
kapareha
neutral
achilles
plasma
buenos
##errez
galaksiya
katanungan
eduardo
franchise
barcelona
ez
era
fif
yat
##hard
##rina
##risyon
##pag
##tikong
##ateral
##asi
##onong
##iyolohiya
##iyotiko
##iguro
##oldo
pangga
##idro
pinuri
mats
matalik
##alangoy
paco
isaalang
dinagdagan
chain
sumiklab
nagsasal
##emble
mahuh
compo
nahuh
tsart
basahin
plaka
sour
nakatuklas
mount
komprehens
148
141
bulak
guer
pagkakaibang
kongregasyon
##encio
pederasyon
holy
napagmas
determ
##likado
arkitekturang
porsyento
naaayon
bernard
sosyalista
circuit
counter
diplomatiko
##uktu
culture
sekwensiyang
ehersisyong
plastik
pakikibaka
kaagahan
benjamin
pampalakasan
gutierrez
cut
dibers
lyon
murang
nino
ritong
rav
ranggong
##monya
##iin
##kast
##uum
##fc
##asong
##ontr
##amasa
##uls
##ahasa
##ikasyong
pagawa
nagagawa
##ipun
katak
##stre
alaman
##iwakal
matr
##upkop
nangh
establ
ipinal
ipinatupad
kinumpirma
##ivia
eddie
pakahulugan
##ahalaan
polyte
##ayao
109
101
carol
nakatutok
147
likidong
harang
katanggap
depensa
olanda
naruto
emperatris
pusang
eksplor
##abayaan
nawawalang
makapags
pagmamasid
store
apple
##aktibo
mesiyas
timbuktu
advanc
boksing
synod
sexual
kapitulo
gnost
importanteng
olympic
udyok
reptilya
##organisa
transmisyon
binansagan
ehekutibo
diyalekto
lgbt
building
yugoslavia
detalyadong
library
dictionary
syndrome
bamp
ful
fung
lukl
pow
pemin
slav
tawi
##ou
##life
##nd
##yebal
##wr
##agaan
##ilok
##unal
##umungkahi
##usta
pangb
##idang
##etismo
##odon
panuntunan
##iron
##oprot
matt
##ersh
##ensyal
brian
briga
chrom
binuwag
##rium
##ampon
pinaghal
interbal
basikong
place
nakakaraan
talatang
bull
bakul
pagtatalo
takdang
##agalugad
##onaut
nakapalibot
osiris
valent
myc
vienna
nagkakaisa
ekwador
1861
cycle
lunsod
blood
eksperimental
treat
kumbensiyon
politikong
gerilya
pinakakaraniwang
demonstr
balakang
howard
pangpag
skyway
alaska
erectus
bowl
ocean
quiapo
pinakalumang
celebrity
scholars
kendal
afghanistan
kretaseyoso
katalinuhan
polytechn
350
dun
get
herman
joy
maw
ross
uran
##rama
##lil
##lagas
##nia
##alar
##atus
aya
##itage
##isong
##ikod
##umite
novel
pinanan
##utu
##irinig
analit
itaguyod
##upiter
deep
sumasailalim
##erous
##igasyon
gross
bayaning
pinakamak
##resyong
nasundan
spring
panlupa
169
##esses
inaak
##lamo
ultr
##ove
regulasyon
koalisyon
paglalahad
publikong
eksib
hebre
komedyang
miami
pigilan
atlant
facebook
concert
nukley
boson
finals
demokratiko
botan
kampeonato
norman
kaanib
glandulang
maalamat
palikpik
bizantino
brooklyn
rehimeng
sebastian
ontario
bakulaw
dark
lie
lingkod
meral
nord
sundin
##iest
##lag
##ction
naid
##adlang
##igm
##idahan
##ungh
##ubukang
kasagan
##ihara
maik
malalakas
malupit
reich
them
nangako
masis
masid
##ebec
kaas
tagab
lumalaking
energ
ekt
sakuna
ball
balanse
126
tuberc
naglil
##ialam
pakikis
ebion
deklar
bayarin
centre
pulitika
komunistang
##uyas
etc
eksperto
utc
##alinhan
mananampalataya
##ective
pagkaunawa
imbis
britanikong
josh
##ansinukob
magnetikong
magnitud
##daming
ipagpatuloy
##unggaling
bacol
##oshima
##ypt
literatura
neutron
autom
membrano
local
psych
##kontin
ahmad
##adelph
meralco
dop
guw
hiro
jump
kro
kuts
mg
sansinukob
tina
xii
xvi
##mus
##sahan
##ilasyon
##itik
##akad
isoto
##abok
##ikip
##unch
##osyonal
##imon
##omo
pamanang
anto
maglingkod
nakapang
kasak
kasali
202
##uhong
kabayaran
pali
##ensiy
##udugtong
kinalabasan
nagsama
pagtulog
pangkar
##asanay
timor
lewis
129
metod
##ished
pransya
period
syl
naghayag
bisig
1895
sandatang
retir
iskor
reality
sahig
pinaikling
songs
##alyero
buddh
hepatitis
september
arkeolohikal
badyet
philadelph
piyesa
ipapalabas
nakapagbenta
chalced
efeso
suportang
sambahayan
ganoon
aktibista
ensiklop
nichol
saloobin
beth
fra
gym
haka
kambing
mabang
vent
yus
zam
##inag
##inian
##itna
##ishi
##esang
naglaon
##iday
pare
##omorp
und
arena
itatag
kapaki
kapaligirang
##uwestong
taglagas
##mph
kinukuha
paglawak
labin
mabisa
mabini
napal
timoteo
##yana
punt
pakanluran
nagbitiw
nagkuk
submar
sarah
##araos
nasis
releas
dumami
naglagay
nakatakda
##sanay
dray
kompet
pilato
pagsasarili
takt
pinapa
biyolohikal
##abayad
isinasama
pagkabigo
sweet
napapalibutan
kwant
maiinit
dalawahang
politikal
octo
konstitusyonal
hemisp
monarkiya
huwebes
heometriyang
asiryo
holdings
shopping
tsunami
soberanya
www
luklukan
cow
flam
hamm
iz
nuong
siko
takas
uz
view
##hol
##tic
##van
##anto
##eri
##aboy
##enberg
##umikap
kasamb
pagkonsumo
macau
ald
maluwag
##inaan
##ches
kaaya
kaaly
brad
akus
dinadala
batayang
patunayan
mahiw
komand
pinakamalawak
sert
kumak
kumanta
pambayan
bumabalik
toyo
adolf
restor
108
##iller
##graph
pamilyar
coup
cover
nakatat
##emann
pagtatala
pangangatawan
sikolohikal
##ights
turn
embr
biyahe
eric
southeast
siruh
ipinapalabas
technical
tagasuporta
##agnosis
mosyon
moske
letra
daglat
lutasin
choice
hubad
follow
kazakh
nagpapatunay
sumasalamin
magsisimula
physics
griff
##agpuang
pinaglilingkuran
machine
jeremias
grabidad
akb48
bed
bbc
date
gord
hiyas
kut
koh
pest
suriin
yaon
##iisa
##lude
##cu
##ners
##wig
##anya
naih
##erius
##ello
##uru
pamana
##ici
##ekonom
hininga
hinalinhan
##otus
alerh
karb
nanganganib
##ianong
bruce
bryant
dinal
##arius
pamamahayag
##lesi
##riol
tumangging
pangkalawakan
paglubog
1800
##ephal
shak
shir
pinagka
huminto
tseko
adm
nagpalabas
superman
henetika
bulkang
quebec
##oven
##perensiya
nararamdaman
##oroon
pulmonya
baitang
puwedeng
minister
##alamuha
moreno
davis
valencia
idinisenyo
sinusuri
pinagsasama
katimugan
##igasig
panggag
gaul
legend
return
walt
corinto
influ
bokalista
paninigarilyo
sirkulasyon
lohikal
arkeologo
lisensiya
medicine
alfred
inakusahan
dimensiyonal
ehersisyo
performance
garden
inisyal
female
kritisismo
koordinado
trangkaso
ektarya
ds
gate
gender
ihin
kok
kord
kogn
nt
py
rico
tiket
##kumar
##pes
##lasyon
##not
naiwan
satan
##amalas
##itarian
##abak
##ipid
##ushi
pangitain
##ungin
##utes
hinang
hinahanap
##enter
alan
##ahanang
tagpo
##ensyang
sintur
pagtawag
lock
pinakamalakas
nanun
pambungad
awa
musume
basilio
polis
imam
monote
nakakal
exo
laos
libu
madagas
pangangatwiran
guy
guam
while
komunismo
heritage
elektrikong
imbensiyon
istud
sunud
lucena
berde
pinatalsik
strep
maglaro
##antadia
nakahiwalay
humanidad
voiv
inuuri
claudi
barbara
oxy
economics
random
audition
sumasalungat
nigeria
encantadia
deuteronom
boltahe
dengue
bulwagan
estadistikal
napinsala
wagner
##bourne
plural
superhero
sanchez
kasambahay
bish
clo
diaz
gel
hi
iri
lund
siling
sugo
simulan
tutub
tiwala
##sch
##hari
##pr
##palagay
##cop
##wich
##amid
##ulture
pagano
##awagi
##oryo
##elio
##uria
mayorya
parusang
katatagan
alalahan
karibal
kapilya
##alani
kayariang
chad
binigay
pagsali
pattern
##inois
lour
pinakamagandang
mabisang
napilitang
lux
paputok
subdib
pananamit
nagpalit
police
universite
##illera
metap
labanang
pinamahalaan
##halal
persia
teoryang
pagmom
allele
##icky
munich
burn
##ught
cauc
##ugao
explor
##aramdam
paglilinis
eksist
##assic
pinaslang
naipap
apostoliko
nakipaglaban
hadlang
satay
##lacion
nakikipagt
nakahimp
magkatumbas
misyonero
##gamento
##burgh
lumalaban
panauhin
hatol
mediterran
pangkabuhayan
analysis
illinois
##alized
burgos
teodoro
kababalaghan
taludtod
pinaghalong
eup
ether
gens
nu
ny
nos
nand
pion
pyth
ruman
soph
sede
tape
##mun
##mund
##kap
##bis
##boy
##fish
##alu
##ilar
##itter
##ulu
pinong
uno
nakhon
##eka
##ugat
maestro
alg
aralin
male
kalus
makatanggap
pain
prangk
isaias
amph
##acan
kinondena
eskr
pagpapalaganap
##inee
bumababa
##ifer
carp
128
pagdami
laruan
115
tumuturing
##roph
dalub
propors
propetang
boeing
1894
1891
sampol
kimikang
isinasalin
burma
mandarin
target
##ugay
1888
eskoses
1863
pinatunayan
iwasan
toronto
iskedyul
##epende
tenyente
grande
manlilikha
tansong
princess
convention
kainan
tugtuging
biyetnames
folk
balikat
nakamamatay
pandaraya
talakayan
sagradong
nippon
tratado
democratic
bampira
drayber
bali
dh
gabing
hier
jar
lol
palan
##sy
##coc
##bul
##anio
sac
saga
##alumpati
##ayapang
##orus
##iper
inayos
parol
##uksiyong
panulaan
magellan
nakalaan
matugunan
##antiyang
kabit
kabalyero
pilipinang
tinalakay
##chas
##trans
trigo
##imbagan
abn
mini
server
nagbebenta
##alitaan
pampamahalaan
antis
resolusyon
career
127
tumutungo
pantasya
forbes
uruk
pagsasara
magsulat
century
guadal
##atanim
regency
herod
pagsusuring
##nanakaw
irish
mamamatay
seksyon
tawaging
elektrisidad
##ograph
waray
again
makatoto
kakaunting
tablet
capiz
magdal
lawr
pinagkunan
maipap
facto
pinahih
ikalab
rhodes
arkeolohiya
ingglatera
rodrigo
sustansiyang
gagamba
gonzales
sintesis
ipinatapon
pagdurusa
ganoong
extension
military
sotto
mangingisda
custom
diskrim
heswita
labintatlong
hemispero
bav
dabaw
eigen
gaga
hern
june
lake
raha
zap
##ray
##uos
##aland
##ined
##indig
##usok
##istic
##ayanang
##uhula
realidad
these
thebes
through
makaraan
makahanap
prekw
mana
##arias
natagpuang
kinanta
april
abad
##0000
pagpapalaya
agos
shi
umb
umawit
##agaang
awtor
nabago
samu
linux
kilalanin
kagalingan
mamuhay
sigur
henri
taliwas
##urias
119
libya
##aligsahan
dingding
latitud
##ovian
termod
inters
guill
##inangang
pulbos
##each
ahensiyang
publikasyon
israeli
compet
paanan
manggagawang
kadena
systems
paglilimbag
1860
pinatut
elektronikong
episodes
##uhou
##ripisyo
makipagt
hepe
##atalsik
soriano
mongolia
pagpipilian
living
kalupaan
nanaig
renasimiyento
bertebrado
deposito
inutusan
source
komprehensibong
oxygen
berg
hentil
lunti
paw
puro
sesyon
tung
##iah
##kel
##lap
##fi
##alab
##agalit
##atras
##asahan
##arm
##akahulugan
##ahong
isyung
nagretiro
##imat
##ustos
##elong
node
kann
##etus
maid
alik
praksiyon
trick
binabasa
lumipad
agon
seremon
shel
barn
eleksiyon
##ublin
nahah
lupong
##iwanagan
see
meiji
epif
gener
uli
##abantog
##atakwil
take
##arangal
magbago
pangmaram
pinanatili
bolunt
globo
rosales
superp
event
##rodyus
bihasa
kumbinasyon
ipinagbawal
sisid
##ahanggan
altar
aalipin
sandatahan
rajah
manager
kabihasnang
naghihiwalay
connect
ifugao
hormone
pseud
makapagbigay
paskuwa
agarang
kabiguan
montenegro
application
alerhiya
bono
cost
dyn
kwal
ning
##xi
naran
sales
##aliw
##agua
##atre
##amahin
##itive
##aking
##ulam
##ulig
isidro
##esel
##iglang
##idu
##ulaang
paral
##enth
##ansela
##standing
matuwid
##iance
##ebo
##ebel
ipinah
sumakop
##awagan
pagtanggal
seri
##estiyon
timp
umupo
particle
pasyenteng
tech
kampanyang
##garda
sakay
universit
##box
172
121
poto
babalik
##erbayan
pagkakaayos
##orse
naroroon
bituing
prehis
bisy
butuan
maced
atoms
islamic
magkakahiwalay
small
hybrid
1980s
catal
rebulto
naipalabas
july
##ienda
hawakan
kasingkahulugan
curr
itsura
kenya
bulubunduking
niceno
challeng
nakapagtapos
kapareho
##ipsip
pampagtatalik
nagbubunga
foreign
malikhaing
jehova
vocal
vampire
restawran
kapapahan
deklarasyon
bacolod
philadelphia
gordon
humanidades
bapt
eu
eye
eva
ipang
iiwan
kle
lem
nfl
uulat
winst
yuk
##yst
##inn
##att
##asagawa
##erian
##esian
nagda
##imyo
##etal
panic
panimulang
maglakbay
##uguhit
kara
kalatagan
manirahan
batasan
aph
##angani
stalin
barangga
must
basal
plu
sister
104
##aves
oklah
pilot
kristiyan
delta
produkt
perf
allen
panghuling
hisp
hispan
dame
nakalista
hous
##achi
stars
##ynon
sekret
istad
dibisyong
templong
##uklasang
espirituwal
mahahabang
indiana
noruw
motion
arianismo
wilson
##odeship
works
ocampo
magkasamang
kredito
napatunayang
hungary
survey
thouk
stanley
alumni
trahedya
friedrich
nagsaad
scotland
hustisya
voivodeship
alalahanin
epifanio
baranggay
gp
gilb
hiliga
kik
kitang
own
wasak
##aj
##sey
##hah
##oong
##yur
##vana
##ardi
##ikado
##iksyon
##oron
##oseno
##iger
inutos
pink
panel
magawa
nakalagak
##icy
##star
matuklasan
##oban
kalans
kalinangang
makaka
kaibigang
sinunog
apektado
tumugtog
paglutas
grace
agent
nababal
##ainit
nasas
##ugnayang
cold
##lying
ipahayag
moz
pakikip
nagdagdag
sabaw
singer
persp
##struck
peters
umaasal
makikilala
1893
butiki
starstruck
filipina
##ports
nobelista
pagpapatibay
tabako
1878
mission
kabanalan
juda
nuclei
pinalaya
odiseo
hustong
cambrian
champion
alfonso
lanka
konserbatibong
teleskop
permian
kaparusahan
theodosius
panlalawigang
reperensiya
parsiyal
sosyolohiya
audio
palamuti
dioxide
pikachu
pagawaing
winston
thoukyd
bing
eto
gaz
lason
lampas
lamig
otom
puy
sisa
til
wan
wave
##ause
##sas
##sip
##siyang
##light
##fore
says
##ages
##atom
##atuparan
##oniyano
##itm
##ulis
##eryong
##erasyong
magaganap
##ston
marind
##upunan
refer
kabal
##obe
paulo
priv
palumpong
brgy
tract
batasang
chiang
pagsuporta
dew
##ivity
abra
##aloc
pagpapalitan
##lao
shock
unibersal
nabigong
inilalabas
die
nilisan
nilagyan
polusyon
reser
superm
tuberkul
mega
tumutubo
scar
sele
transit
singular
##erbang
brod
emosyon
pinapah
paglalathala
swift
magtayo
hyper
1884
bangsam
lebanon
paghihiganti
maitatag
##ayapa
natutunan
bahagya
tisyung
magkakasama
rajkumar
gnu
riemann
mansanas
snow
antibiyotiko
jaime
armenia
poblacion
nestor
inaband
tsokolate
balarila
epidem
october
magdalena
lawrence
prehistor
oklahoma
hiligaynon
thoukydidis
bangsamoro
bong
cra
fight
hays
hekt
koro
loy
lagi
mix
race
ted
vlad
wak
ze
##dez
##bek
##01
##ane
##agalan
##aktong
##isin
##abilit
nagi
##igkis
inimb
information
##etriya
nakakas
ibayo
##otas
ipinamam
half
##egorya
apog
komisyong
pagpapatayo
pagpapakasal
##yanismo
impluwensiyang
magkah
hilera
teach
nilarawan
humina
##hiop
nagpakilala
polim
carto
coj
nakakap
metrong
talk
##eller
133
koponang
##athan
crim
bukol
usbong
ussr
transl
transisyon
##uwalhati
ekonomikang
pangangaso
deput
naghahayag
magsalita
pulmon
bitamina
commuter
protektahan
aktwal
angking
sekond
tarento
busch
ipinapalagay
flag
magdala
melan
constantine
1970s
torah
325
notre
dalubhasang
pagtitiwala
judas
tumatawag
##uyog
croat
napanatili
palayok
paboritong
velas
uusapan
karneng
pagkakapantay
inanunsyo
provinc
proklamasyon
affair
cordillera
byzantine
guadalupe
alikabok
istadyum
marindu
tuberkulosis
seleuc
aalala
bent
basa
eun
fuku
gand
gulugod
kort
led
noli
pes
poc
tatag
ye
##mat
##ru
##kula
##tag
##ted
##ven
##inung
##atur
##ingatan
##abat
pagong
##adalaw
##adalang
##orasyon
##iporm
pangn
##idio
parmas
##alaang
anuns
alala
matatapos
marino
marimar
kalat
##pangan
print
ipinan
binalak
lumubog
pagsama
##egio
tumawag
daily
##ecz
barrio
milan
##ceae
elena
saradong
##inton
##ended
nasulat
nagpup
isinap
ballet
ipagk
month
##uangco
exodo
being
beeth
pagtatangkang
republikano
usok
daanang
naghanap
pagsasahimpapawid
magpadala
moderno
industrial
biyaya
kumpleto
##anny
##rated
pahinang
lubusang
sinusubukan
nagtataguyod
sunni
planet
sityo
1990s
haiti
##redit
##uji
mehikano
natutulog
happy
ipinasok
kawanihan
pinakapr
profess
intelih
pinipili
nagsusuot
ikasampung
inilalathala
bukidnon
babasahin
ekstinksiyon
pinapanatili
margaret
territor
australopithecus
ebionita
lourdes
kalansay
cojuangco
beethoven
aayos
baro
buntis
cac
fav
father
gio
ganda
gyeong
kuko
maba
pena
payagan
sco
uh
##dado
##wana
##wick
##fri
saf
##agian
##atl
atak
##ikom
##unahang
##adura
##ipong
##ibahagi
kanino
##uksa
unic
magw
##upahan
masigasig
masovian
##atagumpay
aklan
true
sinalakay
paterno
apro
##ohiya
nanay
nagtit
##umpuni
kagalang
resta
isinara
mamalyang
eurov
dumaraan
##alawakang
nakakaranas
talahanayan
banayad
nakaupo
naghahangad
probisyon
##ibigkis
mithi
cairo
##ography
magkakap
ideolohiya
deboniyano
makatar
salinl
iglesya
denmark
bokabular
kombinator
navotas
kumikilala
kuya
pagwawakas
governor
kasuotang
kudeta
duktor
tangke
tangkay
binansagang
tennis
carrier
panghalip
eusebio
bunganga
marshall
sukdulang
vizc
security
alabama
balintawak
supply
retiradong
hayskul
marinduque
aj
ci
cash
dang
days
diana
huang
iin
jet
kids
nd
nine
ster
taw
tian
tinggil
yap
zen
zero
##gon
##los
##nu
##zman
##inilay
##erk
##awian
##iph
kanto
##ungs
##omal
##ires
magal
magresulta
magnanakaw
katuw
maori
tri
tril
sinusunod
orasan
##loid
mabibig
shari
pambatang
tea
nilo
romb
romania
interest
touhou
aden
kagawad
polyn
mapayapang
idolo
coel
sinasadyang
##qui
##ellano
sensitibo
##indigan
buwaya
organiko
##yayahan
babag
magpakita
magpatuloy
marcus
pahalang
propesiya
nauunawaan
dibors
##logo
scient
pinatatakbo
1871
melod
sumasangkot
elektroniko
karanasang
tumatawid
panunumpa
tignan
kontinental
inuugnay
refug
momo
patrol
howe
iginuhit
suprema
pagpoproseso
##ipikasyong
kapisanang
##borg
espana
tatlumpung
minamahal
estatwa
balyena
##ironment
polytechnic
##unghayan
energy
released
tutuban
hispano
bambang
fos
fus
iyan
lion
nanggagaling
##sic
##iasyon
##iation
##gers
##nel
##waan
##jin
##ρα
##angi
##alop
##aluktot
##ilosop
##arasal
##amu
##ament
##aktan
##iking
##iyahe
##igal
##igting
nova
##idas
sihay
maimpluwensiyang
malalayong
##erse
ilalabas
masor
##char
##ebol
##eball
palma
##ensive
bridge
amy
asemble
aserbayan
batis
orbit
##ehiyo
kinah
sumasang
sumanib
kahinaan
##rix
##rius
pagtugtog
abriol
stro
labag
##epresenta
sermon
seryosong
bary
nagtipon
punk
telebisyong
awd
nilay
nilayon
talunin
gitarista
112
bulag
liberation
pantal
likurang
buko
##osex
perlas
bayram
surpas
where
herz
##bach
arabic
himala
complet
##ether
joa
##eeee
helic
nagtatala
##include
elementaryong
1872
primado
zambia
jerry
hades
ipagtanggol
1859
haplog
bubble
ikalito
tayabas
kapitolyo
navar
htm
antipapa
would
nirar
yumabong
awtonomong
suportado
codex
pangkapayapaan
prayle
constit
wangis
tarangkahan
heaven
awstronesyo
prominenteng
antigens
dpwh
belgium
compound
eurovision
refugee
aalin
aene
fig
hac
hav
hach
pia
rup
skr
tali
table
wing
yemen
##lud
##tus
naimbento
##ayin
##ules
##ahayan
##abik
##imagsik
inos
##eti
nakilahok
katal
taipe
##ugi
alvar
aragon
matth
##upaktura
kapiling
pribil
##sai
kauk
chlor
binatikos
lumakas
path
patok
kinap
sumulong
paglalabas
abilidad
serp
##ece
shog
baryante
nanungkulan
telen
nagka
subali
romantiko
##umpisa
basilan
pagpaslang
konsyerto
pagded
pagdadala
pagdaloy
##quir
nakakar
##essee
##isiplin
bulgar
pilgr
kalakalang
harina
harrison
forum
nakaangat
hudson
depend
nars
pansing
lagpas
regal
airbus
makikitang
upper
filipinas
1881
##yrus
biolohikal
1869
pagpapatunay
torre
bihag
cyp
julio
hidro
ebolusyonaryo
##amasdan
hapunan
suwisa
finn
jacques
globe
seven
piye
isinasaad
ensaym
tagapagligtas
antropolohiya
mercado
kaalamang
turkmenistan
luntiang
yellow
sakramento
madagascar
taipei
cc
case
dasal
dublin
meg
nept
santong
ubo
vs
vit
##eat
##edi
##sb
##cillo
##nag
##nie
##zen
##bin
##ilid
##itikang
##akinig
##ablo
##aws
##adi
##osekswal
##igop
##urus
##idera
##unguhan
##rogen
inuming
inaprubahan
pagkanta
##opod
##stong
##station
malul
##antayan
marg
kabay
pilipina
tinuruan
##chain
paz
brah
trust
sinira
##aries
salot
##dai
pagpapasya
agila
minarkahan
pagkakalikha
napilitan
pambobomba
##garh
bumab
pluto
respeto
102
espada
hein
colegio
##elling
exper
114
117
harapang
perseus
teorema
clim
guin
##atanaw
pulitiko
assyr
##ihinto
ethiop
demand
panghih
sampaloc
nakabenta
magbub
##agampan
damdaming
##atoryong
budismong
1882
numerong
1867
kontrolin
florante
cycl
##yme
advert
federation
services
visual
ampib
duterte
lower
choi
athina
liriko
mortal
magkakatulad
ignacio
arteryal
vowel
##rograma
peryodiko
method
environment
advanced
kasaganaan
mahiwagang
kalusugang
restaur
cum
cain
geo
slat
tus
ves
xiii
##mu
##kil
##poro
##nik
##atsu
##ulosis
isalin
##abon
##iyera
pagtr
##orh
sierra
inyong
parli
##uban
##ubin
kasuk
##icio
##reb
kargamento
ili
ikadalaw
##uwento
kalip
make
akhen
sinal
ask
asamble
orange
##acano
lumba
itinatanghal
paglapit
gra
buff
edgar
##umpit
bumub
bumida
##endum
basta
cour
halimbawang
##urai
ipatupad
mono
large
drug
146
bean
kuweba
nagdid
blu
pangangailangang
hanging
brow
narating
takilya
magpakasal
kapulungang
strong
puson
ministeryo
micro
naitayo
pampanguluhan
istrukturang
##active
putahe
javier
##eklarang
##aligtad
kapitbahay
murphy
literature
blockchain
bicutan
baskagang
nagsasanay
lingguwistika
mikrobyo
sanlibutan
phoenix
oportunidad
##ontrata
nakatatanda
satanas
diskriminasyon
bisyesto
joaquin
matthew
dalang
dalag
diks
gaas
hirap
mina
nora
qs
ry
sv
ses
sle
yamang
za
##rd
##rit
##jiang
##ον
##ου
##alus
##inawa
##atol
##gara
##ilton
##onna
##akpan
##ahalagang
##ingk
##imoto
pangneg
inamin
inpl
pamalit
nirer
mago
##iste
alagang
marangal
prel
palm
amun
orto
natatak
binagong
dei
pagtataya
gray
abay
pagbabang
entr
minorya
umangkop
buuin
##ocus
eden
nagbabagong
past
pasimula
pampulit
nilalagyan
left
interd
same
humiling
playo
##astasan
resort
naglalakad
soon
##sanhi
piloto
madr
kastilyo
sabah
ultim
merced
peterson
irak
irena
kondens
##ected
gasolina
sinusulat
pinagsasal
hello
1887
siberia
iglesiang
konstelasyon
kandila
independent
##aksihan
crown
nakaugalian
princip
writ
egypt
itinatampok
rebeldeng
tolentino
radiasyon
kudarat
cardinal
separ
kinokontrol
titanic
roger
pangkapaligiran
integrasyon
konstanteng
tennessee
metrikong
##eknolohiya
tohoku
vowels
pangkomers
speedway
census
numerikal
peninsula
jurassic
hebreong
masidhing
tuberculosis
kannada
playoff
baling
balitang
ced
dual
dangal
kler
mest
pork
torp
uod
ugar
zo
zar
##sar
##kos
##pay
##uver
sao
sax
##atn
##ilibutan
ayusin
##ikatura
pagy
##endi
##olong
##elot
panganganak
##idep
##ibleng
kanji
mayayaman
inalok
parin
panrehiyon
kasab
##icide
hiniram
hinawakan
malalaki
makro
ginoong
##ahatian
theater
batikano
oricon
lumikas
pating
kinita
sumerya
pagtakas
pagtigil
##atayong
pagpapanumbalik
pasulong
##owa
##inez
nilusob
mangilan
legarda
romero
##istrong
rehimen
spr
##bayad
##iferous
poem
##umbayan
143
before
134
bukal
##iches
nakikilalang
forward
transg
nakaimpluwensiya
empir
empire
hayagang
siksik
kurb
rusong
##abagal
guzman
emmy
strain
panghuli
napakaliit
pangmed
indonesya
kondom
macab
joint
freed
magtapos
##amahalaang
ground
pagtutuli
1865
namumunong
playstation
magnetic
ortodoksiya
iminungkahing
pigurang
aksis
letrang
premyo
pokus
louisiana
financ
jacinto
december
defense
destiny
independiyente
cd4
runner
komersyo
diskarte
sopwer
aristokr
surviv
nazareno
nakasakay
teleserye
spanish
upgraded
euclide
idinirek
sinapupunan
labinlimang
herodotus
professional
romblon
##osexual
hamp
ju
ky
kiss
ledes
mv
muon
pub
puki
rang
rivers
tigil
wide
##mam
##mel
##hid
##oya
##yunan
##yernong
##vis
##ved
##inangan
##agr
##atog
##asc
##itaan
##istor
istan
##ikulum
##eni
##eserb
##olph
kanayunan
##ubaybay
magg
kath
baguhan
therm
batikang
binan
degen
sumabog
pagboto
##eps
gumagampan
napab
napup
papalapit
puna
tell
teleg
elp
kamera
nagkrus
paghahayag
mapabuti
moda
carn
supot
dumanas
okinawa
hene
sinasak
nakakab
tunis
score
buksan
pisy
quest
negrito
propaganda
emosyonal
pulutong
command
here
biblia
##erhensiya
##ihimasok
konduktor
roberto
belarus
makakapag
makapagt
dibuho
nagkakaiba
database
1879
outstanding
martes
pagkakasundo
suka
status
hamilton
unggarya
paglulunsad
tambalan
nukleyo
tiyuhin
naghihintay
fuji
tagapamagitan
therapy
lobong
kaunlarang
cortex
subsidi
##ilibrium
onlyinclude
trabahador
ludwig
apokrip
zoroastrianismo
rebounds
branch
kaalyado
guillermo
vizcaya
ledesma
istanbul
bungang
drop
dosis
eul
fast
sona
tup
zomb
##xis
ngo
##alt
##aser
ats
##aken
##ulasyong
##ulante
##ahid
##iyu
##esong
##olet
nok
##ibus
maginh
katiw
alahas
arama
malusog
theme
kalabang
kalabaw
makinis
tagasanay
##udyok
sumapi
##ulador
nagsalita
konde
itinalagang
gramo
pagbanggit
age
ministry
##rain
umuwi
eli
sarsa
pagpunta
171
konsul
pagdud
nakakakuha
meto
##ession
epoch
extra
komput
##ropiya
pabigat
observ
selular
pagtatanggal
imperial
ibinebenta
##mentong
clos
turb
##iusap
canaan
assist
herodes
pinapalitan
linggong
elektriko
makapagpap
propesyon
donasyon
kontek
datap
sunday
tagapakinig
makatwirang
##ubhasa
melbourne
kontrolado
pinagbidahan
##ween
julius
pagsasalaysay
tamaraw
nagpasiya
bernardo
shoot
krisant
##etrikong
maryland
konsehal
yamag
nominado
naibenta
niyebe
diosdado
pagdurugo
yungib
denominasyon
pumipigil
balagtas
dyipni
##itimong
ottoman
kasalanang
pearl
komandante
panggagahasa
naranasan
affairs
bayramov
akhenaten
inplasyon
bawasan
clad
dona
gw
hikayat
miz
mental
oak
pulot
tiago
uv
wol
want
winas
yard
##hine
##loy
##net
##yaring
##wano
##ampanya
ayunan
##ulag
##ered
##iker
##adama
naglathala
##imation
##ipula
##eless
##ibb
inuri
##uten
uniporm
katha
pagkiling
alay
##inae
then
##obia
makam
asc
##udal
pagsuko
sumak
pagtapos
abel
abalang
pagbibilang
eslob
##ambo
gumana
dai
luz
edit
hilig
pananatili
repl
##intab
paggasta
poster
cooper
libra
scand
hukumang
organikong
gamma
pangangalagang
room
claris
tulin
rush
turin
buwanang
franz
##peras
industry
silind
inihanda
lingguhang
mananatili
mananalaysay
calab
negosyong
matematikong
##irot
frequ
mits
imbento
##ograpo
##ugawa
warri
santander
tagapagtanggol
##istance
debosyon
paglilibot
ikinak
twitter
sibilisasyon
##rotesta
integrated
nakararami
remix
##marinas
classification
feder
archit
horus
hinihingi
##ahangganan
liliko
origen
heograpikal
nominal
gastro
hydrogen
progres
triasiko
dasmarinas
impluwensya
imprastraktura
subtrop
aphrod
mabait
freedom
winasak
450
750
aun
bey
cyn
denn
guan
lanc
pugad
roles
toro
##rag
##riko
##ranong
##dt
##nut
##yenda
##fall
##inan
##inabangan
angaw
##gae
##amot
##amide
atlet
##oras
##osition
kansas
##etsa
katad
katuwang
##iha
##ayani
##otide
aliw
alma
##iwalat
##antig
##ogr
marinig
masug
##abasang
ipininta
aksiyong
trump
naming
##acia
tumawid
loop
##alikasan
enz
baron
napip
##lase
pampelikula
nililikha
musa
lincol
polish
mamuno
imus
113
pabahay
sett
cron
pagtatanim
albums
##hane
boul
paggunita
emmanuel
youth
pamumunong
pinakamahalaga
sample
ninunong
##anni
molec
joel
nakasuot
makakakuha
mainland
1886
1885
cape
limited
purok
##amantala
instruksiyon
maipakita
julia
magkaugnay
##berry
tigre
copenh
lakers
creative
ikalima
optikal
sitwasyong
carboniferous
ratchas
konserbatibo
stratehiya
##osaurus
forever
##apsida
diktador
slovakia
tarangkahang
koronel
minimum
manchester
isinusuot
panandaliang
makinarya
pamasko
torneo
uzbek
prangkisa
wasakin
velasquez
bokabularyo
aalinlangan
euclidean
elpidio
subsidiary
lincoln
ratchasima
aid
bio
both
dhar
font
gly
glass
hano
hipon
ian
ipan
iimbak
kha
kost
kick
limp
lif
mug
nong
oil
ova
piment
vish
very
##key
##pun
##ying
##wall
##ов
##anyang
sapin
sara
##alez
##inog
##agram
##gaster
##aktor
##ahoy
##enza
##osidad
pangan
nodo
parih
pinilit
##odont
nakumpirma
malate
malalaman
##uhanan
matanggap
##upig
##leg
##ianus
##chond
pinakawalan
halik
binondo
sumagot
##rie
mahahanap
stein
1850
tinatanaw
gumalaw
shaman
##alize
nancy
opens
sarado
pampar
humarap
##endor
adams
conserv
1500
sistematikong
pumasa
kolok
limampung
tumutugtog
ugaling
bear
##alisado
hukay
silanganin
##point
pagtatantiya
sym
taniman
kurikulum
bigkis
turner
radyasyon
paggana
narc
taksi
herac
##kasundo
espesipikong
##kaido
ahenteng
etiop
bisperas
##asinaya
ipinagdiwang
mandud
parker
sitcom
biolohiya
1868
westlife
naipasa
naipakita
sibuyas
360
villar
pormang
azerba
nagpasyang
tambol
alyas
##ookan
pagninilay
trinitarian
woj
ratio
between
hiragana
ghost
variety
jimmy
##iformes
orkestra
jewish
lithuan
petrolyo
eksibisyon
ensiklopedya
ipinamamahagi
magalona
however
kontekstong
krisantemo
aeg
cass
diw
divers
dalagang
dick
fans
famas
kish
kuro
lug
mitong
nel
rig
rumb
rurok
toy
turo
vene
yong
##lawan
##leta
##world
##vre
##alastasan
##atural
##garo
##arik
##amino
##ampan
##ulid
##aherong
iskrip
##ikh
##unya
##enio
nagpang
##uses
##oly
##elec
##omol
##etime
##istis
katatawan
alitang
marating
retor
pinakabantog
akong
trut
amihan
nats
natuklasang
patent
salmo
kahul
apoc
apart
paglala
paglahok
pinakamatagumpay
minsa
dave
android
tatawag
teologo
photon
nagpapadala
polite
##orkon
heolohiya
carlo
euro
sinasakop
genetic
uganda
kakampi
pabalat
install
135
partikula
sabon
nakaabot
greek
rady
umaapekto
pilosopikal
kumplikadong
##tanto
warner
ramesses
holmes
deboto
1876
martinez
jeronimo
kahaliling
iminumungkahi
misso
known
tournam
troya
nakadepende
kalinisan
pagkakabanggit
##cycl
sevilla
yamato
marketing
likhain
plebis
napagkukunan
mantika
roces
maihahambing
jonas
nickel
dosenang
magkapareh
fisher
heteroseksuwal
hokkaido
nutrisyon
differ
vincent
investment
niseno
makakatulong
prefecture
malacanang
mathemat
chalcedon
submarino
##uligsa
salinlahi
hacienda
slaton
pampulitikang
pimentel
azerbaij
veneto
aay
bamb
doll
gulo
lata
luha
lomb
lukas
pom
rasyonal
slex
vista
verm
verg
yuki
##eid
##rist
##ough
##pal
##25
##αν
##agle
##asian
##erta
##iyot
nagalit
##elas
noe
##ibor
piniling
pinutol
pinetsahan
##ukom
ank
katagal
kasabihan
##ansen
##stone
##other
aritm
##iwara
matindi
reform
kaligay
bril
akala
amster
sinadya
chao
pagsang
deal
sumakay
##egory
kahalag
pagtata
inglat
shab
luto
pambayad
nagtakda
disco
nagbabawal
artem
##impleng
##aranasan
##intas
rehabilit
restr
mamah
konsilyong
supern
nakakamit
mechan
pabilog
##otoo
136
##tex
koppen
pagtatrabaho
dalas
kawad
naram
format
magpas
manunula
komunikasyong
220
kongkreto
industriy
ninakaw
swiss
belen
specimen
freud
makapagl
constantius
bakteryang
pinasimulan
konstante
antique
binabago
download
##etriko
membranong
randomang
kronolohiya
pagbibin
venezia
atmos
ronald
maibalik
iceland
pagaaral
tetrap
ricardo
pyramid
rally
atmospera
laureates
intelektuwal
katatakutan
vatican
mckin
napagmasdan
determin
saysay
helicopter
kolokyal
amsterdam
bes
eloh
fibers
iilan
ml
oo
olong
syang
suns
ue
zur
zion
##mod
##rut
##lis
##lig
##tasan
##bid
##war
##fr
##arama
##ayak
##eron
##isid
isis
isol
isma
##ableng
##iktong
pagpan
nagr
nagustuhan
##imin
##elius
##urin
##ibar
inatake
pinapang
##ukong
##ukumpara
##ubkob
nakahim
malungkot
masakit
promot
pra
bros
triang
sinanay
chung
natupad
binisita
salvi
kahel
##ohn
##ohama
##alago
still
pagpapalagay
##alikod
ekolohiya
napasama
pambibig
edo
##olohikong
kamukha
neil
near
nabibig
inilapat
dium
paghawak
constr
plus
pagpayag
##ieve
hee
124
coordin
nakatutulong
kuwad
scale
pangkalinangan
presyong
##abagay
emerg
miyerkul
cancer
canadian
taks
sulf
manunugtog
prec
nakabalik
##alamutian
compil
belt
magtat
tugatog
kaunaunahang
temporal
against
winds
magdagdag
temperaturang
torres
nagbabalik
category
fauna
##arehistro
salaysaying
lambda
##ikitaan
katapangan
nilalamang
nilalayon
sirkito
pinakamabilis
pagtatagumpay
farm
alyado
navy
organisadong
mapapansin
aspetong
mitochond
alfredo
study
##odox
kalkulo
vargas
prokaryo
identidad
sicily
napangalanan
##unyagi
orbital
##ekomunikasyon
jorge
esperanza
transmitter
yokohama
pinananatili
explorer
bavaria
shogun
pangnegosyo
irenaeus
miyerkules
1st
aambag
babang
dup
dow
ech
fle
gary
hagd
henta
rach
rasyo
sill
ters
tow
wy
yi
##sman
##roll
##ped
##zano
##wide
##angon
##anghang
##ators
##asta
##ahak
##iyah
##awahan
##igrap
##eler
##ibasyon
##ukalang
##etikang
panul
##iring
analog
anaph
magadan
iberia
##icular
##ugg
##read
ariano
arturo
matapat
itigil
marquez
karerang
##upok
kalookan
tinedyer
makes
makulay
masakop
masigla
##chem
kai
##amangan
travel
sinunod
sinuri
batanes
ordeng
nature
##ived
appe
aplik
apektadong
pagtanda
pagtawid
##aloi
mababasa
shut
luck
sinauna
sakahan
##untunang
nasangkot
bass
sponsor
supers
naglimbag
mona
##quia
drum
139
nagdurulot
forces
termin
oliver
tuwiran
etim
pinapakita
pandinig
##eare
biblikal
strike
##ereum
damong
##ektrum
arabong
##masid
bangkong
mananatiling
sapagka
birt
chronic
sagana
istat
rosaryo
elep
tropa
includ
administrasyong
captain
primitibong
mississ
kongresista
pinagkalooban
##rotektahan
feature
1858
josephus
geronimo
mensaheng
alternatibo
cerv
patrick
gotaland
columbus
headqu
nakapagbibigay
##itinda
##uktibo
points
medium
pipili
homoseksuwalidad
medalyang
jonathan
##iligiran
prusya
bulwagang
metabolismo
ltd
freshman
eksplorador
shakesp
subdibisyon
rumanya
palanca
puyat
giov
degeneres
bawang
buns
bapor
cities
ccp
dana
during
hann
jing
kyr
lah
nbc
palang
pistang
sundan
tent
taling
wu
##hap
##hawa
##rup
##ued
##vid
##ан
##ск
##atu
##ardia
##ayuan
##amine
##itil
##erma
##ahina
##isel
##ablan
pagpinta
##umaling
##esisyon
inaan
pinasin
pinalayas
##uturan
tai
taj
hinalal
##opo
##iho
##andag
matuto
marine
thy
thera
##oba
kalayaang
makakal
masayang
##ensen
akw
theatre
bahid
asunc
change
binuhay
pagsamahin
salamat
##imbolo
nagsanay
ingay
pagpapalaki
##ampasan
##ambit
##amber
baryon
barrel
##rae
nanumpa
umibig
umani
milk
amerikang
pasya
nef
phone
phosph
nabihag
nilapat
musk
pagharap
bumib
basura
kulungan
bald
##onomiya
pagpep
sinasadya
nakatali
kompuwestong
bakr
sensor
medyebal
delos
daluyong
usaping
nakaa
schiz
kuryenteng
guimar
##eza
##onsin
homosekswal
pansarili
magpa
kooper
panghe
gobyernong
reyn
nagamit
bangkang
burton
temple
superior
makatakas
historical
midyum
notasyon
apostolikong
ipagb
diyagnosis
estudyanteng
nakakain
mcdon
maisagawa
isinalaysay
political
electronic
pangingibabaw
639
malubha
pagsasalinwika
tagapagbatas
tinitingnan
tinitirhan
philosop
november
athlet
matutukoy
running
tripulante
magaspang
rapper
gonzalez
confuc
dinamarka
inihahain
pentate
vastra
denomin
pagpapahirap
espanol
nerbiyos
terorista
pagkadiyos
estadistikang
obhekto
guangzhou
succ
kapampangan
eugene
klinikal
diamond
apatnapung
sementeryo
pornograpiya
liturhiya
nicholas
sinturon
pagmomodelo
proporsyon
abnormal
kristiyanismong
otomano
sekondarya
niraranggo
geoff
transgender
clarissa
rumble
missouri
plebisito
olongapo
shakespeare
asuncion
aalay
dayag
gong
goth
giyera
hubog
kbs
lito
mum
nm
nues
pond
rita
range
sey
sora
teh
wisc
xv
yol
yur
##hd
##ox
##dh
##zer
##basyon
##bert
said
##ager
isports
##ikto
##orter
##igmang
##urugtong
kank
##ukulam
##ubilin
magi
tau
##ansing
mae
arellano
karay
reaksyon
kapins
kabuluhan
##aanan
##uwis
kalap
makar
##itaas
halal
##udyat
lumapag
salced
koneksyon
##rift
pagtalakay
pangkimika
mahayana
stu
kumpanyang
##late
anderson
umayon
teolohikal
##impl
##impla
anting
bumb
##unton
nahanap
tsile
nagpapas
conson
##thy
pluw
mammal
pagputok
##yaryo
carter
123
ipat
naglayag
##quark
inaalagaan
pakikilahok
blues
ibinatay
pagkakaibigan
##eval
senyas
ahensya
joseon
panday
##tase
iniinom
magbalik
pangmat
material
munisipal
##ulty
sangang
respir
ivan
meson
pinagkunang
ihayag
##tomy
pinaikli
palatuntunan
nucleotide
bubuyog
raymond
bacoor
bohr
kuala
asturias
eroplanong
aspekto
pueb
leader
tanghalang
every
pahilis
clear
basilica
pagbibitiw
sindrom
kayumangging
officer
pastoral
kumokonekta
pageant
cubao
secretary
lenin
ordov
absolutong
himnast
phylum
atlantic
dinaluhan
##coccus
sisidlan
hektarya
##ilosopiya
stroke
ethiopia
giovanni
guimaras
wisconsin
kapinsalaan
salcedo
2nd
bog
gs
halaw
higa
hye
jok
lung
limb
oz
pod
pud
tuklas
tetr
taytay
uulit
##een
##eeth
##sim
##ient
##rud
##puang
##cat
##yoso
##vet
##fel
##70
nato
anglo
##gabi
##erine
##enya
##enburg
##imir
pinai
##emiko
panlas
nakitang
##opular
##okawa
alve
matulungan
matanggal
##antan
mararaming
kalib
##chang
amar
cham
chop
chiba
lumala
##iving
tumutol
mahin
koment
agre
enlil
shu
##ormang
andy
nagtangkang
magkamit
need
romeo
sakaling
##inth
nahawaan
nasaksihan
basin
1521
baliw
mapam
seat
panlulan
naglul
tagapagdala
epikong
nakatalaga
##lando
111
banos
kakayanan
inaawit
madoka
madonna
sentr
##athalang
##lamento
gamutin
##ffe
sikh
##abagtas
pakikipagk
protagon
igor
seksiyong
##ematika
biyolohiyang
ministri
manananggol
osorkon
negosasyon
compost
tokugawa
makapagd
halamanan
magtatapos
##akitaan
kuneho
pagpapatiwakal
piramide
reklamo
tanggapang
memory
malaysian
shows
##uja
picture
pinasikat
sugun
sugatan
##ucky
pinahintulutan
lehitimong
alinmang
sosyalismo
ceres
noval
greatest
ebolusyong
charts
kabaligtarang
lymph
huwaran
pangkabataan
meccan
ethereum
##inyagan
##teroid
pagkakahawig
funimation
tatlumpu
training
esperanto
puky
programming
nakapagdurulot
chavacano
adapsiyong
pinakamakapangyar
pocket
masoretiko
climate
aunor
brilyante
pagtatae
nakahimlay
hentai
nuestra
ave
around
bend
cun
cert
etr
each
kelt
member
rut
tiya
tasa
taya
tess
tesis
tahanang
ved
witch
##ait
##lem
##til
##zada
##bog
##water
##26
saws
ngang
##alos
##amag
ayat
##ikon
##imetro
##ipol
##usga
##user
##elia
pangit
nota
maybahay
parly
pinondohan
##ukto
##utt
##etiro
magagaling
magsanhi
magbayad
hind
##oklas
##iwalaan
kaliwanagan
masiglang
paleo
asong
##akailan
##embo
espin
enk
encycl
ministrong
pagkakahati
papua
diss
mangga
##umpungan
repormasyon
nahatulan
nasal
tsansa
linda
adhika
basic
pole
sisters
resour
mapigilan
tagapagturo
##couver
sof
nakatakas
driver
kompuwesto
138
##walong
kalakihan
eba
kurt
##ometro
pagsasayaw
franca
radius
tereb
pagmamana
prev
nalul
upd
bisantino
napakalakas
##icks
desp
hood
joan
##ually
##odeon
pagkakatapon
tempor
holland
tagapagtangkilik
ukran
revilla
##heim
1960s
sumasagisag
1857
villan
orient
1844
vancouver
markang
distansya
inakala
colorado
pinaghihin
monarko
paghuhukay
syriac
nasugbu
alejand
levant
nextel
steel
kaany
welsh
embahada
phenomen
official
chemistry
begin
beatles
tanggalin
imposible
elektromagnetiko
malapad
obligasyon
imigrante
salamangk
mabubuting
tabletang
prekwensiya
gilbert
dewey
pilgrim
restaurant
pagtrato
mississipp
aangking
aasawa
cala
caban
dap
dod
dagdagan
focus
gog
goma
hart
kuha
lalag
lating
ong
rah
rason
sili
yuma
##say
##pg
##dis
##duk
##wing
##ngth
##anat
nagar
##alap
##atiya
##ingay
##isahang
##abil
##awasang
##eny
##umental
##osisyong
##osome
nagy
##imang
parating
##oming
pino
##ukhang
panag
pandiwang
nakulong
katipun
hinimok
maiksing
##antang
marco
##uport
##uwad
##lehem
##obacteria
kalungk
kalalabasan
kalipa
##atagang
##sau
many
palihim
palimbagan
##ensor
##ahatan
##amanang
amyg
chhat
orlando
pagsikat
suma
##ambala
kumperensiya
gumuho
gumaganang
##aniwalang
shan
bard
pinagsanib
##apati
buck
opp
indeks
pasin
pasasalamat
##reserba
##asaalang
nagpapalabas
condom
polym
##uca
relig
heidel
cola
1600
tagapagman
##erty
##ostomo
extin
kristyano
tumutuon
pilit
pilohen
pransisk
selyo
harmon
ekonomista
baywang
tanz
tuluy
greater
regina
regulat
alliance
dome
##oldong
pagkabahala
atomong
makakamit
tomo
liping
gaia
josue
camera
tablang
1874
ferry
akademiya
cory
##inkorpor
prinsipeng
richards
konstit
mekanikang
denis
atlanta
matatawag
hardware
bitcoins
miranda
squad
neutrino
costa
dalai
device
manipoldong
pambabaeng
caesarea
##negie
jessica
kelly
pampananampalataya
eusebius
hikaru
estratehiya
rohing
##kontinenteng
puntahan
hernandez
baroque
unicode
haplogroup
natatakpan
nagkrusada
assistant
nickelodeon
kaligayahan
novaliches
aux
ceo
canan
cran
dario
gond
handang
hyun
kagat
kawit
liz
mikha
mura
pend
pias
rash
sq
such
tant
xia
##mid
##stos
##par
##bil
##jar
##ır
save
angelo
##atrabaho
##ited
##uluan
##isahan
##apil
##ikawa
##unes
##omina
nih
##icket
tae
hinog
##ihe
##ugutan
##antimp
marri
##upaan
ikon
##oble
##chester
##eban
palayan
ipinapat
asang
chen
nathan
binaril
##ehiyang
nagsusulat
kahugis
apayao
pangkalakal
grapo
pagbawi
minero
gumaling
bartol
paksiyon
paghiwalay
nash
nasaan
plata
resid
baltim
107
digring
tangent
carnegie
##arts
epip
##ellig
##zone
116
bullet
naglalayon
medya
quint
nakikilahok
usc
nakaugnay
dekadang
##ovo
greg
##strong
ganun
umaawit
layer
benito
goal
paghahalo
kimiko
morris
himno
southrail
mactan
mole
pampolitikang
aviv
ekwilibrium
lucia
ukit
strength
operador
mutya
montreal
mekanismong
nalalapit
magkaibigan
norw
natutukoy
umuukol
palaka
1840
naaapektuhan
cream
diploma
celest
##ksim
simbolikong
kahilagaang
because
naghahanda
nakapagtala
transpormasyon
coca
##gyz
masusing
galaxy
eksklusibo
citiz
warsaw
jeremy
kartun
communication
hatinggabi
orthodox
matriks
pakikisalamuha
zamora
croatia
html
alvarez
diumano
kyrgyz
heidelberg
baltimore
ace
bund
duw
husay
herald
iowa
lantad
mold
much
nosyon
piksiyon
sok
via
wir
whang
##rik
##nas
##wahe
##anag
naalala
##aluan
##agsa
##atok
##asahang
##amar
##ulturang
##abis
##iksik
pagi
##enas
##enia
##esiya
##esia
nagulat
##iguin
##eldo
##rok
pinop
##ukid
##ukunang
##etano
##etry
##etrong
paniwala
panoor
ibibigay
katalan
pagkamam
##entz
##opol
##ansha
paraiso
maig
maimpluwensiya
alsa
alth
ariz
arbit
maliga
##uhi
itayo
kapantay
kable
kalasag
tinamaan
masining
prior
bra
ching
binal
kinunan
##ively
itinatakda
kumakalat
daimyo
##eci
shaw
shinto
papang
##oco
##ocor
pambahay
artiko
pasa
subp
subukan
diet
dioks
romana
humaharap
tsip
lines
baseball
resultang
mapayapa
##book
panlang
caribb
idagdag
exhib
komplikasyon
##rile
liber
naglalahad
##asaki
nagdeklara
siklong
naghahanggan
solidong
intensiyon
magsilbi
institut
pagsusumikap
##kretong
##azar
##ears
makikipag
collection
charlot
desc
tinutulungan
mapagh
ipinagt
imbak
ideyal
##ugasan
kmt
virt
tropiko
panggatong
gaut
administrative
florence
leonardo
khmer
apps
sugihara
venice
nakararaan
##amasdang
premier
mistery
masasabi
claim
sasab
winter
lingu
hinahawakan
rapid
wayne
lacson
separat
pontif
promote
kalkulong
rogelio
maximum
gurkha
crisostomo
babasahing
terorismo
prusisyon
akkadian
##tisgarh
toho
vegas
pekeng
pragmento
dokumentaryo
mikroskopyo
matalino
asteroyd
agricultural
agriculture
tartarus
trigonom
nagsasalaysay
istudyo
metapisika
termodinam
current
##eczno
aproksim
##ebolb
sleep
metodo
hikayatin
boulev
##punsiyon
pamparlamento
naramdaman
elepante
ordovician
compostela
pukyutan
villanueva
chhattisgarh
tanzania
piaseczno
caribbean
charlotte
bb
cem
ciro
gian
hamb
hiram
iibigan
mung
nec
oso
talo
yale
##kat
##gu
##ging
##pok
##paligsahan
##ll
##lib
##laka
##cing
##cano
##ικ
##ła
##aldo
##aros
##adikit
##essa
nagtr
##elektr
##ibu
##ungatan
inoc
inisip
inorganisa
pamilang
##etsu
anu
anter
magical
katump
##entahin
##iwalang
itakda
marte
marduk
##erso
karat
##obar
masira
masarap
masaganang
pautang
palas
sinang
chu
chuck
patente
patatas
##ehe
itinago
mahahati
paglalakad
komander
komentaryo
##eppe
mabago
gumampan
##estasyon
##alimutan
##erne
magkasanib
partner
pasap
ellen
inilul
dizon
paghinto
paghalili
interb
samurai
tsek
##ermann
##adora
nagpapataas
##uctor
baligt
pumapang
care
monitor
monica
sinasamba
larry
meta
episk
144
132
delp
amazon
perang
naghahatid
tipon
intellig
nararanasan
surian
senora
koop
pagsusuka
allan
petisyon
strando
silv
charact
eras
reynang
kalagitna
##ammed
belosidad
birth
armstrong
saglit
isipin
dayton
##retong
1883
gauge
1866
1862
##eonto
elementary
walk
playing
ferrer
potensyal
probinsiyang
##osoiko
maxwell
aguilar
kolonyang
nasasakop
balanga
augusto
greenhouse
paninirahan
laser
##yushu
finalist
botante
ampatuan
doktoral
##ahashi
pagkukwenta
pagsasaalang
domestikadong
palayain
wright
##ufu
devil
professor
fujiwara
ranking
olympics
buenav
gastusin
bronx
makalumang
chemical
nasusunog
reported
mapagmahal
lepton
monopolyo
##rared
kamangha
ruiz
today
galileo
pneumonia
asosasyon
##oterap
supporting
guerrero
agoncillo
nagdaang
perfect
kinapap
browser
macabeo
financial
dennis
agreement
yumaong
boulevard
characters
aaring
aust
bawa
balan
dra
glad
jupiter
lila
luwalhati
pian
rica
ruther
roton
rule
send
talim
tensiyon
yen
yor
yao
##salang
##het
##hito
##riano
##gate
##zh
##zed
##bar
##bok
##wit
##wari
##xes
naipag
naantala
anglik
##ayen
##itay
##issa
issu
##enaryo
##orb
##igin
##igon
##imm
##eli
##elope
##rote
sigaw
inyo
pind
##ubang
##irapang
anch
nakuk
nakalikha
##icut
hinahang
hinahangganan
maiging
aliping
marawi
kapuwa
kalamangan
paikot
##atagpo
prc
pinakahil
maneth
##enson
bruno
sinikap
bahala
batik
chat
chand
chanc
##arium
namahala
pateros
deuts
kinag
##alikan
enrile
##epis
napas
napocor
nagtaguyod
##imple
nabilanggo
subway
sams
humuh
tsuk
##izon
lupalop
##siklo
sein
pagdadal
ipadala
ipakilala
##alawakin
##quel
##ganistan
##isipsip
sapa
genera
obama
sensus
##very
kalakasan
delhi
hunter
ibinub
naghahati
clar
guide
pagkakaunawaan
magpakamatay
lagay
proteksyon
sober
dakota
ergaster
himig
naisalin
mapagb
pinanghah
##asiwaang
sulating
danes
ipinapahiwatig
##lied
makabalik
semitiko
semilya
tableta
1875
napagtanto
fault
sahara
hadith
ipagpalagay
diyeta
kodansha
3000
sumusubok
##pasyahan
troy
##ullah
dominyo
honey
tagapagsalaysay
shojo
ipinagbili
namamalagi
frankf
kalamidad
manuskritong
doble
dawn
everest
##ayashi
members
radiation
aristotel
kobe
kobayashi
abdul
started
inhenyeriyang
hipotetikal
process
alongpunsiyon
reproduksiyon
magkapareho
akkadiano
johannes
pangkaisipan
sirain
mabababang
flower
kundisyon
trabahong
statistical
##ylaxis
atmospero
racing
imprenta
hihigit
lengg
kentucky
samaritano
##writer
pangpagtatalik
kazakhstan
connecticut
cyprus
katiwalian
frequency
enzyme
dharma
mandudula
wojty
elohim
pentateuch
karayom
sindromang
panlasa
kalungkutan
rotonda
550
aa
aan
dress
diyan
elast
face
fantas
gent
gill
habit
kusa
less
lalabas
lyr
ns
nem
nub
nca
p1
payat
sulo
somet
ulam
vatic
##ss
##hed
##dos
##now
##zan
##biz
##bury
##atari
##ilda
##amic
##itre
atlas
##apad
pagod
pagrar
##unus
##enes
##enos
##eness
##usig
##elf
##uruang
##ibis
inukit
pintura
##utasan
pananda
pantog
kate
kasabayan
##ekh
##sters
alper
malalapit
marit
##ilao
tinta
makaraang
makaranas
makumpleto
paolo
manatiling
britain
##taong
##amaneho
bathala
orakulo
named
lumapit
sumubok
tumatak
abb
agimat
##ambong
minh
shim
nanilbihan
umere
umurong
telang
pasilangan
nabawasang
subject
##ilingan
antidep
paghina
romansa
romance
nagpakamatay
nagpapakilala
nagpapatupad
result
kulog
mapapat
poste
imahin
hex
gamiting
tales
epist
drac
beyon
madalang
##spi
harangan
use
schrod
bayaran
pansit
pulitikal
##ihinatnan
merch
pandalaw
napakab
napakahalaga
inihambing
charge
nakabuo
nakapip
damas
frame
pahiwatig
value
natitiyak
donald
inskripsiyon
watson
1864
pagpapatala
pagpapatalsik
legion
pumapalibot
hidwaan
##adradong
380
381
suweko
tigdas
naaalala
harapin
otel
mailalarawan
crew
catherine
tribu
nakapagbigay
rebelyon
nirvana
plantang
##ipsis
steven
##arnasyon
variable
##ikleta
abstraktong
rowling
pampananalapi
pampaaralan
manchuria
estimulasyon
multiple
herbert
ernst
jennifer
floor
milagro
intelektwal
lathalain
galilea
scholarship
griffin
pinahihintulutan
teleskopyo
pinakaprestihiyosong
apokripa
aphrodite
tournament
aayuno
mckinley
cabanatuan
kalagitnaang
rutherford
schrodinger
3d
bla
borough
dental
danny
fork
gurong
hagdan
icon
jian
kyushu
morm
pm
ping
pec
rim
ricky
tangka
vib
##mol
##oir
##kond
##nong
##night
##yagan
##aning
nagap
##alayan
##gak
##ilimbag
##among
##itismo
atty
##ulla
##ahalal
##isio
##aparte
islang
##ability
##ikta
##umigm
##orro
##oshen
##igation
inampon
##omeo
pinasok
nican
##utsu
anino
nakagaw
##icos
##oki
##otes
malutas
itatayo
mariana
reef
##uway
##obya
mased
##uana
pret
##unda
ester
tagg
ipinapan
akawn
natira
natirang
binibigay
patpat
##ehang
sumuporta
##rial
##ilius
itinatayo
pagtanaw
abak
pinakamag
minnes
##aniwalaan
##estan
ekilib
kasamaang
edwin
disip
americ
malakanyang
levi
pananalig
##naeus
interc
interaksiyong
bumabagsak
nahirang
nasasangk
kult
103
coff
##arters
henera
naglarawan
sinasalungat
##quer
nakakatandang
talas
##ellar
sapilitan
##ropod
senshi
pantalang
sentai
harold
nagded
##hale
ibinenta
roque
clinton
guest
hilagaang
canal
takahashi
magpakailan
miyembrong
pandayuhan
##ibility
upon
biyok
##alamin
nakalimbag
napapan
frances
tugma
helm
without
skin
skalar
kadiliman
holiday
makatwiran
nagwawakas
akademyang
##acterium
nailimbag
prinsipal
70s
arkitektong
positive
castillo
academic
pansamantala
pinakamabentang
##hatian
ispiker
lohikang
ashur
tekstuwal
aaron
1815
laboratory
malabo
pagwawagi
students
hubble
immuno
ghana
granada
harvick
nakatago
traff
photograph
corpus
kennedy
tapusin
glandula
kumokontrol
critic
eyes
communications
alkimiya
pagsasakatuparan
ipinangako
nakipagtulungan
pantasyang
grabitasyon
fifa
cartoon
caceres
copenhagen
diwata
katatawanan
tersiy
anaphylaxis
denominador
arizona
arbitr
cemeter
inocencio
alperes
minnesota
brom
banggit
fc
febr
jong
mila
nen
pk
puke
puhunan
ryo
silbi
tungg
tosc
vand
yule
zula
zac
zhou
##kita
##pm
##test
##bl
##jah
##jing
##40
##αι
sait
##gaan
##asius
##arf
##oniko
##amak
##amoto
##ituhan
##akya
##abala
##ikopter
##ositor
##oslov
##igid
##elyo
##roma
inpin
pinawalang
pinlandiya
magrer
magagawang
ibenta
##ekiel
hinulaan
hinahangad
alamang
marina
karangalang
iligan
kabilangan
##uwaryo
tinub
makag
makilahok
masters
priest
manuf
paleonto
tagil
brain
sine
batt
cheng
apganistan
pagtuon
##akaiba
##abango
pagbenta
mine
eklip
puneeth
##ungkulang
nevada
sarangani
pampamahalaang
paghatol
##umpu
sakura
nasabi
adult
adulto
nagpapalit
spac
##astiko
mapal
relations
seed
heolohiko
##quest
soo
mood
drag
komplikado
diret
object
scam
pisng
lateral
naghuh
introd
senaryo
##idea
pagmum
talaarawan
etikal
strip
panghihimasok
nagsasalo
charlie
naisagawa
##aminasyon
sukatan
negosyanteng
bella
ipinagpapalagay
napapanood
idineklarang
ecole
pagtutuos
teritoryal
evans
espesyalista
primary
turkong
showtime
flores
kinain
##othy
abogas
maglabas
pagpupunyagi
indies
ebolusyonaryong
##zoic
fever
katapusang
kolonisasyon
bidang
agrikultural
pinakamainam
kataasta
bacl
synth
katauhang
cabr
kapitalismo
naval
hiblang
andrea
lingayen
##ahamak
convection
tanghali
permanente
paghuhukom
books
kapakinabangan
##ipikado
##isdaan
##aboran
inilalapat
aristotle
dumadami
sicilia
##alization
paleolitiko
imposibleng
luntian
factory
czechoslov
mendels
salamangka
effects
##otrans
nabubulok
diyamante
aberaheng
nukleyus
nordiko
influential
challenge
pluido
pribilehiyo
kaukulang
parliament
empirikal
sumakabilang
etimolohiya
mcdonald
yolanda
etrus
rohingya
tsipre
manetho
aristoteles
nicanor
cemetery
manufac
bian
curt
dors
fuk
flat
gagawa
gutom
heg
hana
kalaw
lipat
lisan
mosa
pug
palawakin
qa
rug
sg
tawad
uso
ubas
wid
wawa
##ht
##hot
##kien
##piko
##laan
##cd
##ugar
##nt
##ᅡᆫ
naz
ngilang
ngalang
##atum
##atasang
##ilugan
##akdal
##unk
nagug
##elahan
pangilalim
kanagawa
siv
inob
parl
pinalakas
pinanggagaling
nicar
panth
##irahang
unl
katuparan
kasi
kasigl
maine
maalis
alph
aram
malta
matagalang
##antya
mara
karibe
tinataya
makis
makontrol
##chal
##uanes
prix
estate
kausap
trail
sins
asim
natuto
##acon
patut
kahih
itinatanim
komit
pinakamatagal
sty
pagpapangalan
mabundok
##eco
shear
impl
paparating
magkakal
nagbib
nagbibigkis
elis
lear
bumasa
replikasyon
babaing
nahukay
sperm
spider
balot
pumupunta
imort
tangere
panlikod
dumalaw
iph
bulutong
direct
obs
langaw
selebr
harinang
##arkiya
produksiyong
perry
urong
present
255
proposisyon
##ologist
magsilbing
##eves
homosexual
whe
240
kalauna
airways
silurian
nakabab
morong
morales
nawalang
cbs
fron
believe
kwarto
arms
magtanghal
northwest
raul
kapani
ipinapahayag
held
tempura
berdeng
##mouth
namumukod
popularidad
makasaysayan
iwanan
respektibong
gumagaling
pagkatunaw
product
entropiya
##ompet
sugar
##abilanggo
mutual
nalalamang
feat
feed
nakakaalam
fields
remedi
1849
##aksil
nakikipaglaban
palace
kontinenteng
1830
longh
manliligaw
ispes
nakadikit
##rehiyong
##serbahan
motorsiklo
nuklear
lamok
interpretasyong
railways
drogang
legaspi
aabusong
transpormasyong
patnubay
antropolohiyang
gabriela
nasyonalismo
kaparaanang
muog
##aniwalaang
pseudo
fuent
rolling
pagmamanupaktura
bantayan
dionys
ehekutibong
kapatiran
teleseryeng
milagros
bipolar
bulating
##oidal
mandaragat
future
mazda
aaklas
katakana
mabangis
nakahimpilan
macedonia
noruwega
inabandona
vladimir
polimero
favor
mabibigat
interdisiplin
mercedes
survivor
zombie
settlement
radyasyong
amygdala
extinct
mikhail
episkop
kinapapalooban
wojtyła
vaticano
nasasangkot
650
aus
dali
earl
hosto
iono
myemb
pasyon
pisa
rw
tt
tern
wed
wukong
##rand
##cod
##nis
##nayan
##yma
##wards
##ης
nguy
##alipsis
##ateng
##atrong
##onal
##oning
##onis
##itions
iss
isulong
##abawan
##abetes
##iyum
##umann
##oros
##olid
##urog
##idine
##rokl
inog
paro
paratang
##omend
niels
pantur
##ubat
magica
magturo
nakahanay
##opon
##rees
##anduanes
##otong
##oteng
always
ard
malala
item
karma
kartang
ikono
kabuk
thor
think
mason
##eber
praga
pinakilala
paleng
palasyong
tagapan
##enso
##ahatang
aktong
trav
since
sinubok
asuka
chev
oral
pamamalakad
binabawasan
lumalawak
lumpur
kinom
kinilalang
nagsara
itinapon
##embre
##igar
abe
aba
##hae
pagbomba
mabibili
##atingin
kumander
##ecom
shik
shib
shann
magkano
phr
nabuwag
museong
##nais
adren
##wave
##izu
seiyu
nagmungkahing
tagapaglingkod
kompletong
##ebrang
##ustuhang
inaangking
direksiyong
scene
kopyang
harbor
syrian
root
##onsulta
asset
manunuri
kongg
napakal
270
##alamuti
ehiptologo
hours
teknik
robinson
pinangalang
##ylon
tars
lubid
helikopter
landfall
evolution
pirena
1873
1877
topolohiya
haj
westmin
pinagbabaw
catanduanes
maiiwasan
faith
ortodoksiyang
##ophren
sumasahimpapawid
mekanika
##labanan
feel
homoous
1854
aksidenteng
dagl
nasasakupang
bidyong
##etrov
bacon
horror
divine
artists
tambalang
pangtel
sheikh
verde
##ersonal
bariasyon
##irmahan
domestikong
sorb
paborito
hearts
tracks
publishing
naibalik
sebwano
konserbasyon
manipoldo
nagpatibay
heometriko
awtonomiyang
napagkas
reptil
designer
pagnanasa
kalkulasyon
kustom
starting
##iklop
jehov
chapter
excell
janeiro
##ubaybayan
eskwela
statistics
##kobon
prostitusyon
sequel
francois
terapiyang
niluluto
dihital
demonstrasyon
buddhist
customer
zapote
scarlet
nakakarepresenta
cainta
warriors
uzbekistan
lithuania
azerbaijan
katagalugan
theravada
himnastika
salamangkero
gondwana
mormon
saitama
remedios
bs
ble
biro
ej
fail
gana
guni
hug
hack
layon
mia
muw
mabasa
nesto
pahinga
sima
vik
worm
##aad
##hur
##dn
##bow
##wes
##23
##στ
##atem
##gad
##aron
##amun
##amika
##itimo
athan
atanas
##ingaw
##ingale
##iyun
##iyentong
##awika
##unst
##adin
##enong
##oser
nagoya
note
##roit
inaresto
##etto
anyos
katuruang
##icles
##yover
tacl
hinanap
hinarap
##stad
##rec
italian
##edyang
kabayong
kababayan
baguhang
##obel
##pinde
##pineph
##chel
prestihiyosong
mano
tagalikha
theor
dinakip
orle
orasang
namana
pagsakay
sumahimpapawid
tumakwil
pagtayo
lozada
##angkutan
shinee
napupunta
##apatong
##yanig
##ocene
indiyanong
hiling
pasok
nee
inilahad
sariwa
##ukuyan
antir
paghirang
romulo
interface
humanap
tsar
conta
plut
##insi
buhayin
##akasakit
##ighter
could
pagdalaw
pagbabahagi
pagbabaybay
##umba
##umbong
##umbok
acting
bulakan
geneva
tunnel
medes
della
dallas
transkripsiyon
litrat
depok
depekto
urin
urugu
solusyong
olivia
naririnig
emma
juana
kapulisan
ahura
##anayam
260
schools
nakapailalim
desentr
burm
##urance
makakap
ebanghelista
ideal
##shasa
weaken
kadokawa
flyover
rekomend
magdudulot
meme
dahong
60s
missing
pagkatatag
catar
detroit
kinailangang
notes
instrumental
maglagay
pinahaba
mrs
developer
january
lakad
archae
pinalilibutan
bohem
inanyayahan
magkakasamang
pagkapapa
iginagalang
patriark
inakalang
almir
sopist
became
##radyo
bobby
dambuh
importante
korporasyong
yumao
pangdagat
heometrikong
tadhana
dinamika
swedish
pinakamalalaking
sambahsa
##anthrop
mercury
napangasawa
kritisismong
vacuum
axis
tollway
flavius
tendin
pinakabata
piliin
beteranong
binasa
nagkasala
delegado
delegasyon
nacionalista
gnostiko
analitiko
guward
bethlehem
eksistensiya
##oronahan
nagtitipon
mithiin
##awsaw
euler
aramaiko
##ogramo
retorika
triangle
emergency
shuttle
schizophren
pangmatematika
cananeo
pagkamamam
pagraranggo
antidepress
pisngi
abogasya
kataastaasang
mendelss
##otransmit
manufactur
lisanin
nicaragua
nguyen
palengke
shannon
jehovah
atanasio
tacloban
##pinephrine
ain
berb
cic
dent
drift
ea
eight
fon
fate
gng
gina
haban
hij
hwang
jaw
kesong
miya
pyong
puri
slam
uutos
viv
vera
yar
zimb
zodia
##iot
##rate
##craft
##wersa
##worth
##flow
naaresto
##alsa
##iley
##iliwanag
##aridad
##ayam
##onim
##onio
##amus
##itto
##itta
##akono
##akinabang
##eriya
##ahukan
##isasyong
pagunlad
##eser
##usad
##usyo
panghin
##idan
##roy
inulat
paralim
##emy
panukat
panulaang
##ubert
nakuhang
ibinal
kasu
maintindihan
alien
mating
matrix
##awain
##ersiyon
ikinal
pract
kaugnayang
tagamasid
sinama
sinadyang
dinaglat
batch
chase
pamamahalang
binhi
pagsayaw
salaming
sumira
##uladong
itinatakwil
tumayo
pagtangkilik
pangkalikasan
##ulate
mahika
1820
##ambol
##lai
##ecies
##ecraft
napasailalim
nanalong
opsiyon
nagtitinda
punung
nagbunsod
nagbabayad
##adalas
kamatis
coman
compan
##resa
inilatag
pampilosopiya
nilikhang
romulus
kasaluk
interview
sakong
paggastos
adul
unido
spot
poll
##ordinasyon
##ucture
##ills
##illi
nagmamasid
monster
metastas
moog
kaklase
obaryo
##araanan
131
langgam
nagdaragdag
forest
transpl
bibigyan
latinong
blum
singil
tankobon
ibinibilang
tulis
tulisan
guitar
paggaling
##ahinto
marcel
##ailles
pusong
biseksuwal
arkanghel
kampong
frs
sukatin
##ennes
##ilever
kwentahin
susundan
kings
##shop
inskrip
nadama
nagtatangkang
berkel
rekonstr
primera
tagapanguna
makasalanan
martsa
showbiz
section
##iskis
penelope
astronaut
hottest
pundasyong
sibat
maipaliwanag
ipagdiwang
##labor
venus
sumusukat
remain
laking
kataasan
nightingale
degri
mayoridad
##iktik
madlax
wallace
transpar
prediksiyon
kabutihang
tadyang
buendia
relatib
nitroheno
apelyidong
capitol
nasyonalista
niger
phenomena
adaptasyon
ernest
kapamilya
yakut
evangelista
panandalian
lazaro
amenem
mangkok
blanca
##umpisal
mahuhusay
##stream
claudius
nagpalitaw
pioneer
competition
serialize
universitat
awdisyon
surpasiyo
heinrich
pangmedisina
inglaterra
mamahaling
pondong
stuart
pluwido
pasinaya
gautama
katumpakan
pinanghahawakan
february
toscana
orleans
zodiac
aatas
balo
boc
boss
boca
cf
fiji
hod
hiw
jiang
judi
nc
pt
pid
piz
rak
ria
somb
tomb
vector
wit
xin
yuri
zuck
##ken
##lungan
##cope
##dale
##yado
##bag
##bak
##watan
##fare
##80
##αρ
##ων
##angu
naj
saud
##alip
##ality
##ataw
##atha
##gay
##ilayan
##arangalan
##onyo
##aklong
##ulma
##isyal
##apu
##apunan
##abwe
##iyenteng
pagitang
##unos
##unasan
pangong
##urup
kanad
kanton
##road
pinadala
pinlano
##etra
unilever
ibaloi
kasosyo
##ansas
##ansaan
##oteknolohiya
alta
malik
matabang
itat
##ogl
karang
##uper
makad
ginagamot
manny
palo
##ensiyahan
bruss
akma
amanda
chamber
natakot
binawi
luma
dean
salt
salawika
kinopya
kinshasa
summit
##eguridad
##rier
apg
tumuloy
##atayuan
pagbigay
stim
pagpapalakas
agn
enki
shep
shrine
shoshen
ekles
luisita
impresyon
umangat
buod
puntod
indikasyon
teleb
tez
##ubli
##ayagpag
phd
phill
inilikha
leib
romanse
interst
samson
multin
too
kilogramo
nagpakitang
kagustuhang
##erall
reserba
balon
maprotektahan
##boa
heights
pagdarasal
tagapagh
tagapagmasid
sinasamahan
nakakabatang
##ebral
banana
##saki
pantukoy
cryp
ekonomikong
teoremang
sikretong
surg
##ahiro
komunyon
230
##hini
nagsisimulang
napakataas
280
magbabalik
bolang
padua
teknolohikal
paham
##portasyon
##alakayin
planck
incorpor
gaudi
makabago
lands
##ahalatang
##omedia
turkish
nagbabanggit
faust
appro
pansining
sosyo
billy
suff
judea
mcrae
palakasin
pinahah
tropang
1839
taylandiya
paninindigan
archa
pitts
sirkunst
dominanteng
##entritt
inuulit
claus
hinihikayat
kandidatong
##opedia
lumalahok
tribunal
##aresma
lilith
humihingi
neurotransmit
habilis
athens
michelle
kliyente
diplomatikong
pinakapopular
monarkiyang
##contin
hiroshima
##regular
overall
durdy
pinakahuli
antiochus
maihahalintulad
kabuoang
lireo
identity
ligal
kreasyon
zoroaster
metriko
guangdong
atraksiyon
flowers
evening
resistensiya
jenny
fabian
tingga
leopold
calculus
eukaryote
apatnapu
taluktok
cnn
uwak
emirates
mycena
joshua
karbono
seremonyang
pangmaramihang
fukuoka
babagtas
buffalo
##mamalaki
kahulihan
kahalagahang
supernatural
pagpanaw
rachel
bunsong
keltiko
kaanyuan
katipunero
pransiskano
epiphan
sasabihin
baclaran
phraya
adrenal
schizophrenia
mendelssohn
blumentritt
shoshenq
banov
dorm
fro
guho
hed
hend
haz
jes
juli
kulug
lon
lod
lino
mbc
nue
oto
oreg
sz
whale
zheng
##rug
##rasyon
##gl
##ged
##play
##cs
##cas
##zaki
##bank
##ving
##ᅵᆫ
##anin
##asu
##asure
##arp
##itab
##akar
##akasan
##isco
##apin
##abatid
##ikular
##oria
##osed
naghain
##elop
kanada
mayon
##ulaanan
parall
pansak
nakatapos
ibinas
##istema
hinamon
hinatulan
##oplas
maalat
##otrop
aryan
##iwasang
matupad
matilda
itunes
marya
##alangit
ikatawan
nangasiwa
nangyaring
kaluwal
kalituhan
maksim
prague
pinakita
##under
manika
palitang
bright
##taon
ammon
sinipi
sinubukang
batal
natatakot
binawian
patalsik
kinder
paglalaan
komento
pagpaparangal
mababago
##ambayan
pagkakaloob
shink
naples
impeach
##ocr
##occo
indus
indya
edin
partners
elit
teatrong
##reso
phan
diagn
pamprib
bumenta
##intindi
nasunog
nagpak
plum
plot
sport
##astic
ballad
mamm
itinataguyod
heat
eurip
idea
1200
cool
konsumer
superb
sinasanay
nakakulong
nakakatakot
pool
talino
acet
instansiya
pagtatanong
nakikinig
transfer
siyensiya
pangangati
tanaw
ibinunyag
persiya
hanga
naghanda
tulog
lokalidad
##onsidera
boom
former
austrones
puwede
nalimbag
striktong
silent
arkansas
iniiwasan
##exual
paghahandog
##noon
bold
310
##ethe
nauuna
pinagsis
francesco
raff
helix
viet
peak
bonus
##inki
##aktibong
##rotekta
judy
dimensiyong
mosk
1852
panunaw
pantelebisyong
1848
bosnia
greenwich
panghimagas
saints
astronomikal
odys
refuge
ashoka
kalinya
miriam
lingua
mapapanood
1825
several
higgs
nicomedia
pagwasak
origin
pampanitikang
pagpipigil
achiev
kaayusang
komplement
inihahanda
bombang
antioquia
masusukat
kusina
benedict
pagreretiro
pagmamaneho
dionisio
canton
nahihirapan
display
hominin
freddie
elektromagnetismo
tenga
seminaryo
jorg
matalinong
tudling
alimango
grabitasyonal
cristina
whitney
vertical
nakapirmeng
fungi
taktika
siruhiya
admiral
luxembo
mediterraneo
euph
boluntaryong
perspektibo
private
fusion
pantalento
ikinakabit
trinitariano
atmosper
zurich
igorot
sawsawan
pinakahilagang
chancell
nagapi
zulaikha
learning
myembro
##atemala
antiretrov
rekomendasyon
comaneci
pittsburgh
kaluwalhatian
luxembourg
blow
dung
dahang
fine
gis
iisk
kow
klab
kalawakang
lunting
n6
niyon
neh
nilipat
norma
naniwalang
purg
putol
rif
suh
semento
sody
tamp
ust
ulong
xbox
yin
zal
zobel
°f
##sula
##sama
##sinki
##ois
##utor
##db
##yaw
##yad
##zz
##zawa
##ᅩᆼ
##ер
nainkorpor
sasa
angl
##atamis
##asiwang
##ilateral
##arismo
##ayari
atp
##akag
##ulia
##ahl
##isch
isbn
##toc
##orc
##osor
##igne
##ignan
##idya
pinapag
pinsang
##alaala
##utay
##ubaya
maglaon
204
pagkik
##opa
##ugal
parac
aliwan
alicia
malas
##uhito
##edal
##edit
kabayan
##aanak
##lect
kalayuan
pav
prek
brut
ipinamahagi
amni
dinagdag
asero
asasin
chry
orch
orgas
pagsunog
decl
kinahin
kahihinatnan
gramat
graham
pinakamas
stem
sank
##alikom
agres
##epl
##eption
##eca
sham
baryasyon
androm
umatake
milimetro
opus
punj
telekomunikasyon
kamara
nabili
inilustr
nagkasakit
romual
bumabagtas
reporter
humirang
humabon
diyosan
##endra
adobe
spell
kultong
isinunod
mapip
mapili
posporo
##ighani
kolum
koloidal
##gram
##asalungat
##quis
soap
##hangad
##urier
##ellana
wikain
generation
beis
##romiso
##arket
dekano
hudikatura
##raltar
pagkakaunawa
##lima
emerhensiya
cann
canon
formation
commune
bersikulo
sobra
airasia
string
##phis
inihain
erya
##ihimok
magbitiw
pinanin
arabeng
koronang
belh
myster
cafe
santauhan
naitalaga
helsinki
grow
sitio
bonaparte
##iseum
tagapangalaga
stories
iskultura
penomen
flora
##ewala
astrolohiya
notasyong
sahog
pakikipagtalastasan
1851
natutunaw
postal
roads
umuulit
nakikipagk
kagandahang
##ienza
activ
001
transportasyong
stack
panglipunan
##balah
kapitbah
komersiyo
keyk
kolonyalismo
##intulutang
pintakas
gonzaga
999
rocket
mohammad
ekspedisyong
array
dengeki
pakikitungong
algoritmong
tanggulan
##unyi
##cauayan
kagawarang
queensland
leopoldo
kampana
liberty
tesalon
talukap
katatakutang
meycauayan
mamumuhunan
essene
dibersidad
deputy
provincial
korteng
monthly
bulgaria
ikadalawampu
diksiyun
hampshire
rehabilitasyon
construction
talingh
##iselular
pinasinayaan
pueblo
chopin
enkidu
mississippi
##uportang
##antimpalaan
delphi
intelligence
daytona
jianbing
tagiliran
patutunguhan
kahihiyan
westminster
uruguay
antidepressant
berkeley
neurotransmitter
patalsikin
impeachment
sodyak
asasinasyon
aang
bord
boro
bugtong
ces
cali
craft
gata
hath
hugnayan
ios
jake
kern
lulan
lawang
nun
neder
peng
pigil
qatar
rag
rider
taka
tatapos
upo
vie
vision
wiz
##eed
##rs
##gata
##group
##pad
##lene
##fran
nayong
nara
saur
##asik
##arera
##ayn
##ayama
##akura
##erxes
##iyado
##iyenda
##unok
##unaga
##adh
##igata
##urya
##iden
##ibi
kanlungan
sick
inere
inhib
##ukso
pamimili
##utya
katagalan
taus
##opolitan
##rew
##andes
##otikong
malaria
ituro
##upong
ilagan
kabibe
kalapati
kalutasan
makakas
paint
paalis
mann
manx
kaant
amur
##arov
dinirekta
binibilang
lumiit
lumampas
kinansela
sumpa
sumalungat
##ege
gru
##ataytis
pagpapagaling
mabawi
pagkakam
##lach
##estyle
dao
umatras
hulihang
punungk
edmund
pakete
hilario
awtom
teologong
pharm
uriin
nababawasan
nababagay
nilathala
antart
antena
kasalungat
repr
nasirang
nagpapalagay
spark
isinulong
balbas
relief
poss
imaheng
panlalaking
##avari
##artsa
tagapagsanay
nakakakita
laruang
kakap
naglalaban
sctex
##teok
nagdud
nagdesisyon
##icho
used
symp
siyas
litwan
persepsiyon
simulain
rushing
does
takelot
serbesa
koepis
##phone
inihaw
utada
nakalal
##alinda
padron
koral
natatanggap
valer
mollus
napapaloob
##araniwan
armed
santolan
problem
ecu
gauss
berry
mongheng
walker
listahang
iskand
cyber
komedyanteng
lapid
stream
louise
magnet
iranian
diyablo
election
castilla
ehr
godavari
faculty
infection
vaners
pagkalito
founder
1831
pinakasimpleng
voic
shogak
kosovo
celia
mapait
ekstens
distribution
parlamentaryo
balakid
aspir
klado
bautismo
versailles
obserbatoryo
konstruksyon
kazuma
township
promosyon
##screen
afternoon
pagkakapareho
gampaning
##vou
mohammed
abdullah
mesopotamya
pangngalang
nagpaunlad
##lynn
reproduksiyong
aktibistang
deuterok
sharon
cristobal
gibraltar
pagdadalang
pumipili
sucat
kagawian
kagawiang
scottish
makukulay
cecilia
mangkukulam
##anghap
##street
boksingero
yusuke
bishop
algeria
##transportasyon
baptist
magkahalong
##friend
navarro
playoffs
komputasyonal
silindro
panganiban
symbol
apartment
headquarters
kooperat
seattle
norweg
although
separatista
pasaporte
frankfurt
ncaa
czechoslovakia
pinanggagalingan
kasiglahan
excellence
athanasius
paralimpiko
kulugo
euripides
antiretroviral
shogakukan
banga
bebra
cob
dina
due
ero
gao
hail
ket
lapi
pugo
piyano
sipon
tutan
tutol
tuka
xp
λx
##ees
##sbol
##rado
##rick
##ront
##lf
##zing
##vian
##ст
sai
##inos
##ask
##iliw
##arusahan
##amentong
##itad
##itional
##itahin
##eroy
##erekta
##apul
##abaya
##ikaan
pagu
pagan
paganong
##undi
##esita
##orr
nagu
pangulay
kano
kanyon
inangking
inquir
pinalamutian
pamangking
##etics
panama
paniki
##ube
anci
##dian
nakasan
kasariang
tail
hinaluan
##ogene
maric
ilapat
kapuna
kabalik
nangatwirang
kalamb
kalalim
paunl
manchu
##oyama
tagubilin
##ahatol
trial
namamanang
lumaong
##ehikong
salazar
kinam
nagsasak
konk
pagtalon
##igaku
mahuli
##hao
logar
pagbuwag
eskolar
##aloid
pagpapasok
##eptions
gumugol
##estre
##ecca
shurup
pinagpap
improv
umasa
tatawid
##olohistang
teolohiyang
nabuc
nababago
subsp
subatom
niluto
humihinto
##untong
linnaeus
adop
kagoshima
rehistro
##eyn
##insons
isinanib
balbal
mamahala
##utot
position
pagputol
kolyma
animax
coliseum
henero
monarka
alberto
poot
koreo
kakambal
inaalis
madaming
kopa
internal
transition
translit
transistor
rook
pinakauna
##ovan
intedyer
##agkit
emil
pagsusukat
umaalis
pandacan
nalil
democr
napakalaki
iniharap
##encies
butiking
charm
nakabitin
##uella
ekspresyong
kimi
mangaawit
robinsons
valle
makapagh
magtagumpay
filter
portal
ipinapasok
weather
rosalinda
gael
makatuw
pagliligtas
##bonne
pirata
midyang
toreng
napagm
prepar
##itness
demokras
suicide
tener
rodolf
1853
josephine
advance
letran
infanta
palau
underground
rhea
##alawigin
logos
laden
claude
ikawalo
alyansang
pagkukumpuni
socialist
humihiling
domestiko
octav
##lovich
bengal
triple
sinisikap
perpet
opening
betty
lane
harvey
gagawing
coco
physical
inihahalal
heograpikong
tibetano
pinansyal
pandarayuhan
extended
parsons
morpolohiya
nasyonalidad
pragmentong
oceania
hominid
balagtasan
further
eugenio
friends
arnold
vilma
dramatikong
##ugtugin
pinakatimog
fermion
lumulutang
proporsiyonal
nagging
ezekiel
##odonosor
chromosome
treaty
hermaniko
kaasalan
naipapasa
umbria
timpalak
##ystal
##inungalingan
ndola
telenob
kasukd
architecture
##oterapiya
tunggalian
kinomisyon
burmese
sirkunstansiya
parallel
shinkansen
deuterokanon
bebravou
aja
aani
border
db
dapitan
eve
earn
eagle
fuel
flying
gund
gamb
galis
gius
gerald
het
hain
jen
jolo
kili
khal
klor
langk
lente
lutong
luke
malaw
nim
nano
pist
pump
pabango
sf
tugtog
uy
utong
ward
wwe
waves
yag
yes
##more
##mons
##rac
##gest
##dog
##yah
##yab
##zang
##won
##val
##jang
##ية
naibigay
##alaban
##alugad
##atos
##ilas
##ayl
##ayed
ayang
##ulbos
##erdas
##ingil
##isen
ister
##abayo
##iyab
pagam
pagyanig
##ades
nagising
##imuno
##ipel
##elan
pangilin
##ibia
pinad
pinigilan
pinirmahan
pamahayan
##etti
until
ans
anno
nakahanap
katahim
##ekula
tac
hinuha
pagkit
##recht
##otipo
malalawak
malagkit
##uhitan
##antrop
##ogne
##ogatari
kabik
baging
baghd
##oboses
kauriang
tagak
ipinam
akay
aswang
natatapos
nama
##abae
##imbestiga
sumaklaw
itinuloy
tumiwalag
pagtatangi
##emberg
komi
grid
aben
##isman
pagbaybay
stef
##ulouse
sanc
pagpapaliit
pagpapaganda
agust
mabubuhay
minana
pagkakagawa
kritikong
##lave
dae
daigaku
andes
puntir
inday
indbid
population
dias
sarh
ley
##umpsiyon
##untuning
adonis
kill
basehang
kaginh
plann
##insky
mapak
kolektibong
coul
pagdagdag
dumarating
mei
talisay
tumututol
kakayanang
pantayong
kuwaresma
scrip
medan
medis
bukang
nagdisenyo
nakikibahagi
scholar
ulang
kuru
##ovic
##atakutan
narrat
lagyan
##kaster
235
silla
napakat
##raph
biyas
nakabilang
materyang
calvin
pagkaantala
mapagp
switch
spectr
##etheus
patakb
sirac
willie
km2
nadagdag
nadakip
seguro
wasto
events
##rodkast
primetime
memphis
simuno
##ctic
pagkatuklas
leonard
firm
pansinin
estrella
operator
sibilis
tenno
ending
hidey
365
diperensiy
##type
premyong
jackie
1846
classical
pagkalason
golf
pangkasaysayang
hepataytis
inspir
##lusibong
bread
odd
sison
##ushima
1801
alonzo
degrees
kontrobersyal
andrews
patriy
urbanisadong
kendi
athena
matutunghayan
laurent
familia
wrest
autor
inakdaan
almor
##ertebrado
ikapito
locsin
lehislatibo
riot
kinatawang
steam
corps
mandirigmang
pampamilya
gulf
ekstinkt
kredo
pagrereg
lusubin
tahasang
lumalagong
maurice
lotus
adventures
resistansiya
nakagagawa
optimisasyon
critics
wolfgang
oste
nagkokodigo
nagkasundo
oryent
ilustrasyon
##ikoden
sertipiko
following
##lesiast
makatotohanan
makatotohanang
riemannian
pulmonyang
gandhi
masugid
vishnu
nelson
magkaparehong
compilation
tajik
bartolome
virtual
hamburg
munggo
seinen
fantasy
habitat
something
pansakahan
achievement
jorgensen
siyasatin
vanersborg
shuruppak
nabucodonosor
rodolfo
bom
bek
bigay
dx
dadal
dora
dyaryo
eulog
fant
fies
flynn
gest
gapan
hist
hors
hupiter
ia
jih
jama
mph
mick
ned
omar
pib
qin
quo
rust
stern
tangan
tira
tosh
tangkang
veg
watak
wife
zan
##mura
##haba
##rans
##kham
##gia
##pungan
##uation
##tc
##yibal
##borough
##35
##ις
##ław
##ار
naic
nauwi
sato
##alub
##agar
##agawan
##atiwala
##asalan
##asyano
##ilt
##iligtas
##arck
##akma
##akular
##ulp
##ulf
##ultor
##ingal
##abuhay
##iyama
##adhana
##orra
##igs
##imonya
##imtim
pangsik
noc
noth
##urasyon
##ibangan
##iboro
sigar
paragu
##utak
pananggalang
##irk
anark
nakataas
##istics
2020
##ansk
##stic
##okyo
alert
alumin
malutong
matang
matter
karamp
##uplay
##inao
##ione
thing
things
ginamitan
##tera
palayo
ipinad
tres
trenc
amn
among
amate
sinulid
dinir
chip
namamana
binatang
pagsupil
salamb
##enger
##ivan
itinanggi
aband
##panatili
mabilang
##ambique
##apatan
papalit
milyun
tatanggap
##adalubhasa
telecom
comelec
neumann
nagkakas
suburb
sars
##agoga
samal
tsarter
toulouse
kilo
resident
isinabatas
balete
baltiko
pagproseso
kolabor
tanghal
1700
seas
carth
##ava
122
hener
henerasyong
sinasaad
nakakagawa
pagbabak
albanya
talong
wikaing
kristyanismo
kompar
acute
##asakamay
scor
bukana
nagdiriwang
pisi
piskal
ultra
latina
##ovina
magsama
pagkakaugnay
##orph
surface
canarias
herak
heresiya
pamumuo
pinapatay
josef
pandan
demanda
##def
ekspon
desk
fruit
oslo
##leton
starter
susing
sirena
tarh
insurance
eleg
##ibayin
agam
makabayang
eskayan
espesyalisadong
##ubhasaan
rebecca
nailigtas
lawin
positron
##areha
kabanatang
tagasulat
suikoden
330
montes
denver
dolores
infrared
buddy
palakol
motto
janet
bunso
victory
misyonerong
tamod
copern
afrika
politekn
linear
hinihiwalay
vietnamese
virgil
ampl
##impluwensyahan
organisado
cathedral
literary
tonight
tagapagbigay
sorbonne
woo
writing
iginiit
gubyerno
toledo
kamalayang
tagapaglikha
awtonomo
carmel
unawain
paramore
mmda
candel
pepper
championships
ubod
kenneth
griego
kontemporaryo
ekstinksiyong
abstrakto
rudolph
dubai
hokkien
called
progress
enriquez
continued
##rogramang
pangaea
jefferson
adventure
eskwelang
alhebraiko
vinci
saturn
vulgata
libingang
beterano
libertad
owen
cpu
nakakahawang
powers
uranus
pinagkaiba
mediterranean
##kapwa
lolita
pinatutunayan
mozambique
translation
ipinanukala
scout
makatarungan
scientific
asemblea
kabayohan
mvp
nokia
shooting
beysbol
panulukan
protagonista
polymer
misteryosong
nagtratrabaho
kooperasyon
komiteng
rwanda
##anthropus
matingkad
transplant
banovce
kapitbahayan
transliterasyon
tenerife
trencin
3rd
cuc
cea
cfc
dot
fly
gek
glo
gav
gott
hr
hulaan
jang
kiev
kirot
lec
lost
ment
mud
muno
mawalan
nyang
nero
oj
pter
pomp
pupunta
plesi
rabaw
tand
tec
tataas
tora
tibay
tbs
ying
zte
##mud
##seng
##rant
##gue
##gow
##yi
##zzo
##bel
##bridge
##waran
##fly
##16
##17
##ιν
##ام
##ен
##anian
##anna
nawa
##inter
##inario
##agoras
##atives
##asyal
##ilak
##ilah
##ilyn
##arangan
##arzon
##arez
##aypay
##onb
##itlog
##uluyan
##ahar
##ahirap
pagda
##unat
##enre
##umes
##eshi
##esulta
##org
##oskop
##ipoli
##used
pangda
noah
##urso
kansilyer
mayayamang
inia
pinangyar
pamela
##utism
##empo
##odus
panimpla
##yaf
magulong
kasinungalingan
##opera
maasim
aleg
##iwanan
matlovich
ituloy
bagumbayan
thym
nanganak
kalab
tinanghal
makalangit
masuri
masukat
ginuhit
##ebird
pras
prosp
sinagoga
dinar
batub
binang
binyag
##ength
kinakas
sumangguni
itinigil
api
tumalon
pagtaban
pangkalak
mahab
grac
abbas
pinakamayamang
sanhed
entry
labia
mabal
daungang
barr
napagd
naputol
impant
implikasyon
implement
##arde
papyrus
artip
comb
sarawak
romo
sakhal
sakripisyo
##ending
##asaayos
tsism
linaw
polinom
##ords
##izing
isinuko
balb
noble
pumukaw
poseid
tungkod
hej
dumayo
monkey
opisinang
ones
epic
##umbinsi
inaalala
madam
pantawag
pagtatasa
republican
##arko
alemanyang
usapang
sabunang
##tose
peron
pereg
symm
latian
litro
ibinaba
presentasyon
256
##etail
route
##lington
magsimulang
radar
brock
paggagamot
kontras
bitak
koi
igf
pinapakahulugan
##iksiyong
##enous
benz
muni
paglalahat
morocco
bolsh
nawawalan
##rosis
valdez
myth
taripa
gilas
sinusubukang
nagtatagal
nagtatagpo
warning
avatar
##esesor
pagsisisi
ecc
##adaanan
##ephone
eksepsiyon
nagkakamit
penetr
nailalarawan
pumapaligid
kinaug
buhakag
##vios
estrukturang
prepusyo
hadron
misal
1856
nakararanas
hapdi
argumentong
motibasyon
1834
1837
tagapagpatupad
magpapatuloy
misteryong
ispirit
tagapagsalin
globalisasyon
should
septyembre
dalubhasaang
##imedia
oksid
lorentz
motorista
curry
magkasunod
keys
higante
panauhing
omn
tiyago
tiyahin
elektro
fujian
grapiko
manipestasyon
787
predesesor
pontific
##ything
teleponong
theodore
tadeo
kinatha
cortes
protons
kenny
lloyd
alhebrang
editoryal
crispin
rabin
behav
nerve
suzuki
katanungang
lepid
diyalektong
xxiii
heavy
adbentista
pertilidad
alkimiko
migrasyon
task
papalayo
collins
cayetano
ginugunita
panghukbo
##hardt
brigada
isotopo
monoteismo
deuteronomio
ipinahih
teacher
atakeng
polynesian
aeneas
inosente
advertising
ampibyan
ugarit
pagdududa
scandina
calabarzon
cronus
kickback
pinakamakapangyarihang
pinaghihinalaang
panlangit
baligtad
longhitud
zimbabwe
metastasis
rekonstruksiyon
pinahahalagahan
babagtasin
edinburgh
refugees
andromeda
giuseppe
katahimikan
baghdad
indbidwal
almoranas
pinangyarihan
poseidon
ae
bode
bentil
cyan
cly
dud
dugtong
eiff
gain
gosp
hut
hob
hirang
hugo
hector
kuba
kyung
lana
nek
nest
pie
rip
tort
tapang
tiss
tanggihan
talakayin
tteok
vertebr
wake
wavel
xy
yon
##mak
##sol
##ska
##hinal
##rum
##rata
##rador
##pel
##pet
##laro
##nah
##nus
##bb
##vic
##vela
##fast
##angis
##anulo
naunawaan
##alapat
##alasa
##agpo
##asar
##ilag
##aruan
##aridel
##ayabong
##ameral
##amilya
##ongan
##ulos
##iku
##iyya
##osy
nagebolb
##urno
##uryente
inca
parup
parada
##ubuti
unong
##dial
maga
ibm
205
hinua
##opla
##ansag
##ugia
##okumento
maanghang
##andy
malvar
matarik
##ederasyon
marin
maririnig
karta
reed
kaparian
kali
tinik
makipot
masaker
prosa
palab
ipinatayo
aka
trakto
amag
chong
chef
##udmod
patayo
dear
degr
salungatan
##imbahan
kinontrol
##egovina
kahong
konkreto
taoismo
pangkons
##abanga
esmal
##unanan
daugh
shek
baras
barret
pinagpapalagay
##rach
nanonood
umar
nagtanong
paso
awang
##gart
nagkita
nilalagay
lex
paghula
paghingi
##untir
nahiwalay
linares
kaguluhang
##thia
plor
plaridel
resolution
dign
kolumn
animasyong
sigla
konsist
konsult
ipamahagi
##artikulo
produser
klasipikasyong
##antaong
onto
mouse
exile
bakasyon
libis
genital
kakilala
pinamagatan
##indalawa
kuwait
##sports
medulla
selektibong
selection
nagdudugtong
delusyon
quin
perc
tanik
nakapaghalal
pagsasabi
magsuot
guatemala
##ostasis
door
teresita
yoon
ganyang
senate
austriya
lagrang
##kasunduan
##isse
recogn
berso
strata
strandong
##encer
charity
linggw
kumpirm
iniugnay
worldwide
kimikong
nagasaki
##atoryal
budistang
fray
pagkabuo
swim
##ikanang
wiktion
wikimedia
susog
magkakambal
manggagalugad
sirang
glen
donat
galapong
naiimpluwensiyahan
viol
nagtatalaga
santi
bonobo
paglilinang
italy
italiko
##osplay
mehikanong
pinagtutu
twin
sibugay
iglesias
##aytis
maglaman
##ymm
451
hapong
##ances
1845
grade
developed
lakbay
dominikano
hinihiling
alyadong
cabuya
lisboa
winner
paroko
convert
lilitaw
georges
hermosa
mapangh
huwarang
supreme
spesipiko
##optera
apolinario
hungarian
weekend
##ipikadong
sumisimbolo
accounting
stockhol
gallery
minoridad
sanskrito
##iligalig
prayleng
reproduktibo
tirahang
rudy
polyvios
nakapagsulat
klinika
panlahatang
kukunin
bipedal
ptolema
yogurt
sodium
establis
aldub
cloud
iriga
nakahimpil
gensokyo
antisem
##ographic
barnabas
pangmaramihan
pakikipagd
pakikipanayam
reserve
katuwiran
baryabol
guinness
pangkomersiyo
makroekonom
uniporme
parihaba
tatawaging
promotion
gothic
encyclopedia
resources
anglikano
dracula
##umigmig
curtis
frontier
ttk
kabukiran
sorbetes
contact
tendinitis
pizza
leibn
declar
kinahinatnan
paunlarin
rookie
eulogio
sanhedrin
polinomial
eiffel
cabuyao
ao
bism
biling
bolog
cels
cephal
cosplay
derm
ego
ferg
jas
leks
mim
ore
oda
pim
pormasyon
riy
ridge
snap
tp
vigan
vall
ville
wawasak
xiv
zun
zoo
##layan
##cin
##fin
##jong
##jor
##xx
##ιος
##ин
##ογ
##ال
##anel
##anne
naut
naingatan
saya
salo
sauce
##algo
##inaryo
##agap
angela
##atika
##atian
##asiyon
##ilon
##ilad
##ilihan
##ililok
##amahal
##eras
##ahol
##inging
##isayan
##igitan
##ipro
##eline
pangunang
pangaral
pangwika
pangrehiyon
pangradyo
nood
##iyain
##uras
##uryo
inangkop
pinahayag
pinayagang
##uted
panonood
##iritong
##irikit
nakarehistro
kasul
##ekorasyon
tach
##ansi
##reng
##andid
malalamig
matamo
##edd
ilalagay
##inain
bagting
##ahanayang
kaligrap
kalahatan
tinangkang
makakita
##iane
price
pruss
palaso
hallow
akih
truman
truck
amenh
check
natanto
lumayo
lumalaganap
pagsipsip
pagsubaybay
salome
##imba
sumabak
nagsipag
ape
pangkahalatang
mahar
abor
pagbilang
pagbaril
##ataon
esd
escol
pagpapap
agwat
##lain
##esty
##estone
##ecia
shall
bart
napatalsik
papalabas
uminom
tatar
##uev
pako
looban
paghuli
samoa
sakur
nasaktan
tooth
adoles
nagpal
conan
basko
kagip
kaguruan
##abies
resur
isinis
##ify
seung
panlapi
cardi
eurasya
suppl
ipahiwatig
okup
okrug
naglaan
mons
monsters
monogatari
nakakontrata
poor
talat
1400
kakaw
##inder
hukbalah
kalakaran
harris
nagdadalang
organisa
dale
usd
employ
bayesian
singgap
ural
presents
##ments
programs
gustav
claro
bour
pulitzer
lagos
lagda
commer
commander
##kaibigan
etikang
umaagos
umiinog
paglalantad
kumplikado
iniu
ekspekt
utusan
utilidad
##agamitan
mananalo
isinasalaysay
valenc
pwers
armando
nauuri
gluk
ideolohiyang
nagtatago
help
trophy
kadak
sites
plate
eskand
legato
angels
magdadala
hair
sayyaf
kontroler
eksenang
pagkakasulat
christina
lebadura
pagbubukod
jerome
##ophil
ihanda
ihambing
kinasuhan
1950s
koreanovela
letter
letters
umuusbong
##ancy
pormulasyon
##ercito
hardy
##aksyong
mambub
1836
1838
longgan
pitaka
sirkular
pagtatagpo
representante
farro
isabella
1930s
leslie
##gawad
ampon
crocod
duet
1812
literaturang
patricia
nakakatawa
anatomiyang
bengali
anthrop
radiasyong
##amsam
pagpapasigla
sintetikong
connor
malalambot
nikola
1571
illustr
##dorf
armenian
nagtutulak
wells
siddh
tumitingin
huambo
shahnam
ratings
sambahan
ralph
evangelical
stonewall
cherry
vinzon
makukuhang
contract
kawanggawa
electromagn
ekstrang
together
lynch
erotiko
receiver
dialekto
panghukuman
panggabing
metodong
hammer
akusasyon
restorasyon
hinangaan
nanunungkulan
eigenmann
boluntaryo
timpla
sekretarya
petersburg
fighting
anunsiyo
naghanapbuhay
hachiko
assyrian
pagbabangko
ultimate
egyptian
##eserbisyo
maginhawang
observatory
gastroenter
different
artemis
downg
lucky
pipiliin
update
marriage
pumapangalawa
magpakailanman
magreresulta
bianca
ejercito
urinary
brussels
batalyon
ajax
hideyoshi
sigarilyo
candelaria
munoz
wavelength
degring
hukbalahap
austin
bm
busan
bote
cep
dul
duo
dato
fah
fen
fear
fix
fetus
gos
gut
hos
hons
hersh
iugnay
kp
kog
keb
kep
lily
nol
nida
others
piga
puella
palawigin
rg
rid
ruf
sugnay
suriang
ssr
tana
tert
tasyo
uukit
wi
wis
wto
wow
xav
##hong
##hara
##hua
##iis
##rah
##rikong
##rones
##pass
##lubang
##nos
##nom
##taran
##wad
##fort
##19
##ар
nailipat
##alipin
##agit
##aged
angu
##atch
##athi
##asus
##asukan
##ilab
##ayu
##onent
##ulado
##uluang
##ingang
##isenberg
##apoy
pagdi
##ados
##enyas
##oryong
##orrh
naghangad
##elet
pangalagaan
##ided
##idence
##rock
inabot
inorgan
paru
pinsalang
pinulbos
paminta
niigata
##emikal
##oderm
pani
panata
##ubi
##irez
nakilalang
ibabalik
katiga
taasan
pagkatakot
##enty
##strom
maapektuhan
##andum
##andra
algae
matalas
italaga
italia
##upot
##iac
those
thomp
##pine
making
kaig
palit
tagan
tagasalin
##ensayo
ipinako
asno
asyanong
chun
orang
natipon
namibia
binayaran
pagsira
patlang
##eham
tumingin
##alaglag
mahalal
paglakad
gren
grasya
abyasyon
pagbangon
pinakamadalas
stela
sanay
mabili
tinatangkilik
barong
napakas
napawalang
pinagpatuloy
andorra
impektado
nanomina
nagtatangi
pakal
pakahulugang
passing
tej
##impitong
##restr
phot
subesp
pamprograma
nilimbag
nilabanan
interyor
bumabang
nagpulong
baso
spencer
polong
polines
policy
##izo
##ektib
maput
mamahayag
digest
relo
imami
heorh
heisman
carac
column
coop
konsorte
tuba
opiser
meet
##onde
once
epith
dragong
drink
acre
bulgarya
bulgaro
liblib
pinamam
pabagu
pakikinig
kuwal
kuwerdas
pagtataksil
bukong
buwagin
quick
nakaapekto
tanod
urdu
presipit
##ffer
clay
soledad
lokasyong
guild
guardi
kawikaan
nariyan
naririto
210
senna
pulso
emperor
baal
##kai
##uyu
protection
238
227
nalutas
silog
silva
pinakamahahalagang
napakalawak
butter
bilhin
##uklay
##uklod
nakapasa
paghaharap
deskripsiyon
budget
cald
atomika
##pei
bird
molar
napapanatili
kwad
myr
sagupaan
tarawa
lubusan
pagmamahalan
dancing
exped
galen
income
pirasong
retscreen
pinagbabawal
paghihintay
florentino
poton
ikinulong
ivatan
technological
mesosoiko
operation
backstreet
sumasamba
boyband
hidalgo
kondisyonal
panunulat
##niig
akses
manganganta
dolphy
trev
premisa
pinahirapan
1843
##uyot
##akht
nakahah
tagapagpa
artistikong
480
sultanato
barbaros
memorandum
1817
magsasagawa
lumalabag
tribute
ponce
porto
nagreresultang
arsen
magkasing
iginagawad
hemis
perpekto
secondary
nararanggo
pinipigilan
overs
commissioner
kosmolohiya
bariabulong
asirya
magsisilbing
##anonisa
malalalim
hypot
integridad
bronch
denominasyong
extrem
##anthus
fairy
ichiro
https
rudolf
lumalago
audience
triassic
dwarf
1565
napakahirap
assemblymen
innov
nagmamarka
sukdulan
buntala
laoag
##akinabangan
trigger
euclid
rpg
blanco
lesbian
glasgow
##kwentro
fungus
inaakalang
polisiya
nakikipagtalik
sigurado
makipagtalik
mixed
seleucid
atakihin
makatarungang
ciudad
foster
herzegovina
complete
##eeeeeeee
iliada
asamblea
course
nagdidisenyo
pinagsasaluhan
carniv
subtropikal
hanoi
##usescu
aritmetika
appearan
pangheograpiya
athletic
tessie
adhikain
coffee
tersiyaryo
selebrasyon
homoousios
dagliang
##ubertin
multinasyonal
nuevo
oregon
romualdez
subspecies
kasukdulan
fiesta
ceausescu
ipinahihiwatig
leibniz
bologna
amenhotep
commerce
thompson
blas
balit
cinc
cyr
eid
ereh
fis
fert
fighter
goy
hump
io
idi
jab
kla
kuto
kota
lb
lipon
liver
mama
nib
oe
oman
pg
quan
raz
rows
rival
soy
singg
sandaang
tiw
tita
tulugan
tuon
verb
vide
veter
wong
yaz
zhang
##hasa
##hiwalay
##kes
##lia
##cal
##cap
##dow
##tec
##ylo
##yador
##zig
##bie
##base
##was
##ор
##jay
##juna
##27
##anyo
ngiping
##alto
##agus
##agne
##agpas
##atawang
##arok
##amhati
##ulh
##ulungang
##ahaging
##iyamento
pagto
##orov
##igp
##elps
##urabi
##ibabawan
##room
siqu
mayk
indic
##omeno
pinoprot
pinaniwalaang
##etalye
panrehiyong
anita
magiting
katunggaling
##icum
##yot
##eklamo
##opath
##opoda
##antabi
itago
marinong
##upt
##anggalan
reeves
kapangalan
kapwang
kapuwang
kapatagang
kabiyak
bagon
thi
##obu
maki
mash
proof
##alakip
paling
##ensed
truth
sinabihan
dinalaw
dinagat
aset
bath
chuo
choc
pamamahinga
natanggal
##acle
##acao
binat
bininyagan
##udis
lumaking
pagsagip
##egu
kahin
kahuli
apatang
apela
pagtupad
paglunsad
paglaho
paglikhang
ingatan
pagbukas
stall
pagpapala
gayahin
##ampton
mabubuo
tinatablan
gumaca
krema
##ormula
ekos
bark
nanjing
papatay
papalaking
nagtangka
##erna
tatakbo
nagbabawas
nagboboses
##adaos
telugu
pasalita
awto
ellip
phelps
sinai
nabawi
sardin
least
paghanga
paghahangad
rome
saknong
nagpapak
##alinga
bagoong
##aste
mapah
mapansin
mapadali
pumang
image
panlaping
##avi
coubertin
dumid
monos
##erton
nakatalang
kompromiso
bakyum
bee
bever
##indak
creta
hayley
tanawing
##abanal
##abanat
sikologo
sikmura
##orno
turuan
grey
##abagin
emer
emilia
canlubang
pulilan
baj
ahensyang
225
pandamang
naluklok
pinakamahal
bisitahin
##istol
275
nagsasarili
magbasa
damuhan
arabyang
friday
units
korelasyon
##layer
elektra
napapansin
armm
areg
gluc
idinaraos
ramirez
istrat
situw
namumuong
gregoryano
gregoriano
mataong
ambass
martilyo
kalikasang
nagbabala
mendi
pumapatay
operations
saharan
##ophone
80s
suite
maipasa
diyus
montana
ligaya
palatandaang
panunumbalik
kalimantan
mangangaso
knight
suweldo
kumbins
bosco
motibo
palaisipan
paninda
tutungo
astronomical
mailarawan
kei
multipl
arrow
circulation
princeton
humihinga
neutr
protestanteng
millenn
versace
escobar
drew
huwad
idolong
plantasyon
##cherib
tagapamahayag
kabundukang
pontip
##ledge
pagkahumaling
cocon
gorilya
malalayang
trauma
parametro
1762
helenistiko
guru
plastic
fatima
stanford
kapatawaran
sambahin
freddy
natatawag
methyl
kundiman
nazareth
sutla
hippocrat
nakasaksi
electronics
kawangis
upgrade
nagpanatili
maglalabas
oryentasyon
dioclet
tumbasan
nahuhulog
naidagdag
##iciency
kordero
eksistensiyal
pawis
seremonyal
potograpiya
mozart
melanie
turbina
yamaguchi
cynthia
fleet
birtud
cervantes
panaguri
citizens
heidelbergensis
exhibition
aproksimasyon
karatula
buenavista
biyokimika
eklipse
parliyamento
arameo
favorite
##roklama
napagkasunduan
panghinaharap
bocaue
salawikain
surgery
incorporated
chancellor
kernel
tausug
ecuador
norwegian
tutankham
ancient
kalaliman
coulomb
oryentasyong
karampatang
amateur
batubalani
kagipitan
kadakilaan
shahnameh
vinzons
gastroenteraytis
xavier
sennacherib
ambassador
aq
ais
celt
dens
duel
dilim
fitz
gull
gates
hs
hunt
handaan
kens
mh
md
mog
mers
muc
null
ou
piyan
ryu
rhe
tc
vito
wah
wuhan
wurt
##eak
##mb
##map
##aign
##syong
##shi
##side
##hes
##hian
##pung
##cot
##crip
##dalawang
##ים
##fu
##fol
##fetta
##13
##αλ
##ρος
##aliling
##inik
##agna
##asing
##ilom
##amamahala
##itian
##itsu
atienza
##isiyo
##apur
##apolis
isasagawa
##abla
##abubuhay
##ikaga
##awis
##adla
##adkad
##adukto
##ener
##esgue
##orso
##olingg
##elya
##urol
ine
inag
ines
inulit
##omm
pinayuhan
##uktok
##utihin
##etsk
##ubha
##irt
another
##div
katek
hint
hinalaw
pagkamit
pagkahilig
##entura
##reasyon
##okrat
maestra
aless
maru
maranao
##ersisyo
karab
##itano
##itania
ikukumpara
##uwan
nangatwiran
makapang
promo
pron
kaapu
tagt
brack
brons
##tax
akust
sinop
asyat
chick
natuloy
lumb
deck
salarin
sumalakay
sumibol
sumerian
##egur
nagsanib
konh
apuhan
apdo
tumatag
##oha
pagtama
pagtataas
##eroid
##inoid
pagbuhay
pagbago
esto
##eper
serge
tinatanggal
krup
anders
paper
umamin
umikot
edge
magkad
partisip
elli
##impeksiyon
pampat
nilil
nilagay
manghang
paghanap
##umpol
sambal
sakson
linus
nagpoprot
##asanga
spi
panlunas
tagapaglathala
aklatang
meter
##awanggawa
talulot
tumutugong
sapot
opisyales
bakunang
instant
madami
pantahanan
kuwarto
selanda
kadalisayan
nagdaan
deliver
nakaukit
perugia
dekorasyon
negro
258
301
##ilisan
clin
##ements
##utubo
surp
sendai
whist
commons
serbiya
##hinyero
pinapayagang
pusit
paglalaban
bilugang
ninja
erup
magbabago
pangmasa
reyno
nakapuwesto
mori
bolivia
##orax
padyak
calend
calumpit
calabanga
##asining
pagkaubos
ipinagtanggol
paany
mitsa
##ograpiko
associate
##uche
warren
inside
naiibang
elev
avail
aviation
tommy
##ignment
lucy
##roduksiyon
simpl
gregory
midyebal
midnight
torne
320
lebesgue
napagb
nailarawan
##ilimitahan
florencia
ikinabit
applied
lapya
lunar
isinaalang
suit
tenis
indiano
maghatid
pangsining
palatuntunang
tourism
troyano
1832
##tolic
hepeng
pagluluwas
mister
pitak
dominic
komisyonado
pagtatago
jeep
ashikaga
lisbon
memories
working
verona
##apayak
1814
ekstra
##itude
parlamentong
urbanisasyon
1821
numbers
consort
hermes
gnp
velar
escape
pinaghihiwalay
lactase
slip
pagkamulat
ruby
legacy
kinokonekta
##script
nagsusulong
naghahanapbuhay
antropologo
strateg
djoser
candid
heograpiko
dzmm
hypoth
##isyuhan
reperendum
nerbyos
eukar
dalisdis
nerv
mapagmamasdang
manghihimagsik
sambayanan
africanus
##ycin
ceti
migrante
balyenang
mapupuntahan
diyametro
hammurabi
irigasyon
catalina
ipanganak
supermall
supermarket
brodkaster
loyola
inimbitahan
anunsyo
katuwaan
figure
finnish
panghihina
posterior
apocalipsis
##paliban
sunshine
mitochondrial
supersymm
sentralisadong
parlyamento
terebi
phenomenon
rashid
moldova
austro
epistem
yakutsk
gundam
##ipelago
abenidang
medisinang
paraguay
wiktionary
hershey
pigafetta
barbarossa
tutankhamun
5th
850
aisha
bess
beke
cw
dic
dys
ery
epinephrine
feb
gim
gla
gansa
hito
hapag
kalawang
kamb
ligang
lakan
mell
mungkahing
nbn
pik
puc
pius
pure
rektor
steroid
tj
tyr
uumpisa
uudyok
vest
wish
yero
yaho
ᜀᜅ
##sburg
##had
##hung
##rhini
##oot
##gc
##cor
##cell
##qi
##nica
##tal
##tatlong
##zin
##bot
##wid
##wagian
##juku
##xon
##15
##ии
##ев
satos
##amdam
##aksak
##ahu
##isikal
##ische
isahin
isasama
##unto
##esch
##olyong
pangtr
pangamba
siam
ino
inilala
inagaw
##omori
pinaniwalaan
##ukai
##etical
pantransportasyon
unik
##yaan
anastas
anemia
##dier
magdang
ibahagi
katlo
katuturan
kasin
kasult
kashm
pagkumpleto
mack
alat
alint
aresto
malibang
##eduk
mariang
##upain
reimer
nangailangan
##obos
makiling
makakain
masiguro
##chs
ginebra
pren
praz
prestih
kailang
akson
amf
amado
sinalungat
bahura
dinukot
asi
asher
natigil
binay
binary
lumot
lumusob
pagsiklab
patrong
deakono
tumbong
##mail
##ulated
##akaunting
graf
abalos
pagpapar
pagpapakalat
pagpapainam
##angkad
minami
kumitil
##turbasyon
gumug
##laim
##estiya
shue
shenz
pinagg
umanib
##ahango
edipo
pope
magkasalungat
paste
kamen
kamandag
neon
nabib
nabuong
##gard
diabetes
nilitis
humikayat
nahinto
toei
adj
adapa
nagpatayo
nagplano
nagpahintulot
nagpatalsik
polic
##insk
##insiyam
##astangan
##orden
gawaan
##izer
resett
isinahimpapawid
baluti
nobunaga
pagpalit
animal
modo
1750
seism
heisenberg
panlabing
panlinis
carb
carey
coal
konsol
pagdakip
ipv
naglalaan
monarch
produce
sinasaklaw
##quiao
nakatataas
exist
laude
actin
bulsa
baku
beet
languag
sensit
scan
scorp
##tef
crush
##iche
quinn
gampanan
singing
##nee
kurbang
probabil
biglaan
305
networking
magsasak
greece
centers
doo
paggising
narita
kontrad
##itoryo
pakikipagniig
sulp
puwitan
herc
pagsusuot
mery
pamumula
pete
petty
edukador
##erhente
##esisyunan
napakalapit
biyadukto
##langit
chargers
bilugan
nakabalot
goethe
nakapokus
morgan
nakalalas
##velang
##veland
##olds
##ects
##enner
mapags
mapagt
##zai
##ethys
jour
jojo
##ograpikong
mangguguhit
istrep
willy
raid
danish
pampangulo
tugong
helium
nagtatanong
##hood
##ockey
segmento
pagtutulungan
watt
panggug
panggagalugad
superkontinenteng
parks
bonn
##logan
numa
espesyalidad
naturalista
midyibal
makaiwas
pinagbawalan
##ujin
nagkakaloob
coron
correg
bandung
sumasayaw
nakipags
ihiwalay
integer
julie
mutant
endok
etnisidad
postgrad
koreanovelang
mangangaral
umuugnay
dolp
putaheng
tigris
argos
classic
cavitex
rayuma
honol
honors
ritmo
accord
breed
ispektr
jej
aparisyon
430
lesyon
##ursor
annie
decree
crow
parokyano
##unlaran
lumalapat
toni
princesa
seventh
kalalakihang
keyboard
keynes
##umentang
pagkakakilanlang
kapistahang
cleveland
1789
ipinagkatiwala
imbestigador
giant
kronika
tagapamahalang
saserdoteng
pagpopondo
hawai
tuldik
candaba
pinarusahan
survival
variant
maximus
lalung
sedim
heroes
##agpasan
gradwadong
konstantin
teroristang
nasusukat
talaksan
##found
##urhiya
continental
poblasyon
intensity
mangingibig
jeffrey
falls
##ekomiyenda
bugso
aerob
mikroorgan
maskot
words
bulati
electro
cosmic
a321
fellowship
psychology
hirohito
kognitibo
caucasus
sophia
kwalipikasyon
sekretaryo
nababalutan
diborsiyo
serpiyente
neptuno
cyclone
balingkin
##sargen
pisyolohiya
opensiba
natsume
tetrapod
consonant
##tomyces
temporaryong
beyonce
mapalad
sopistikadong
marcelino
shepher
purgatoryo
nainkorporadang
chrys
orgasmo
dadalhin
jihad
##utismuhan
gospel
honshu
paniqui
taganamamahala
sardinia
magdangal
kasultanan
istreptok
4th
bov
bacter
cs
cock
dagang
dantes
eig
give
hp
hess
hux
hope
iata
jel
jain
jov
jae
kiy
kutang
kitn
loss
lani
nuno
pept
putok
raman
rick
selling
tiff
tzu
ua
urob
voy
veh
yeh
##mc
##may
##mos
##set
##hwa
##iotiko
##palit
##df
##nub
##tapos
##yertong
##zburg
##basan
##wir
##28
##ик
##حم
naisa
sacr
##alayang
##alanse
##agand
##iland
ati
##erio
##ahit
##ingning
##apela
##abu
##abut
##iyansa
pagng
##adden
##adulas
##ened
##esenyo
##orum
##osin
##osoma
nagnais
##elasyong
pangte
##ungot
parusahan
parade
##omento
##ukh
pamaman
nihon
##alacat
##etis
##odigong
##iraan
unice
nakis
nakitaan
ibar
##istikang
kather
kash
kasay
##yotiko
hinuli
##ugpo
##ayaning
maiit
malag
mate
mataba
##antara
##ogang
##ogue
maringal
ildef
reim
kapang
kapos
kapakip
kapaham
kabant
kabaong
thuc
thumb
##uwersa
##obi
tinirhan
makatapos
makain
makasining
##ataguyod
##abasag
esteban
palermo
palagian
palingk
tagah
taguan
tran
trent
troso
aseksuwal
orm
orn
pamamaril
##aceous
binalik
binawasan
lumalawig
lumalangoy
pagsan
pagses
pata
##loon
##engers
kind
kinakal
##iven
##ulada
apend
apoll
##ohito
##oheno
pagtal
pagtaguyod
pagtulak
pagtakwil
paglagay
paglagong
paglalangoy
##dafi
pagbati
sti
esensiya
eslab
envelop
##eport
mabigyang
mabalacat
minutong
seryoso
pagkakad
kumilala
gumuhit
krak
krai
shen
napalaya
luy
luya
pinaglabanan
andal
##eksyong
umali
umahon
pambatasan
nagtalaga
pelig
##atanging
nagbubuo
parteng
pasy
elektor
kamis
neolitiko
nabuksan
subgroup
leip
antar
##umpet
humanga
##intesis
##endish
nahikayat
tsanel
tool
adrian
plema
spektrum
resol
kulani
pumutok
nagmarka
panlimang
cologne
pagdalo
ipasok
##artista
##ondon
talamak
newfound
komputasyon
sapad
##ially
genoa
beast
pabagsak
seth
1300
madaliang
madison
##walidad
##vere
crunch
nagdusa
scheme
tanaka
hangaring
tipas
##erbasyon
solis
boot
##perensiyang
##perimento
yoga
##atanto
ganadora
why
miyagi
baek
assam
merid
pinapak
pandikit
umiiyak
bisikleta
##rapiya
##ijor
bened
sandigan
johns
morrison
nagawaran
osamu
napapat
kweba
engr
501
imbes
##uzz
olimpiy
mainstream
idinadagdag
donetsk
portable
razon
sms
danilo
expos
##namiks
suntok
incre
##lakad
tagapanood
bieber
paglilihi
tabak
angelica
magdalo
makasama
##ctv
christine
revival
penis
maiu
cavendish
hipona
laway
bandz
bihasang
lapis
meso
mahahaba
##ophys
billion
sumasapat
##ompleto
pagtitipong
maximo
tensai
337
tyler
lambert
montal
kanonisasyon
##anks
hamog
advis
independence
matatal
370
340
downtown
humanities
dominante
keep
pacquiao
distansiyang
dylan
multiselular
431
460
radioactive
inanna
winning
circum
principal
tinitiyak
simbolismo
الم
michel
benguela
1799
almusal
hinahalal
better
pinagdugtong
kublai
ilonggo
arthropod
ordinansa
##uven
marsup
nagpatunay
777
nagpapatibay
##scape
konsiyertong
imperyalismo
minoryang
##harata
sambahayanan
1707
cordoba
crisis
psycho
fatim
carries
behet
obhektibong
pagdadalaga
koronasyon
matitigas
napakahalagang
censo
pinagpala
mauunawaan
falk
falcon
taxi
throne
thriller
bodhis
pinakabumentang
moneygram
kamangm
cetace
imprastruktura
license
transmiter
kampanaryo
horney
length
lovebird
binase
##ugtungan
mnlf
rpn
coastal
hahantong
alaminos
mawawala
magnitude
adolfo
embryo
streptomyces
amphoe
ikalabindalawang
klein
wakasan
yapak
trilob
telenov
assyria
environmental
writers
yamagata
daioh
diversion
prokaryote
confucius
kankana
##feld
sofia
ukranya
akawnt
cabrini
dionysus
issue
eklesy
tezuka
##continental
maksimum
pagkakamaling
pagamutan
kabikulan
pagreregla
pangsikolohiya
mahabharata
stockholm
##andidato
singgapur
kepler
katigasan
cooperation
siquijor
consortium
languages
honolulu
kitniyot
unicef
ildefonso
palingkurang
420
aat
adi
aco
autos
aakyat
bao
bingi
ct
cundin
dard
dikit
geng
germ
gisa
hc
hers
hert
horse
iro
iuc
mira
mys
nuw
nish
ole
ola
poh
pasan
rs
raya
rena
risk
sorp
soro
slab
sbs
tund
tukoy
tethys
vag
wend
wings
wences
yano
yuz
yeon
yamam
zak
##moy
##mikong
##shan
##hs
##rell
##pol
##pop
##plan
##lina
##cript
##uu
##udia
##nell
##yng
##zor
##zel
##witz
##од
##ос
##jal
##jid
##이
##ερ
##ла
##ημ
##ет
sail
##agod
##arbon
##ayman
##ontra
##amahang
##itos
##ulung
##ahod
##ahito
##apian
isas
##abwatan
pagr
pagadian
##awayan
##ads
##ening
##umat
##esyunal
##osyong
##imita
##usen
##eles
pangpanan
noel
##unge
inap
parish
##omed
pinabayaan
##emony
panc
pananaig
paniwalang
analy
magna
##istiya
kati
206
hinihin
##opus
alv
matatanggap
##antismo
##oge
##ogo
##oglob
marag
marilyn
karwahe
reink
kabul
thunder
kalubh
kalipunang
tinuring
tinantiyang
##amita
makintab
masins
masagana
##ebat
##ahilo
prup
prank
##alakan
pinakuluang
kaangk
tagatanggap
ipinalagay
ipinahiwatig
sinumpa
asetiko
naturing
native
##uddin
lumiliit
pagsal
pagsuri
dee
##loo
##imbo
##adow
##alagda
##tors
pagbobomba
##ihanay
stutt
##anapolis
##ampukan
##epos
##ambalan
minatamis
serial
tinatakda
pagkakatawan
pagkakahalintulad
pagkakabilanggo
##tures
ship
ekolohikal
bara
barry
andar
papalitan
umiwas
indang
pakasalan
particular
pastel
elite
neural
neoklas
nabenta
nagkalat
diary
pampamam
nilalag
musiko
muscle
leak
##umpung
intercontinental
sambayan
humuhula
##intong
##integ
nahaharap
nahirapan
##uluganan
contain
##eyelo
spain
##awatak
##yeon
resipi
isinumite
mapunta
mapalitan
##ifier
espn
##grapo
sean
seal
##aver
supilin
pagdisenyo
naglatag
##atius
142
bakufu
banu
pakikialam
madugong
sensei
pantulong
selena
crash
##pool
pagtatalagang
pagtatakdang
nagdurugtong
##abaha
periton
dingdong
ulcer
blake
ibinahagi
property
##erbury
oliba
##aryano
paggupit
institution
narin
emi
sulayman
koch
receptor
meryenda
iginig
igagawad
pinapaligiran
nalang
nalampasan
irene
upa
panghihimagsik
paglalarawang
##ashtra
magbukas
pangmadlang
utah
uttar
##agampanan
tinutugtog
tinuturuan
hitomi
##ysh
pagkabilanggo
##ache
ipinagpalagay
angkat
angkak
armor
areas
sekhem
magtipon
northrail
glac
pinagsamahan
initi
galle
gallo
helena
nadine
superstar
lucio
tagapagtanghal
historia
pinatubo
picc
capp
primarya
mekong
inaasintang
dahl
martyr
ferr
ferdow
eksaminasyon
pagkakasala
##akatiwalaan
felic
napagpasyahan
bihar
cytos
louvre
salinwika
twel
701
##ophobia
sumasagot
##weight
bloc
diyalogo
mutasyong
volunt
##zoa
roberts
maghanda
1855
pangsayaw
bahaghari
socrates
1842
moved
sonic
finance
finished
pagkalugi
foundry
protokol
isinaling
botohan
kalabanin
##kripto
manlililok
honda
bernad
bernakular
representatibo
claver
kandidatura
tukud
lesz
hesu
glory
1819
winners
sekswalidad
murray
astrop
makatao
trinity
humihiwalay
nakakatawang
kalamnang
klub
malabong
leaders
hermann
mitokond
liqu
normatibong
itinatala
diplomasya
##uktibong
profile
pangkasalukuyan
publisher
mediebal
musikerong
suprem
permentasyon
tangkad
bikolano
manson
antibody
nakatagong
dinamikal
australyano
physi
sindak
palestino
rooney
corticos
ube
morton
##ohenesis
kinalauna
##enegosyo
sheryn
rumano
pangkomunikasyon
pangkaunlaran
pampasaherong
episodyong
adventist
hagibis
napaunlad
eskwelahan
sutra
saturno
condition
yelong
##igurasyon
shoten
calcium
eukaryotiko
malacca
lampara
ptolomeo
diocese
purpura
ilustrado
histori
fifth
matsum
napagmasdang
peminista
pinapaikli
griffith
gaultier
etheria
dynamic
##innati
pinapahintulutan
crimea
transisyonal
##fried
kinahapunan
sinalihan
datapwat
uvular
ascii
ismael
taksonomiya
silly
terminolohiyang
geoffrey
tehran
paghiwalayin
##amarca
issued
anchor
mapapatunayan
nakagawian
kultibar
qaeda
iphone
features
nielsen
ibinalita
telebabad
kabayanihan
inilustra
inquirer
malawi
mickey
polymerase
pangdaigdig
behavior
bodega
presipitasyon
cincinnati
chocol
mendiola
coconut
yahoo
shueisha
tiffany
urobuchi
katherine
kapakipakinabang
pagsanjan
leipzig
kamangmangan
cundinamarca
kalubhaan
stuttgart
sambayanang
ferdowsi
basang
bubuo
credit
dik
duran
eeh
fg
finger
gak
gia
hond
hemat
iit
iipon
ketong
kusin
lr
lens
mika
mumb
muj
oasis
pst
ragn
seda
suez
taro
tiyo
tyn
uly
wen
zhao
##rene
##kano
##kare
##pt
##pos
##liya
##ciano
##deval
##nip
##yap
##vent
##fs
##33
##ᅡᆼ
##ᅡᆨ
##ᅥᆫ
nay
ngala
##inet
##inya
##agg
##aglay
##amiko
##amura
##italya
##itius
##aksi
##akdaan
##ahaba
##isal
##isma
##istos
islas
##ikel
##ikilala
##aware
##ader
##enne
##oralidad
##ipigil
panganak
pangrep
##uren
##ibors
##roe
mayn
iniksiyon
pineda
pinlandes
pinukaw
##emus
##emark
panch
##ubali
uncle
anis
anom
nakapan
kasamu
##yote
##ekias
209
##okontrol
mailipat
##andula
##otic
alden
malign
marij
rex
kaba
kabag
##uwahe
kalkul
kalungs
tinugtog
makapan
makahulugan
masay
masasama
masikip
pais
paalala
ginhawa
prol
kayat
kayong
brid
brass
bristol
ipinalit
halili
akita
try
sinar
sinong
sinalita
sineserb
batid
chul
binati
lumakad
pagsuway
patt
itinayong
pagtibayin
pangkaligt
paglang
paglihis
pagbura
pagpapako
pagpapakasakit
##alikuran
encom
labour
labindalawa
mabib
mabatong
mabibilang
tinatantiyang
pagkakabahagi
dax
shiro
ektar
bars
napanood
##lasma
nanawagan
papaya
pambiyolohiya
edwards
disaster
##adalisay
pasador
passer
kamakura
neal
neop
sarc
mussol
ante
antim
paghango
sakdal
tsuper
kilay
nagpasa
nagpaparami
kagut
##alingang
spiral
sparta
split
reserbang
balkan
mapatay
nagmamaneho
panlul
carr
carson
##avu
eurasia
cole
coin
dumaong
ipon
sinasal
##quito
pagbabanta
potos
talah
##ganang
moore
##sance
dry
##alli
##ropical
liban
ugong
kakikitaan
##ustic
setep
pakikiisa
scroll
selva
koptikong
cret
crystal
quad
nakikinabang
perri
babyl
##works
tipong
senegal
register
serbian
246
allies
allied
kongkretong
aired
papeles
siloh
##phere
napakama
##iju
285
bilihin
##ashita
pangmadla
##urei
geomet
compress
prinsesang
birming
ipinagmamalaki
nakasis
##ylus
sirka
danaya
dibuhong
weimar
kontamin
insular
lumilibot
skull
pagtutuon
kadenang
parkinson
alkali
##suya
administrador
flags
landmark
##robat
urbanong
melanes
dahas
offensive
sayt
##ctica
##akatiwala
nagkakahalagang
detective
##monte
nailunsad
parietal
ebidensya
ivy
operang
backup
sugp
dalawahan
jules
diyaryo
dimas
indie
volley
volyum
venue
##iveros
natututo
satir
remake
channels
tiger
maisakatuparan
1841
churchill
tutu
mistulang
rhyth
sirkitong
dominican
gerard
pinakamabiling
bernabe
tiberius
hudaismong
engineer
nakadirekta
hinihirang
husse
pagpapakahulugan
namamagitan
alexandre
632
yamanote
kumikita
cerebral
tribut
1822
humihikayat
laboratoryong
educational
binabayaran
matutunan
famili
komersiyal
##abalot
mexican
egeo
become
paghuhugas
membran
##raded
pinagdud
pinagdiriwang
chiu
kubiko
immac
efren
kudlit
tagapamuno
wallet
theropod
awtonomiya
equation
levy
levit
uddeval
asiria
antibiotiko
gunitain
pinakamalalim
maibsan
mesopotamiano
martires
processor
bronchi
cheonan
welfare
pagpapahalagang
kalupitan
hopkins
pagmamanipula
mapagmamasdan
gibbs
sherlock
kontrabidang
malikhain
pangmatagalan
tanggulang
kaalins
pinagtatalunang
maninila
1492
mapatalsik
marxismo
seminary
sawyer
maskara
imigrasyon
nababahala
togo
reader
nabubuong
severe
strauss
babilonyano
dopamino
takashi
akusado
toyota
dsm
gateway
strepto
produktibo
seleucus
##inungaling
sharif
##sburgo
ortograpiya
madrigal
cedric
torpido
kasabihang
federico
molecular
trutsa
lombard
sulfur
towards
thyroid
vediko
espinal
bulletin
duwende
masedonya
zacarias
magkakalapit
elisabeth
kustombre
##record
dambuhalang
pagkamamamayan
habanes
practice
epiphanius
odyssey
euphrates
talinghaga
sickle
kabaliktaran
announc
agustino
siracusa
doraemon
pagbabakuna
binangonan
sakhalin
prussia
esdras
downgraded
##restrial
rowspan
available
febvre
prazm
mikroorganismo
istreptokokus
huxley
maiitim
newfoundland
montalban
advisory
iucn
reinkarnasyon
kalungsuran
ektaryang
birmingham
2d
520
620
610
aagaw
aartista
biga
bulo
bose
cres
cune
cunanan
dama
dose
easter
email
fission
garing
hd
hua
jenna
ks
kuhan
koto
lenn
limbag
lakt
pill
pyg
rhin
sulong
swa
session
tos
wic
xen
yg
##mir
##med
##mara
##right
##rico
##rupo
##ruit
##kot
##gir
##pu
##pil
##pers
##pian
##laki
##dish
##nic
##tical
##yel
##yentong
##vers
##flor
##jer
##ая
##εν
##ич
##ون
##anese
naaprubahan
##atta
##atyag
##aras
##arna
##ayd
##aynamiks
##ontin
attr
##akap
iskr
isnag
##abalang
##abili
##iyunal
##tori
##unahing
##untos
##enyal
##oru
##osine
nagagawang
##usaw
##uster
##usdos
nomen
##urat
##idays
##idensiya
##idium
##ibon
inal
intef
##ukulan
##etch
##emic
##irs
unan
magulo
magatas
nakatayong
nakalimutan
##icill
##ekan
hinl
hinahatian
pagkahilo
##ugmang
##ugbog
maeda
maigi
alagaan
ara
aring
malaganap
##uhunang
##uhuli
##antaan
marang
kabute
thous
##uwestiyon
##oboto
tinio
tintang
tinangkilik
makatagpo
paiba
##tritis
##ebate
##eback
##alakihang
pinakahulugan
maniwala
estatal
tagpuang
bres
bruns
akem
asid
chari
chino
##accio
binatay
##udh
lumabag
pagsimula
salang
salat
salon
salakay
sumayaw
tumatayo
##ulatan
paglaya
##dao
pinakamarami
stations
sanzang
pagpapayo
##eplay
##eperre
miner
##yales
shandong
napuno
##rav
buumb
##ungkit
pakinggan
magkakasal
disko
nagbayad
parts
coming
sarsang
nilinang
pananabik
##umpayan
diyoses
mulawin
nahuling
##hie
##hium
liner
adela
consu
conrad
baluktot
mapalawak
mapainam
relatibo
##ighati
##ifar
itinatago
##illus
heian
panliligaw
pagdagsa
tagapagk
##alayok
nakakatanggap
nakakonekta
meimi
alba
albania
ond
##ilanlan
lax
tumutuloy
acts
pilitin
tunel
panteon
naglalayag
sentenaryo
##spring
kalakihang
crisan
crime
delaware
nakikis
transform
katanga
latb
taning
253
hangad
pagsasap
gui
bound
terror
211
surah
formspring
magpahayag
koine
##alogue
sobre
johor
umaasang
demi
umiinom
stratig
napakam
napakak
napakap
inihahayag
nakabigkis
erg
edukasyonal
##omberg
312
matematikang
elektrost
napapailalim
##ynth
magkakah
sinusuot
##sksargen
kinikilingan
##ontal
rosal
aquila
peer
naninigarilyo
webster
sityong
platon
platyp
##mous
biolohiyang
makatutulong
paglilibing
kakain
##isei
came
camiguin
pagpapatawad
bangin
ambisyon
ambros
pinagbab
iskalang
maiugnay
entre
ivo
astrologo
cyc
kongresyonal
richmond
ihatid
campaign
isinailalim
judge
indianapolis
endemiko
kinasas
361
maghiwalay
hamhung
nilalahad
krimeng
magkakaibigan
aksiy
trece
pinahiran
1847
##aksis
moving
movies
personality
trojan
basketbolista
palaisdaan
1835
katamaran
lakandula
##aginhawa
magpapakita
gerilyang
##empre
ipinagbibili
hinihila
hinihintay
pangtag
lisensya
lisensiy
lorna
motors
medici
optic
optika
kotseng
1810
1806
1802
nakapagpapa
nakasalig
kenyon
consol
pietro
kupunan
leading
hermas
magkasabay
##ordinahan
sinisi
liu
##napung
hatta
egg
anggulong
cleop
##brero
naghahain
ruben
kinakaharap
kitambayan
audit
katarungang
sintetiko
gorbach
kusilb
nomad
passes
kennon
##itsch
subset
dumadalaw
##agisnang
psychi
kompleksidad
pagkakahirang
suspek
kapansanang
vaj
pagdadagdag
##uctive
istraktural
message
##oscop
platapormang
ppp
optimal
investigation
mikroekonom
attacks
buntalang
fluor
##sworth
hellboy
proteina
colonel
liturhikal
severino
nakakahawa
nakapirming
eksplorasyon
kaasalang
antolohiya
venture
restoran
nakakalason
claudio
termodaynamiks
##attva
tilap
brodkast
parmasyut
kombinatoryal
skriba
chloride
magbubukid
torpedo
kasabwat
bamban
industriyalisasyon
pagbibinata
nabibigyan
windsor
chronicle
hannah
alveolar
pakikipagkalakalan
rahman
konstitusyong
denisovan
##midt
ipinagtibay
pontifex
hinahangaan
##nowola
ipinapanukalang
disipulo
traffic
nestorio
##western
ainu
pyongyang
hiwaga
pangongolekta
kantones
amniota
pinaninirahan
nakalalason
kooperatiba
narrator
wawasakin
glukosa
##igpitan
papatayin
emeritus
areglo
diocletian
piyanista
satoshi
shenzhen
magsasakang
kapahamakan
yamamoto
bernadette
claveria
tukudlangit
lesznowola
sineserbisyuhan
mussolini
kagutuman
prazmow
thousand
crisanto
platypus
gorbachev
aanak
beb
cen
cia
cara
culi
cogn
few
ging
gising
hera
iregular
jal
kahati
kho
kahanayan
lasang
mb
mahat
mahati
nsa
peral
pesh
putong
puzz
retail
vern
vapor
watan
wool
yuga
zi
zhu
μα
##miya
##mont
##kam
##pitong
##dem
##dna
##dings
##nosis
##tice
##balay
##bird
##fan
##joy
##jima
##200
##ᅮᆫ
##ين
naakay
sask
##alismo
##agahan
##atitik
##oniya
##itr
##ulila
##isismong
##issance
##apuan
##apawan
##apest
isan
##ikond
##ikman
##iyahang
##iyayaan
##tore
##unot
##aday
##aduhan
##osang
##osentr
##igipit
##ipital
##uson
##oloko
##urr
##idia
mayang
inim
inalay
pinya
##ukuro
nice
##uters
##eties
panandang
panustos
##irut
unc
anda
magdiwang
nakalabas
nakiusap
ibc
kats
kasuan
hiningi
hinukay
##entaryong
##ansan
maubos
maiksi
maingay
alig
arna
malnut
##uhusay
##ogram
marvin
ilunsad
iligal
reid
masipag
##chon
giniling
##troso
##ebang
##ebles
pran
##sac
##undu
##oyle
tagag
brach
sinilangan
sinamba
sinagot
asign
chak
chik
chili
chern
chow
cheer
namim
##acil
binihag
##udyo
patutot
##imbing
##engo
kahang
kahirapang
maaasahan
##rif
pagtira
pagtutok
mahulog
paglapag
paglanghap
abdom
above
kra
sharia
napigilan
##raine
nanoteknolohiya
##ardin
umapekto
##alima
opsyon
punsyon
indulh
nagbanggit
nagbabahagi
elvis
kamaliang
kamelyo
philo
subtr
diesel
sargon
pampak
mangyan
antil
interior
replac
pangalanan
##the
rehente
plakang
spee
##astikong
##orde
##ucer
isinampa
relay
##ifa
modalidad
siguro
sigmund
hez
dumud
tube
##artel
henetikang
##quist
amerikana
move
##umbaba
##inggit
saplad
genes
kakah
pabago
madagdagan
##walipika
nangangailangang
medikasyon
##tega
crack
kastilyong
bukung
##abawi
partikulang
organic
amazing
dalah
bibit
huni
ulila
latter
pangangal
pangangampanya
singh
presley
teorista
naghati
naghimagsik
tipak
##erbisyo
sold
##ostiko
booty
##orsk
kontratang
218
ganang
panseguridad
magpalabas
magparami
regla
puwestong
##dox
serbisiyo
herr
recent
##kriba
ehipsiyong
umaakit
pandagdag
nalipat
##erhead
straw
structure
silab
pinakamahuhusay
bisayas
##tium
276
nagsasangkot
bilig
biliran
bilateral
kumpas
iniibig
erwin
eridu
ekspres
desimal
nakalilikha
naisakatuparan
mananakay
budapest
hook
paliguan
##ennial
##ilee
pahintulutan
##lets
belle
valentina
ipinagpap
kwentong
nakasarang
nakasasanhi
imbentaryo
micrones
areang
sagutin
mandato
sirya
naitat
ipinapaliwanag
weight
naiambag
plane
##hoe
401
panggulugod
holidays
##yright
biod
biok
semic
semitikong
flux
eskuw
eskultura
legislat
banggaan
britney
simeon
##awiin
jamie
eksotikong
nagbabanta
329
penal
rebisyon
pumapabor
pagbubuwis
ikinat
jericho
khab
payne
prinsipalidad
realismo
aktress
cytop
salaysayin
359
nakipagkasundo
nananahan
gabby
pinaalis
episcop
kinasal
vener
sumusulat
mcf
advisor
##iramay
347
infant
bokasyonal
socc
palakasang
hardwer
makipagk
lehis
nakahih
tayuman
richardson
mahalumigmig
393
nagpasikat
komisyoner
manlul
bernal
mailigtas
breath
ispektrum
4000
ashley
dyel
interpersonal
oksido
panginginig
##ursigi
annual
nagngang
botong
workers
workshop
namamayani
##ilikhang
kontrobersiyang
lumalampas
plains
merkuryo
doctr
1827
lilia
pied
constantinopla
shinjuku
gotiko
magkasintahan
sinisiyasat
banking
pinapatnub
goods
studyo
##lohiyang
located
supremo
naghaharing
karnibor
##opteryg
737
pipi
pipit
##imenez
nagbubuhat
diosc
1776
theodor
sumisira
kinatatayuan
ronnie
ipinatawag
heograpiyang
titano
nike
1763
galac
provider
somalia
rabbi
ionong
jesse
fourth
sharp
roland
yugoslab
ricci
pamiminsalang
beatipikasyon
cube
kisame
parasito
pampasahero
orbito
bertebrata
paskwa
foods
elektromagnetikong
mapatunayan
graphic
konbensiyon
pinabuting
vinaya
ishikawa
fluid
gaddafi
tudor
pamasahe
terapiya
##unggab
injury
chavez
gnostisismo
peminismo
grosseto
inaakala
kroasya
amphib
kleon
epidemya
teddy
isinaplaka
penafran
probisyonal
melodiya
surpasiyong
constitut
eslobakya
mughal
heracles
mechanics
pagbibinyag
kuwadro
aplikante
bumibisita
success
nashville
panoorin
maligaya
rapidly
damascus
pretty
banggitin
interdisiplinaryo
ternate
companies
zuckermann
pinagsisilbihan
prekursor
punjab
awtomatikong
pagdadalangtao
nagsasakdal
subatomikong
deuterokanoniko
planning
nothing
desktop
politeknikong
mabalah
tsismis
hejaz
nestle
tissue
establisim
guardian
inilalaan
journey
corregidor
krakow
olimpiyada
bodhisattva
iginigiit
pangkaligtasan
paglangoy
uddevalla
buumbilang
consuelo
cleopatra
penafrancia
2k
agap
aaway
biff
dili
dism
ditong
dend
dash
distance
gle
gulat
gwang
gyat
guev
hort
iy
iikot
iyak
kj
kawag
lago
mya
moss
nona
neda
pung
payong
pdp
rami
rise
tic
tiro
vos
visita
yaya
yoko
yidis
zag
zed
ср
##hk
##run
##rose
##pon
##lona
##lace
##nak
##niss
##tem
##beck
##vat
##fen
##18
##analo
nair
naaan
##inite
##inius
##atter
##ataka
##atriya
##ilight
##amed
##amics
##amentaryo
##amilyang
##itungo
ata
##akawa
##akikita
##ullo
##eru
##isiyon
ishin
##abara
##ikahan
##ikato
##ikilya
##iyev
##awng
##awiang
##too
##aded
##oridad
##usi
##uslit
##olus
pangil
pangakong
inm
inh
inuran
inalagaan
##omintang
pinansin
pinuntahan
pamatay
##utra
##utungan
pantaong
katandaan
katniss
kasawiang
##icana
hina
hinalo
##enti
##enton
##entia
##stin
##oterm
alena
aruna
ariang
malam
mariv
marmol
marhinal
##anggan
kapa
kapabayaan
ikat
##uwit
##leen
kalm
kaliw
tinamb
maker
makinig
makaligtas
mast
paang
##ebut
##alake
##sain
##unduang
estonia
##ensasyon
bren
brief
ipinangalang
haliging
hally
##amanan
amper
thee
theoto
bahrain
chor
chos
chess
names
binu
binaybay
lumilipat
kinapal
sumbrero
##egong
##iliang
itinambal
tumuring
tumatakwil
mahiyain
paglinang
koms
##haz
##toryo
##iganap
##apagod
sanang
pagpapasa
pagpapangkat
agnes
labimpitong
##eppo
tinatanong
kriter
##lava
lual
miles
##ayson
pelopon
indiyan
##ioji
nagbabasa
elisa
elton
kamahalan
inililipat
nagkataon
subur
mangha
leuc
leaf
paghahating
pananalangin
repolyo
humula
##endang
nasiyahan
paggaya
kilabot
nagpataas
nagpabago
nagpapal
nagpapagana
basel
##ugnog
spice
spiel
##akashi
isinagawang
bale
balta
balido
mapabilang
mapanood
puma
mamon
pagpansin
kolo
heath
collabor
1648
pagdukot
dumarami
henyo
tagapagd
monet
monroe
sinasalitang
sinasagisag
nakakag
##coon
larang
tale
taliban
talmud
epil
draw
##zono
kompon
kompirm
baker
bakod
pilas
pilantrop
liboy
pabuya
##wald
pante
pagtatalumpati
bukirin
nagdadagdag
delgado
delfin
quart
transekswal
sabong
tanungin
urian
presb
251
##nea
##ffie
babes
kurdo
proper
trademark
termal
pagsasamang
turismong
olig
kawali
##ryn
yoo
215
ganiyang
magpalit
regulador
serbiyo
koordinasyon
##iangat
##uymoy
##oloid
tuwa
apruba
alloy
pinapaboran
umaakyat
aircraft
naligtas
nalikom
umiiwas
##yerong
pangharap
panghuhula
##ipated
arkong
##encephal
##ereal
eros
magbenta
##ext
yorkshire
southwest
hour
belmonte
filipinong
magtungo
filibus
donna
hyks
avengers
##usei
within
superv
holoca
##ronym
campan
##ahalili
evil
pinatawad
capas
bangus
ganapin
##eptiko
makaapekto
respirasyon
##iskey
##assus
penang
kinau
metalikong
maitat
muhlach
bestih
laplace
notting
twain
pinagkak
sahonya
355
tydings
venecia
##jou
natutuklasan
lihis
375
binabantayan
tours
trout
bosn
lehitimo
pagkalupkop
bunsod
victorina
unggar
395
horizon
bigkasin
logan
##ilinlang
##kanto
claudia
multid
testimonya
tindero
gonad
630
kuiper
kuomintang
parokyang
lamad
defensive
lingo
caspian
tribune
converse
1829
consumer
habsburgo
bhaga
aurelius
diskurso
nicola
6000
velarde
1793
lyell
lydia
seconds
hinahalo
570
kapask
nooong
hiroshi
content
immune
dambanang
kidney
##grapiyang
naghahari
plasa
substitusyon
pagpapasuso
kosmikong
prometheus
tatluhang
##olisis
pagkahulog
shaider
transmission
mariing
madreng
nikol
1598
extrat
funds
nicole
monasteryong
militante
inisyu
suzy
galaksiyang
actors
canterbury
annex
renasimyento
cuen
kisangani
cornell
multiplayer
dokumentaryong
maninipis
tollways
inkorpor
pagkokodigo
adbent
ssri
peninsular
revolutionary
kumukulong
imigranteng
congressman
pearson
meyer
cady
samaritanong
ptolemy
##umpisahan
##unggaban
purpose
slavic
valentinian
noveleta
reichst
magnitudo
chalcedonian
kompetet
kwantika
flamen
siruhano
[...]
